{
  "version": "1.0",
  "truncation": {
    "direction": "Right",
    "max_length": 512,
    "strategy": "LongestFirst",
    "stride": 0
  },
  "padding": {
    "strategy": {
      "Fixed": 512
    },
    "direction": "Right",
    "pad_to_multiple_of": null,
    "pad_id": 1,
    "pad_type_id": 0,
    "pad_token": "<pad>"
  },
  "added_tokens": [
    {
      "id": 0,
      "content": "<s>",
      "single_word": false,
      "lstrip": false,
      "rstrip": false,
      "normalized": true,
      "special": true
    },
    {
      "id": 1,
      "content": "<pad>",
      "single_word": false,
      "lstrip": false,
      "rstrip": false,
      "normalized": true,
      "special": true
    },
    {
      "id": 2,
      "content": "</s>",
      "single_word": false,
      "lstrip": false,
      "rstrip": false,
      "normalized": true,
      "special": true
    },
    {
      "id": 3,
      "content": "<unk>",
      "single_word": false,
      "lstrip": false,
      "rstrip": false,
      "normalized": true,
      "special": true
    },
    {
      "id": 4,
      "content": "<mask>",
      "single_word": false,
      "lstrip": true,
      "rstrip": false,
      "normalized": true,
      "special": true
    }
  ],
  "normalizer": null,
  "pre_tokenizer": {
    "type": "ByteLevel",
    "add_prefix_space": false,
    "trim_offsets": true,
    "use_regex": true
  },
  "post_processor": {
    "type": "RobertaProcessing",
    "sep": [
      "</s>",
      2
    ],
    "cls": [
      "<s>",
      0
    ],
    "trim_offsets": true,
    "add_prefix_space": false
  },
  "decoder": {
    "type": "ByteLevel",
    "add_prefix_space": true,
    "trim_offsets": true,
    "use_regex": true
  },
  "model": {
    "type": "BPE",
    "dropout": null,
    "unk_token": null,
    "continuing_subword_prefix": "",
    "end_of_word_suffix": "",
    "fuse_unk": false,
    "byte_fallback": false,
    "ignore_merges": false,
    "vocab": {
      "<s>": 0,
      "<pad>": 1,
      "</s>": 2,
      "<unk>": 3,
      "<mask>": 4,
      "!": 5,
      "\"": 6,
      "#": 7,
      "$": 8,
      "%": 9,
      "&": 10,
      "'": 11,
      "(": 12,
      ")": 13,
      "*": 14,
      "+": 15,
      ",": 16,
      "-": 17,
      ".": 18,
      "/": 19,
      "0": 20,
      "1": 21,
      "2": 22,
      "3": 23,
      "4": 24,
      "5": 25,
      "6": 26,
      "7": 27,
      "8": 28,
      "9": 29,
      ":": 30,
      ";": 31,
      "<": 32,
      "=": 33,
      ">": 34,
      "?": 35,
      "@": 36,
      "A": 37,
      "B": 38,
      "C": 39,
      "D": 40,
      "E": 41,
      "F": 42,
      "G": 43,
      "H": 44,
      "I": 45,
      "J": 46,
      "K": 47,
      "L": 48,
      "M": 49,
      "N": 50,
      "O": 51,
      "P": 52,
      "Q": 53,
      "R": 54,
      "S": 55,
      "T": 56,
      "U": 57,
      "V": 58,
      "W": 59,
      "X": 60,
      "Y": 61,
      "Z": 62,
      "[": 63,
      "\\": 64,
      "]": 65,
      "^": 66,
      "_": 67,
      "`": 68,
      "a": 69,
      "b": 70,
      "c": 71,
      "d": 72,
      "e": 73,
      "f": 74,
      "g": 75,
      "h": 76,
      "i": 77,
      "j": 78,
      "k": 79,
      "l": 80,
      "m": 81,
      "n": 82,
      "o": 83,
      "p": 84,
      "q": 85,
      "r": 86,
      "s": 87,
      "t": 88,
      "u": 89,
      "v": 90,
      "w": 91,
      "x": 92,
      "y": 93,
      "z": 94,
      "{": 95,
      "|": 96,
      "}": 97,
      "~": 98,
      "¡": 99,
      "¢": 100,
      "£": 101,
      "¤": 102,
      "¥": 103,
      "¦": 104,
      "§": 105,
      "¨": 106,
      "©": 107,
      "ª": 108,
      "«": 109,
      "¬": 110,
      "®": 111,
      "¯": 112,
      "°": 113,
      "±": 114,
      "²": 115,
      "³": 116,
      "´": 117,
      "µ": 118,
      "¶": 119,
      "·": 120,
      "¸": 121,
      "¹": 122,
      "º": 123,
      "»": 124,
      "¼": 125,
      "½": 126,
      "¾": 127,
      "¿": 128,
      "À": 129,
      "Á": 130,
      "Â": 131,
      "Ã": 132,
      "Ä": 133,
      "Å": 134,
      "Æ": 135,
      "Ç": 136,
      "È": 137,
      "É": 138,
      "Ê": 139,
      "Ë": 140,
      "Ì": 141,
      "Í": 142,
      "Î": 143,
      "Ï": 144,
      "Ð": 145,
      "Ñ": 146,
      "Ò": 147,
      "Ó": 148,
      "Ô": 149,
      "Õ": 150,
      "Ö": 151,
      "×": 152,
      "Ø": 153,
      "Ù": 154,
      "Ú": 155,
      "Û": 156,
      "Ü": 157,
      "Ý": 158,
      "Þ": 159,
      "ß": 160,
      "à": 161,
      "á": 162,
      "â": 163,
      "ã": 164,
      "ä": 165,
      "å": 166,
      "æ": 167,
      "ç": 168,
      "è": 169,
      "é": 170,
      "ê": 171,
      "ë": 172,
      "ì": 173,
      "í": 174,
      "î": 175,
      "ï": 176,
      "ð": 177,
      "ñ": 178,
      "ò": 179,
      "ó": 180,
      "ô": 181,
      "õ": 182,
      "ö": 183,
      "÷": 184,
      "ø": 185,
      "ù": 186,
      "ú": 187,
      "û": 188,
      "ü": 189,
      "ý": 190,
      "þ": 191,
      "ÿ": 192,
      "Ā": 193,
      "ā": 194,
      "Ă": 195,
      "ă": 196,
      "Ą": 197,
      "ą": 198,
      "Ć": 199,
      "ć": 200,
      "Ĉ": 201,
      "ĉ": 202,
      "Ċ": 203,
      "ċ": 204,
      "Č": 205,
      "č": 206,
      "Ď": 207,
      "ď": 208,
      "Đ": 209,
      "đ": 210,
      "Ē": 211,
      "ē": 212,
      "Ĕ": 213,
      "ĕ": 214,
      "Ė": 215,
      "ė": 216,
      "Ę": 217,
      "ę": 218,
      "Ě": 219,
      "ě": 220,
      "Ĝ": 221,
      "ĝ": 222,
      "Ğ": 223,
      "ğ": 224,
      "Ġ": 225,
      "ġ": 226,
      "Ģ": 227,
      "ģ": 228,
      "Ĥ": 229,
      "ĥ": 230,
      "Ħ": 231,
      "ħ": 232,
      "Ĩ": 233,
      "ĩ": 234,
      "Ī": 235,
      "ī": 236,
      "Ĭ": 237,
      "ĭ": 238,
      "Į": 239,
      "į": 240,
      "İ": 241,
      "ı": 242,
      "Ĳ": 243,
      "ĳ": 244,
      "Ĵ": 245,
      "ĵ": 246,
      "Ķ": 247,
      "ķ": 248,
      "ĸ": 249,
      "Ĺ": 250,
      "ĺ": 251,
      "Ļ": 252,
      "ļ": 253,
      "Ľ": 254,
      "ľ": 255,
      "Ŀ": 256,
      "ŀ": 257,
      "Ł": 258,
      "ł": 259,
      "Ń": 260,
      "ng": 261,
      "ang": 262,
      "na": 263,
      "Ġs": 264,
      "Ġm": 265,
      "an": 266,
      "Ġp": 267,
      "Ġsa": 268,
      "Ġna": 269,
      "at": 270,
      "Ġng": 271,
      "al": 272,
      "ag": 273,
      "Ġk": 274,
      "ay": 275,
      "in": 276,
      "Ġang": 277,
      "it": 278,
      "ar": 279,
      "ga": 280,
      "il": 281,
      "as": 282,
      "am": 283,
      "Ġb": 284,
      "Ġt": 285,
      "on": 286,
      "ak": 287,
      "is": 288,
      "Ġmga": 289,
      "ing": 290,
      "Ġn": 291,
      "er": 292,
      "ong": 293,
      "ah": 294,
      "Ġat": 295,
      "ap": 296,
      "Ġd": 297,
      "Ġl": 298,
      "ul": 299,
      "ab": 300,
      "Ġh": 301,
      "iy": 302,
      "ina": 303,
      "Ġpag": 304,
      "aw": 305,
      "Ġay": 306,
      "es": 307,
      "um": 308,
      "or": 309,
      "en": 310,
      "ĠP": 311,
      "ad": 312,
      "ig": 313,
      "un": 314,
      "ib": 315,
      "ĠA": 316,
      "os": 317,
      "ung": 318,
      "us": 319,
      "Ġis": 320,
      "ĠM": 321,
      "ĠS": 322,
      "ik": 323,
      "ito": 324,
      "Ġpar": 325,
      "re": 326,
      "Ġg": 327,
      "di": 328,
      "ip": 329,
      "ana": 330,
      "im": 331,
      "to": 332,
      "ro": 333,
      "Ġmag": 334,
      "Ġo": 335,
      "up": 336,
      "ilang": 337,
      "Ġisang": 338,
      "iya": 339,
      "Ġnag": 340,
      "ĠD": 341,
      "ut": 342,
      "ĠC": 343,
      "Ġpara": 344,
      "Ġc": 345,
      "id": 346,
      "indi": 347,
      "Ġkan": 348,
      "uk": 349,
      "ol": 350,
      "el": 351,
      "Ġw": 352,
      "uh": 353,
      "ĠB": 354,
      "Ġni": 355,
      "ot": 356,
      "ala": 357,
      "Ġpa": 358,
      "ur": 359,
      "ent": 360,
      "âĢ": 361,
      "ĠK": 362,
      "ic": 363,
      "yon": 364,
      "Ġito": 365,
      "ĠN": 366,
      "ok": 367,
      "Ġak": 368,
      "Ġhindi": 369,
      "ir": 370,
      "and": 371,
      "Ġkung": 372,
      "ano": 373,
      "ĠI": 374,
      "ĠT": 375,
      "yo": 376,
      "Ġr": 377,
      "et": 378,
      "Ġmay": 379,
      "Ġko": 380,
      "ila": 381,
      "Ġin": 382,
      "ion": 383,
      "..": 384,
      "ya": 385,
      "ed": 386,
      "ub": 387,
      "Ġf": 388,
      "Ġka": 389,
      "em": 390,
      "Ġnak": 391,
      "alam": 392,
      "od": 393,
      "Ġma": 394,
      "Ġkay": 395,
      "ĠL": 396,
      "ug": 397,
      "ih": 398,
      "Ġta": 399,
      "ĠH": 400,
      "om": 401,
      "ĠG": 402,
      "Ġnam": 403,
      "ula": 404,
      "Ġsi": 405,
      "ĠR": 406,
      "Ġ(": 407,
      "ac": 408,
      "Ġmak": 409,
      "he": 410,
      "uw": 411,
      "ita": 412,
      "yang": 413,
      "Ġup": 414,
      "Ġpang": 415,
      "Ġpagk": 416,
      "sa": 417,
      "Ġga": 418,
      "Ġre": 419,
      "Ġib": 420,
      "una": 421,
      "ta": 422,
      "ek": 423,
      "Ġnang": 424,
      "Ġmat": 425,
      "Ġupang": 426,
      "Ġmas": 427,
      "Ġkas": 428,
      "ahil": 429,
      "Ġpam": 430,
      "Ġ1": 431,
      "le": 432,
      "ĠE": 433,
      "apat": 434,
      "ant": 435,
      "Ġiy": 436,
      "iw": 437,
      "ĠAng": 438,
      "Ġ2": 439,
      "alak": 440,
      "Ġpina": 441,
      "ĠJ": 442,
      "Ġlang": 443,
      "alang": 444,
      "ari": 445,
      "ino": 446,
      "alag": 447,
      "Ġbuh": 448,
      "ec": 449,
      "ob": 450,
      "tr": 451,
      "Ġmo": 452,
      "Ġdahil": 453,
      "awa": 454,
      "Ġpro": 455,
      "Ġako": 456,
      "og": 457,
      "Ġniya": 458,
      "Ġmula": 459,
      "ahat": 460,
      "Ġsiya": 461,
      "ers": 462,
      "Ġkanyang": 463,
      "Ġkat": 464,
      "ĠF": 465,
      "res": 466,
      "Ġbag": 467,
      "Ġof": 468,
      "Ġnat": 469,
      "Ġe": 470,
      "wa": 471,
      "Ġnaman": 472,
      "sing": 473,
      "ilip": 474,
      "Ang": 475,
      "oy": 476,
      "ama": 477,
      "ata": 478,
      "Ġthe": 479,
      "iyang": 480,
      "ahan": 481,
      "Ġmal": 482,
      "apag": 483,
      "Ġar": 484,
      "Ġum": 485,
      "aba": 486,
      "alamang": 487,
      "bi": 488,
      "apos": 489,
      "ili": 490,
      "Ġit": 491,
      "ter": 492,
      "asyon": 493,
      "singaw": 494,
      "Ġtao": 495,
      "itan": 496,
      "angg": 497,
      "aya": 498,
      "Ġhalamang": 499,
      "amang": 500,
      "ĠâĢ": 501,
      "Ġlahat": 502,
      "ayan": 503,
      "ation": 504,
      "Ġrin": 505,
      "Ġiyong": 506,
      "00": 507,
      "te": 508,
      "yan": 509,
      "Ġkanilang": 510,
      "ero": 511,
      "Ġkam": 512,
      "iyos": 513,
      "pap": 514,
      "Ġto": 515,
      "iv": 516,
      "nal": 517,
      "ep": 518,
      "est": 519,
      "ĠO": 520,
      "Ġbuhok": 521,
      "Ġnito": 522,
      "do": 523,
      "Ġmaa": 524,
      "ulong": 525,
      "Ġan": 526,
      "orm": 527,
      "ĠDiyos": 528,
      "Ġtr": 529,
      "Ġsina": 530,
      "lo": 531,
      "mit": 532,
      "aram": 533,
      "Ġip": 534,
      "ist": 535,
      "imb": 536,
      "ayo": 537,
      "Ġpana": 538,
      "uko": 539,
      "ine": 540,
      "Ġal": 541,
      "ĠPang": 542,
      "Ġmah": 543,
      "ayon": 544,
      "ity": 545,
      "Ġkah": 546,
      "ment": 547,
      "Ġ\"": 548,
      "Ġdin": 549,
      "Ġpagb": 550,
      "aring": 551,
      "Ġkal": 552,
      "ating": 553,
      "ĠW": 554,
      "ate": 555,
      "io": 556,
      "Ġno": 557,
      "ch": 558,
      "ie": 559,
      "ĠU": 560,
      "ain": 561,
      "alan": 562,
      "ia": 563,
      "ara": 564,
      "op": 565,
      "awang": 566,
      "Ġkuko": 567,
      "Ġ-": 568,
      "Ġkab": 569,
      "ibig": 570,
      "mot": 571,
      "Ġpagga": 572,
      "Ġsila": 573,
      "ort": 574,
      "Ġpat": 575,
      "Ġa": 576,
      "Ġpamam": 577,
      "anan": 578,
      "...": 579,
      "ans": 580,
      "yong": 581,
      "Ġgina": 582,
      "Ġman": 583,
      "Ġv": 584,
      "âĢĻ": 585,
      "Ġmab": 586,
      "ens": 587,
      "awan": 588,
      "aro": 589,
      "tor": 590,
      "ahay": 591,
      "Ġlamang": 592,
      "Ġwalang": 593,
      "aka": 594,
      "Ġlab": 595,
      "Ġand": 596,
      "Ġnila": 597,
      "Ġiba": 598,
      "Ġpaano": 599,
      "Ġpags": 600,
      "Ġil": 601,
      "st": 602,
      "Ġbilang": 603,
      "ud": 604,
      "Ġy": 605,
      "pl": 606,
      "Ġam": 607,
      "asa": 608,
      "Ġdal": 609,
      "alaga": 610,
      "eg": 611,
      "eb": 612,
      "und": 613,
      "ungk": 614,
      "Ġpo": 615,
      "Ġnga": 616,
      "Sa": 617,
      "Ġkap": 618,
      "anda": 619,
      "ka": 620,
      "Ġor": 621,
      "Ġ=": 622,
      "âĢĿ": 623,
      "ĠV": 624,
      "int": 625,
      "ice": 626,
      "ĠSa": 627,
      "Ġtum": 628,
      "aling": 629,
      "ill": 630,
      "ado": 631,
      "Ġdi": 632,
      "ha": 633,
      "qu": 634,
      "agd": 635,
      "Ġkar": 636,
      "unt": 637,
      "Ġth": 638,
      "abang": 639,
      "ali": 640,
      "ce": 641,
      "inas": 642,
      "Ġik": 643,
      "Ġkum": 644,
      "ilangan": 645,
      "ial": 646,
      "alo": 647,
      "Ġban": 648,
      "Ġisa": 649,
      "Ġpamamag": 650,
      "Ġpagt": 651,
      "uha": 652,
      "uan": 653,
      "Ġaraw": 654,
      "Ġpagl": 655,
      "Ġnap": 656,
      "Ġkaya": 657,
      "Ġsus": 658,
      "no": 659,
      "art": 660,
      ",\"": 661,
      "Ġ20": 662,
      "Ġop": 663,
      "ulat": 664,
      "Ġpamamagitan": 665,
      "inal": 666,
      "Ġmaaaring": 667,
      "Ġ3": 668,
      "Ġsum": 669,
      "ena": 670,
      "Ġim": 671,
      "anak": 672,
      "Ġlum": 673,
      "Ġag": 674,
      "Ġba": 675,
      "Ġnoong": 676,
      "Ġano": 677,
      "unit": 678,
      "ĠPag": 679,
      "Ġnags": 680,
      "ĠAt": 681,
      "Ġmagk": 682,
      "ind": 683,
      "ulo": 684,
      "ihan": 685,
      "oc": 686,
      "itong": 687,
      "Ġgum": 688,
      "Ġdapat": 689,
      "Ġpan": 690,
      "amit": 691,
      "idad": 692,
      "Ġaking": 693,
      "asan": 694,
      "'t": 695,
      "Ġpagpap": 696,
      "Ġas": 697,
      "Ġngayon": 698,
      "agdag": 699,
      "Ġmap": 700,
      "ĠIn": 701,
      "ĠâĢľ": 702,
      "Ġsaan": 703,
      "Ġi": 704,
      "ulang": 705,
      "abi": 706,
      "atapos": 707,
      "eh": 708,
      "Ġnas": 709,
      "usto": 710,
      "ident": 711,
      "alik": 712,
      "agi": 713,
      "Ġtungk": 714,
      "av": 715,
      "Ġtul": 716,
      "ĠCh": 717,
      "inig": 718,
      "Ġbat": 719,
      "Ġsal": 720,
      "Ġilang": 721,
      "unod": 722,
      "Ġpaggamot": 723,
      "angk": 724,
      "angga": 725,
      "alaki": 726,
      "Ġsin": 727,
      "ess": 728,
      "Ġmaram": 729,
      "Ġpinak": 730,
      "ĠPh": 731,
      "inat": 732,
      "ast": 733,
      "syon": 734,
      "ĠKung": 735,
      "Ġbum": 736,
      "hon": 737,
      "ver": 738,
      "ins": 739,
      "amp": 740,
      "uro": 741,
      "uhan": 742,
      "Ġlo": 743,
      "Ġbansa": 744,
      "Ġtag": 745,
      "alat": 746,
      "alim": 747,
      "Ġdito": 748,
      "end": 749,
      "ento": 750,
      "Ġpagp": 751,
      "man": 752,
      "Ġpres": 753,
      "eng": 754,
      "Ġnasa": 755,
      "Ġmad": 756,
      "isyon": 757,
      "Ġ'": 758,
      "ika": 759,
      "Ġres": 760,
      "Ġbuhay": 761,
      "Ġpaa": 762,
      "Ġwala": 763,
      "anap": 764,
      "pek": 765,
      "Ġparas": 766,
      "anggang": 767,
      "akit": 768,
      "Ġpl": 769,
      "Ġtungkol": 770,
      "ago": 771,
      "th": 772,
      "ard": 773,
      "ma": 774,
      "Ġibang": 775,
      "Ġkon": 776,
      "abas": 777,
      "Ġtaon": 778,
      "Ġsar": 779,
      "ite": 780,
      "aman": 781,
      "aroon": 782,
      "ĠPilip": 783,
      "anong": 784,
      "Ġpagkak": 785,
      "Ġ201": 786,
      "ust": 787,
      "ff": 788,
      "Ġpas": 789,
      "ĠAl": 790,
      "Ġmaging": 791,
      "uri": 792,
      "tion": 793,
      "Ġina": 794,
      "ide": 795,
      "ra": 796,
      "Ġpos": 797,
      "arap": 798,
      "AN": 799,
      "unang": 800,
      "Ġcon": 801,
      "igh": 802,
      "atay": 803,
      "Ġon": 804,
      "ional": 805,
      "igit": 806,
      "Ġanak": 807,
      "agawa": 808,
      "abah": 809,
      "ĠHindi": 810,
      "Ġnatin": 811,
      "unan": 812,
      "Ġbu": 813,
      "Ġumano": 814,
      "ump": 815,
      "ilipp": 816,
      "awala": 817,
      "Ġhanggang": 818,
      "port": 819,
      "amb": 820,
      "ly": 821,
      "Ġst": 822,
      "iling": 823,
      "iging": 824,
      "ue": 825,
      "Ġpr": 826,
      "emb": 827,
      "Ġsak": 828,
      "anggap": 829,
      "yal": 830,
      "aan": 831,
      "ĠPangino": 832,
      "alaman": 833,
      "ĠMay": 834,
      "Ġpak": 835,
      "Ġhal": 836,
      "mp": 837,
      "Ġpal": 838,
      "dib": 839,
      "Ġap": 840,
      "ĠPhilipp": 841,
      "Ġlaban": 842,
      "Ġsh": 843,
      "Ġcom": 844,
      "ĠMar": 845,
      "Ġpagh": 846,
      "han": 847,
      "Ġmong": 848,
      "Ġmatapos": 849,
      "ĠAr": 850,
      "uwag": 851,
      "imbang": 852,
      "ive": 853,
      "Ġmask": 854,
      "Ġper": 855,
      "Ġfor": 856,
      "angy": 857,
      ").": 858,
      "ĠCity": 859,
      "Ġnagb": 860,
      "Ġtat": 861,
      "oto": 862,
      "ahagi": 863,
      "ihin": 864,
      "nan": 865,
      "ipag": 866,
      "Ġating": 867,
      "ian": 868,
      "vie": 869,
      "iga": 870,
      "uc": 871,
      "ema": 872,
      "Ġkina": 873,
      "Ġkaniyang": 874,
      "inis": 875,
      "Ġnamin": 876,
      "Ġtaong": 877,
      "ew": 878,
      "Ġ4": 879,
      "Ġpinag": 880,
      "Ġhabang": 881,
      "iko": 882,
      "ey": 883,
      "iz": 884,
      "Ġser": 885,
      "uter": 886,
      "Ġbata": 887,
      "Ġbaw": 888,
      "Ġpum": 889,
      "Ġtimbang": 890,
      "co": 891,
      "uto": 892,
      "usay": 893,
      "alita": 894,
      "Ġpero": 895,
      "Ġdalawang": 896,
      "Ġloob": 897,
      "ura": 898,
      "alaking": 899,
      "Ġbagay": 900,
      "abaho": 901,
      "Ġkag": 902,
      "Ġsinabi": 903,
      "ilala": 904,
      "Ġnab": 905,
      "Ġkong": 906,
      "Ġkami": 907,
      "uloy": 908,
      "anag": 909,
      "Ġmata": 910,
      "ies": 911,
      "Ġ5": 912,
      "view": 913,
      "ines": 914,
      "Ġbul": 915,
      "Ġkapag": 916,
      "ayong": 917,
      "Ġmags": 918,
      "da": 919,
      "ĠIs": 920,
      "Ġpinakam": 921,
      "ibigay": 922,
      "Ġkahit": 923,
      "ibdib": 924,
      "Ġdum": 925,
      "Ġnagp": 926,
      "Ġsp": 927,
      "Ġpanahon": 928,
      "Ġkanya": 929,
      "Ġniyang": 930,
      "ĠAn": 931,
      "ism": 932,
      "uli": 933,
      "akas": 934,
      "la": 935,
      "ure": 936,
      "Ġmaaari": 937,
      "Ġgawa": 938,
      "akat": 939,
      "ahayag": 940,
      "Ġnitong": 941,
      "Ġginaga": 942,
      "uling": 943,
      "arang": 944,
      "Ġngunit": 945,
      "Ġj": 946,
      "Ġsiyang": 947,
      "Ġac": 948,
      "Ġkasama": 949,
      "ore": 950,
      "alit": 951,
      "ugar": 952,
      "Ġworm": 953,
      "ingg": 954,
      "Ġnagk": 955,
      "les": 956,
      "Ġad": 957,
      "aran": 958,
      "iwala": 959,
      "Ġbahay": 960,
      "ĠMga": 961,
      "Ġdibdib": 962,
      "Ayon": 963,
      "ĠY": 964,
      "Ġpul": 965,
      "Ġch": 966,
      "ow": 967,
      "Ġtulad": 968,
      "Ġde": 969,
      "Ġbaba": 970,
      "Ġex": 971,
      "ris": 972,
      "bay": 973,
      "ary": 974,
      "aral": 975,
      "ĠCom": 976,
      "Ġlugar": 977,
      "Ġmaraming": 978,
      "ada": 979,
      "aga": 980,
      "Ġoras": 981,
      "Ġtayo": 982,
      "inag": 983,
      "Ġpap": 984,
      "Ġgr": 985,
      "akita": 986,
      "Ġhe": 987,
      "ubl": 988,
      "ĠPanginoon": 989,
      "Ġpin": 990,
      "usap": 991,
      "Ġdis": 992,
      "ĠDi": 993,
      "apon": 994,
      "Ġaming": 995,
      "Ġmagp": 996,
      "lang": 997,
      "are": 998,
      "Ġdr": 999,
      "Ġbago": 1000,
      "Ġakin": 1001,
      "Ġnaging": 1002,
      "isyo": 1003,
      "Ġco": 1004,
      "abing": 1005,
      "tim": 1006,
      "win": 1007,
      "Ġpagkatapos": 1008,
      "ilan": 1009,
      "âĢ¦": 1010,
      "Ġgamit": 1011,
      "duk": 1012,
      "Ġreview": 1013,
      "uterte": 1014,
      "ement": 1015,
      "all": 1016,
      "Ġparaan": 1017,
      "apit": 1018,
      "enc": 1019,
      "Ġab": 1020,
      "if": 1021,
      "bo": 1022,
      "ord": 1023,
      "irap": 1024,
      "awag": 1025,
      "umang": 1026,
      "Ġbuw": 1027,
      "ĠMag": 1028,
      "andang": 1029,
      "gr": 1030,
      "ork": 1031,
      "ĠDuterte": 1032,
      "ilis": 1033,
      "Ġbawat": 1034,
      "Ġbas": 1035,
      "Ġbagong": 1036,
      "ĠPilipinas": 1037,
      "agal": 1038,
      "ilya": 1039,
      "Ġayon": 1040,
      "iit": 1041,
      "isa": 1042,
      "ugna": 1043,
      "Ġnagt": 1044,
      "Ġprob": 1045,
      "ĠIto": 1046,
      "Ġiyo": 1047,
      "sp": 1048,
      "Ġalam": 1049,
      "Ġitong": 1050,
      "ista": 1051,
      "imula": 1052,
      "ulan": 1053,
      "Ġkasi": 1054,
      "dia": 1055,
      "Ġimp": 1056,
      "ĠNag": 1057,
      "Ġtin": 1058,
      "Ġlib": 1059,
      "Ġkayo": 1060,
      "Ġkatawan": 1061,
      "pag": 1062,
      "ungan": 1063,
      "Ġsup": 1064,
      "Ġmam": 1065,
      "ato": 1066,
      "Ġgan": 1067,
      "ight": 1068,
      "Ġbahagi": 1069,
      "isip": 1070,
      "Ġyung": 1071,
      "ahala": 1072,
      "Ġilalim": 1073,
      "ons": 1074,
      "ĠNg": 1075,
      "Ġmar": 1076,
      "Ġkailangan": 1077,
      "Ġme": 1078,
      "ĠMa": 1079,
      "Ġunang": 1080,
      "ult": 1081,
      "uhay": 1082,
      "Ġdo": 1083,
      "ugan": 1084,
      "igt": 1085,
      "ĠMas": 1086,
      "Kung": 1087,
      "Ġel": 1088,
      "Ġlangis": 1089,
      "Ġkanila": 1090,
      "ry": 1091,
      "iyon": 1092,
      "Ġhum": 1093,
      "adong": 1094,
      "iyak": 1095,
      "alagang": 1096,
      "ck": 1097,
      "ĠUn": 1098,
      "Ġdating": 1099,
      "Ġkang": 1100,
      "uti": 1101,
      "Ġbuong": 1102,
      "arawan": 1103,
      "ĠMan": 1104,
      "Ġdaw": 1105,
      "long": 1106,
      "Ġnar": 1107,
      "anay": 1108,
      "ko": 1109,
      "Ġkasal": 1110,
      "Ġbe": 1111,
      "air": 1112,
      "uno": 1113,
      "igay": 1114,
      "unta": 1115,
      "Ġmagb": 1116,
      "her": 1117,
      "Ġnin": 1118,
      "Ġsab": 1119,
      "ack": 1120,
      "sak": 1121,
      "igo": 1122,
      "anga": 1123,
      "Ġbabae": 1124,
      "undo": 1125,
      "Ġsig": 1126,
      "ect": 1127,
      "unay": 1128,
      "ilit": 1129,
      "Ġpagd": 1130,
      "ell": 1131,
      "anya": 1132,
      "Ġmakak": 1133,
      "Ġrec": 1134,
      "anas": 1135,
      "inaw": 1136,
      "Ġnakat": 1137,
      "Ġgusto": 1138,
      "ex": 1139,
      "Ġproduk": 1140,
      "ri": 1141,
      "ĠSt": 1142,
      "inabi": 1143,
      "roon": 1144,
      "asok": 1145,
      "ahin": 1146,
      "uso": 1147,
      "ors": 1148,
      "000": 1149,
      "Ġlup": 1150,
      "nat": 1151,
      "Ġpagbab": 1152,
      "nap": 1153,
      "MA": 1154,
      "Ġpagkawala": 1155,
      "Ġinter": 1156,
      "ĠâĢĺ": 1157,
      "Ġ6": 1158,
      "Ġsarili": 1159,
      "agamit": 1160,
      "Ġkamay": 1161,
      "oby": 1162,
      "Ġakong": 1163,
      "utan": 1164,
      "Ġpresyo": 1165,
      "Ġnil": 1166,
      "Ġginawa": 1167,
      "iwanag": 1168,
      "esus": 1169,
      "alis": 1170,
      "Ġ19": 1171,
      "Ġhigit": 1172,
      "ante": 1173,
      "las": 1174,
      "ost": 1175,
      "alas": 1176,
      "ĠPres": 1177,
      "Ġgawin": 1178,
      "awak": 1179,
      "Ġtalaga": 1180,
      "Ġopis": 1181,
      "Hindi": 1182,
      "oh": 1183,
      "Ġpart": 1184,
      "ĠSena": 1185,
      "Ġbayan": 1186,
      "bang": 1187,
      "),": 1188,
      "Ġtrabaho": 1189,
      "Ġmang": 1190,
      "Ġek": 1191,
      "emp": 1192,
      "pat": 1193,
      "ĠTr": 1194,
      "Ġmuk": 1195,
      "IL": 1196,
      "Ġsabi": 1197,
      "atag": 1198,
      "ao": 1199,
      "Ġnakak": 1200,
      "idente": 1201,
      "mer": 1202,
      "Ġparasito": 1203,
      "ible": 1204,
      "Ġnagl": 1205,
      "angyar": 1206,
      "ays": 1207,
      "age": 1208,
      "tib": 1209,
      "Ġgawain": 1210,
      "ev": 1211,
      "ikita": 1212,
      "Ġanumang": 1213,
      "Ġbin": 1214,
      "Ġpulis": 1215,
      "Ġnan": 1216,
      "ayun": 1217,
      "ret": 1218,
      "eral": 1219,
      "ites": 1220,
      "Ġikaw": 1221,
      "Ġsub": 1222,
      "Ġkak": 1223,
      "Ġpamilya": 1224,
      "Ġnaka": 1225,
      "Ġtub": 1226,
      "Nag": 1227,
      "uo": 1228,
      "iyan": 1229,
      "ayag": 1230,
      "Ġ10": 1231,
      "âĢľ": 1232,
      "ĠPangulong": 1233,
      "po": 1234,
      "Ġbit": 1235,
      "ĠNat": 1236,
      "Ġiyon": 1237,
      "ĠPhilippines": 1238,
      "ĠQ": 1239,
      "aaral": 1240,
      "hang": 1241,
      "uring": 1242,
      "our": 1243,
      "ve": 1244,
      "hing": 1245,
      "ira": 1246,
      "ular": 1247,
      "Ġhin": 1248,
      "Ġbulate": 1249,
      "iktim": 1250,
      "ear": 1251,
      "Ġes": 1252,
      "use": 1253,
      "inan": 1254,
      "ile": 1255,
      "Ġkin": 1256,
      "Ġed": 1257,
      "Ġsilang": 1258,
      "erno": 1259,
      "ire": 1260,
      "de": 1261,
      "Ġnagpap": 1262,
      "'s": 1263,
      "Ġipina": 1264,
      "ĠAs": 1265,
      "lam": 1266,
      "ati": 1267,
      "upo": 1268,
      "ĠPro": 1269,
      "ismo": 1270,
      "olice": 1271,
      "ahe": 1272,
      "log": 1273,
      "abot": 1274,
      "Ġ7": 1275,
      "Ġbuwan": 1276,
      "ru": 1277,
      "ency": 1278,
      "abag": 1279,
      "Ġbig": 1280,
      "iss": 1281,
      "Ġnilang": 1282,
      "Ġpagsas": 1283,
      "Ġsinas": 1284,
      "Ġsalita": 1285,
      "Ġkaso": 1286,
      "Ġkaysa": 1287,
      "ick": 1288,
      "Ġbar": 1289,
      "umb": 1290,
      "Ġpahayag": 1291,
      "Ġinyong": 1292,
      "Ġgag": 1293,
      "....": 1294,
      "uwa": 1295,
      "Sinabi": 1296,
      "Ġbakit": 1297,
      "awalan": 1298,
      "Ġsuso": 1299,
      "Ġmagiging": 1300,
      "Ġoper": 1301,
      "Ġthat": 1302,
      "erm": 1303,
      "zon": 1304,
      "Ġbiktim": 1305,
      "Ġprobl": 1306,
      "ews": 1307,
      "urang": 1308,
      "Ġlalaki": 1309,
      "ela": 1310,
      "ran": 1311,
      ".\"": 1312,
      "iniwala": 1313,
      "Ġgamot": 1314,
      "iwan": 1315,
      "rol": 1316,
      "ood": 1317,
      "IN": 1318,
      "iba": 1319,
      "ĠMak": 1320,
      "eta": 1321,
      "ith": 1322,
      "Ġaw": 1323,
      "Ġmukha": 1324,
      "Ġuri": 1325,
      "anyang": 1326,
      "Ġlik": 1327,
      "ĠAb": 1328,
      "risto": 1329,
      "atan": 1330,
      "Ġmundo": 1331,
      "der": 1332,
      "Ġrel": 1333,
      "Ġsang": 1334,
      "usyon": 1335,
      "out": 1336,
      "Ġkun": 1337,
      "agdagan": 1338,
      "Ġsabihin": 1339,
      "ĠDep": 1340,
      "Ġmaliit": 1341,
      "Ġnal": 1342,
      "so": 1343,
      "Ġyo": 1344,
      "ulit": 1345,
      "Ġ...": 1346,
      "Ġgoby": 1347,
      "ayang": 1348,
      "Ġepek": 1349,
      "atak": 1350,
      "ente": 1351,
      "ĠPa": 1352,
      "ĠJesus": 1353,
      "Ġpab": 1354,
      "ahang": 1355,
      "Ġkump": 1356,
      "Ġwh": 1357,
      "utin": 1358,
      "ert": 1359,
      "dor": 1360,
      "hi": 1361,
      ".âĢĿ": 1362,
      "ĠSec": 1363,
      "pit": 1364,
      "ugnay": 1365,
      "Ġlalo": 1366,
      "Ito": 1367,
      "ye": 1368,
      "ĠPhilippine": 1369,
      "ical": 1370,
      "uhin": 1371,
      "inggo": 1372,
      "Ġant": 1373,
      "ime": 1374,
      "Ġmana": 1375,
      "Ġmalaking": 1376,
      "iwang": 1377,
      "era": 1378,
      "ĠSan": 1379,
      "20": 1380,
      "Ġtubig": 1381,
      "Ġninyo": 1382,
      "Ġparasites": 1383,
      "mun": 1384,
      "Ġest": 1385,
      "ikal": 1386,
      "Ġpangalan": 1387,
      "pe": 1388,
      "ibigan": 1389,
      "Ġnais": 1390,
      "Ġbiktima": 1391,
      "Ġnangy": 1392,
      "ulad": 1393,
      "Ġgobyerno": 1394,
      "ead": 1395,
      "Ġlal": 1396,
      "hin": 1397,
      "line": 1398,
      "usan": 1399,
      "ideo": 1400,
      "ace": 1401,
      "aban": 1402,
      "Ġ8": 1403,
      "Ġprodukto": 1404,
      "Ġtunay": 1405,
      "ibl": 1406,
      "Ġsakit": 1407,
      "alakas": 1408,
      "igan": 1409,
      "At": 1410,
      "Ġtinat": 1411,
      "ress": 1412,
      "artment": 1413,
      "ach": 1414,
      "uku": 1415,
      "mas": 1416,
      "Ġpaggamit": 1417,
      "nak": 1418,
      "Ġnagh": 1419,
      "ief": 1420,
      "!!": 1421,
      "Ġtulong": 1422,
      "mam": 1423,
      "ĠManila": 1424,
      "ako": 1425,
      "any": 1426,
      "Ġoff": 1427,
      "wang": 1428,
      "hanan": 1429,
      "sod": 1430,
      "ahusay": 1431,
      "awin": 1432,
      "ilangang": 1433,
      "ĠEn": 1434,
      "Ġtatlong": 1435,
      "Ġgumawa": 1436,
      "ulog": 1437,
      "igtas": 1438,
      "arangay": 1439,
      "Ġbalat": 1440,
      "ence": 1441,
      "ish": 1442,
      "rec": 1443,
      "ĠZ": 1444,
      "ĠâĢĵ": 1445,
      "Ġpagkain": 1446,
      "ingin": 1447,
      "alay": 1448,
      "ase": 1449,
      "Ġneg": 1450,
      "ĠNa": 1451,
      "MAN": 1452,
      "Ġmakat": 1453,
      "aari": 1454,
      "Ġ200": 1455,
      "Ġmahusay": 1456,
      "Ġnaga": 1457,
      "Ġfung": 1458,
      "Ġopisyal": 1459,
      "Ġpuw": 1460,
      "Ġkil": 1461,
      "Ġare": 1462,
      "Ġinil": 1463,
      "Ġproblema": 1464,
      "Ġdahilan": 1465,
      "Ġwe": 1466,
      "Ġserb": 1467,
      "ormasyon": 1468,
      "ilipino": 1469,
      "Ġdoon": 1470,
      "ami": 1471,
      "Ġprogr": 1472,
      "ee": 1473,
      "Ġnasabing": 1474,
      "unas": 1475,
      "ĠDios": 1476,
      "irit": 1477,
      "Ġlim": 1478,
      "ĠBibl": 1479,
      "Ġbuk": 1480,
      "Ġro": 1481,
      "arating": 1482,
      "lat": 1483,
      "itang": 1484,
      "Ġring": 1485,
      "ose": 1486,
      "agay": 1487,
      "act": 1488,
      "able": 1489,
      "Ġsan": 1490,
      "ĠPero": 1491,
      "Ġmagt": 1492,
      "Ġpagbaba": 1493,
      "Ġgabi": 1494,
      "Pag": 1495,
      "ukan": 1496,
      "ĠKaya": 1497,
      "Ġlarawan": 1498,
      "abay": 1499,
      "ulta": 1500,
      "onal": 1501,
      "ahalaan": 1502,
      "ĠPresident": 1503,
      "Ġmil": 1504,
      "Ġwika": 1505,
      "ov": 1506,
      "apatid": 1507,
      "kal": 1508,
      "upad": 1509,
      "kat": 1510,
      "ekt": 1511,
      "Ġ9": 1512,
      "Ġpareh": 1513,
      "ona": 1514,
      "ond": 1515,
      "Mag": 1516,
      "ĠKanyang": 1517,
      "arian": 1518,
      "Ġsuspek": 1519,
      "ery": 1520,
      "Ġgam": 1521,
      "Ġsc": 1522,
      "Ġmataas": 1523,
      "abaw": 1524,
      "Ġbatas": 1525,
      "let": 1526,
      "Ġkabilang": 1527,
      "ge": 1528,
      "Ġ.": 1529,
      "ugo": 1530,
      "reat": 1531,
      "Ġkahapon": 1532,
      "se": 1533,
      "over": 1534,
      "ĠRep": 1535,
      "adala": 1536,
      "atang": 1537,
      "Ġmarami": 1538,
      "imp": 1539,
      "dam": 1540,
      "Ġposible": 1541,
      "alin": 1542,
      "ingnan": 1543,
      "PA": 1544,
      "etro": 1545,
      "Ġ[": 1546,
      "rek": 1547,
      "Ġbang": 1548,
      "Ġmagkaroon": 1549,
      "Ġnagsas": 1550,
      "Ġnah": 1551,
      "Ġhuling": 1552,
      "com": 1553,
      "ign": 1554,
      "ayos": 1555,
      "Ġmabilis": 1556,
      "otohanan": 1557,
      "ulugan": 1558,
      "med": 1559,
      "ĠGMA": 1560,
      "ations": 1561,
      "Ġpagitan": 1562,
      "ream": 1563,
      "ĠNational": 1564,
      "Ġout": 1565,
      "ĠAno": 1566,
      "Ġso": 1567,
      "ĠPolice": 1568,
      "Ġsana": 1569,
      "Ġpakik": 1570,
      "Ġgamitin": 1571,
      "iran": 1572,
      "Ġmin": 1573,
      "Ġpubl": 1574,
      "Ġvideo": 1575,
      "ĠMask": 1576,
      "inah": 1577,
      "Ġpers": 1578,
      "Ġins": 1579,
      "Ġnya": 1580,
      "Ġsam": 1581,
      "ĠPangulo": 1582,
      "ink": 1583,
      "ulot": 1584,
      "Ġpatuloy": 1585,
      "Ġreg": 1586,
      "Ġraw": 1587,
      "ern": 1588,
      "ft": 1589,
      "rist": 1590,
      "Ġparang": 1591,
      "Ġtak": 1592,
      "araan": 1593,
      "Ġpagkakata": 1594,
      "aki": 1595,
      "lim": 1596,
      "Ġimpormasyon": 1597,
      "Ġeh": 1598,
      "Ġserbisyo": 1599,
      "amant": 1600,
      "sik": 1601,
      "isin": 1602,
      "embro": 1603,
      "Ġmayroon": 1604,
      "Ġweb": 1605,
      "Ġkaram": 1606,
      "Ġnangang": 1607,
      "igil": 1608,
      "ihang": 1609,
      "Ġkaibigan": 1610,
      "ĠBr": 1611,
      "gan": 1612,
      "ILA": 1613,
      "ulay": 1614,
      "Ġdok": 1615,
      "ser": 1616,
      "ont": 1617,
      "ayari": 1618,
      "hehe": 1619,
      "araang": 1620,
      "Ġen": 1621,
      "ahal": 1622,
      "ÂŃ": 1623,
      "Ġamin": 1624,
      "Ġharap": 1625,
      "amina": 1626,
      "Ġte": 1627,
      "Ġginagawa": 1628,
      "awi": 1629,
      "ĠEsp": 1630,
      "Ġbay": 1631,
      "Ġbina": 1632,
      "agan": 1633,
      "Ġlupa": 1634,
      "ĠKa": 1635,
      "Ġpuso": 1636,
      "Ġbak": 1637,
      "atas": 1638,
      "dic": 1639,
      "ahanap": 1640,
      "oses": 1641,
      "ĠAqu": 1642,
      "ikong": 1643,
      "ansin": 1644,
      "ĠDepartment": 1645,
      "Ġpanana": 1646,
      "Ġsangk": 1647,
      "ĠSiya": 1648,
      "Ġimb": 1649,
      "Ġnot": 1650,
      "Ġ/": 1651,
      "Ġya": 1652,
      "inistr": 1653,
      "ataas": 1654,
      "ĠPilipino": 1655,
      "Ġulat": 1656,
      "Ġnana": 1657,
      "19": 1658,
      "ection": 1659,
      "ikha": 1660,
      "iyo": 1661,
      "eks": 1662,
      "Ġhuwag": 1663,
      "Ġpamahalaan": 1664,
      "Ġkasaluku": 1665,
      "Ġwith": 1666,
      "Ġpw": 1667,
      "iri": 1668,
      "Ġngayong": 1669,
      "anal": 1670,
      "Ġkundi": 1671,
      "Ġtab": 1672,
      "ibo": 1673,
      "SA": 1674,
      "Ġpol": 1675,
      "Ġini": 1676,
      "10": 1677,
      "Ġnaw": 1678,
      "Ġnamang": 1679,
      "ĠComm": 1680,
      "Ġgrupo": 1681,
      "wn": 1682,
      "Ġnapak": 1683,
      "esto": 1684,
      "ukoy": 1685,
      "Ġpanguna": 1686,
      "ubong": 1687,
      "Ġpera": 1688,
      "inoy": 1689,
      "Ġesp": 1690,
      "iyembro": 1691,
      "Ġun": 1692,
      "Ġtrans": 1693,
      "Ġinyo": 1694,
      "Ġtal": 1695,
      "Ġbab": 1696,
      "ere": 1697,
      "usin": 1698,
      "Ġpati": 1699,
      "ise": 1700,
      "MANILA": 1701,
      "NP": 1702,
      "Ġut": 1703,
      "retary": 1704,
      "Ġbal": 1705,
      "uman": 1706,
      "Ġid": 1707,
      "ungo": 1708,
      "ĠPagk": 1709,
      "ĠAg": 1710,
      "aal": 1711,
      "ĠAk": 1712,
      "Ġmakita": 1713,
      "ĠRo": 1714,
      "Ġcomp": 1715,
      "alth": 1716,
      "Ġpinakamahusay": 1717,
      "Ġtoto": 1718,
      "Ġnoon": 1719,
      "inang": 1720,
      "pang": 1721,
      "ungsod": 1722,
      "ĠAc": 1723,
      "Ġlaro": 1724,
      "Ġdes": 1725,
      "Ġsur": 1726,
      "Ġmiyembro": 1727,
      "Ġprop": 1728,
      "ĠCo": 1729,
      "Ġgu": 1730,
      "ede": 1731,
      "insan": 1732,
      "asama": 1733,
      "Ġkr": 1734,
      "Ġsol": 1735,
      "ply": 1736,
      "ĠSup": 1737,
      "que": 1738,
      "Ġlunas": 1739,
      "Ġkatotohanan": 1740,
      "Ġmadaling": 1741,
      "Ġart": 1742,
      "Is": 1743,
      "Ġpagiging": 1744,
      "estiga": 1745,
      "Ġgaya": 1746,
      "Ġgagawin": 1747,
      "ual": 1748,
      "ustr": 1749,
      "Ġnakita": 1750,
      "Ġnegos": 1751,
      "Ġmanok": 1752,
      "Ġ--": 1753,
      "Ġah": 1754,
      "Ġ12": 1755,
      "ĠAquino": 1756,
      "uting": 1757,
      "ĠMal": 1758,
      "Ġulo": 1759,
      "roong": 1760,
      "ance": 1761,
      "Ġus": 1762,
      "Ġagad": 1763,
      "Ġsapag": 1764,
      "Ġbil": 1765,
      "onom": 1766,
      "ulungan": 1767,
      "imbawa": 1768,
      "Ġpinaka": 1769,
      "ath": 1770,
      "ory": 1771,
      "Ġpah": 1772,
      "Ġginagamit": 1773,
      "ave": 1774,
      "Ġbo": 1775,
      "inga": 1776,
      "ne": 1777,
      "Ġ15": 1778,
      "May": 1779,
      "Ġkuw": 1780,
      "Ġprot": 1781,
      "aralan": 1782,
      "tra": 1783,
      "ministr": 1784,
      "embre": 1785,
      "atol": 1786,
      "Ġmakipag": 1787,
      "Ġika": 1788,
      "Ġkapatid": 1789,
      "Ġpangunahing": 1790,
      "ark": 1791,
      "ĠNews": 1792,
      "uang": 1793,
      "ĠPas": 1794,
      "enta": 1795,
      "Ġhalaga": 1796,
      "unawa": 1797,
      "apan": 1798,
      "Ġasawa": 1799,
      "ich": 1800,
      "Ġkinaka": 1801,
      "Ġlinggo": 1802,
      "ĠDr": 1803,
      "Ġnating": 1804,
      "Ġpagkakataon": 1805,
      "angyarihan": 1806,
      "inak": 1807,
      "lay": 1808,
      "Ġnagd": 1809,
      "lan": 1810,
      "Huwag": 1811,
      "Ġdep": 1812,
      "Ġapat": 1813,
      "one": 1814,
      "alawang": 1815,
      "ling": 1816,
      "san": 1817,
      "ON": 1818,
      "Ġmapag": 1819,
      "pa": 1820,
      "Ġnagbibigay": 1821,
      "orte": 1822,
      "unog": 1823,
      "ĠRod": 1824,
      "ba": 1825,
      "overn": 1826,
      "per": 1827,
      "Ġsariling": 1828,
      "eksyon": 1829,
      "Ġsena": 1830,
      "ĠDis": 1831,
      "Ġdumating": 1832,
      "Ġwill": 1833,
      "yado": 1834,
      "Ġmakapag": 1835,
      "udy": 1836,
      "ansang": 1837,
      "Ġhalos": 1838,
      "alabas": 1839,
      "araw": 1840,
      "Ġpre": 1841,
      ",,": 1842,
      "get": 1843,
      "Ġmamam": 1844,
      "enter": 1845,
      "Ġumaga": 1846,
      "Ġdak": 1847,
      "Ġlabas": 1848,
      "ene": 1849,
      "form": 1850,
      "alagay": 1851,
      "ĠBag": 1852,
      "Ġspot": 1853,
      "In": 1854,
      "Ġparehong": 1855,
      "Ġmot": 1856,
      "ekto": 1857,
      "Ġpagsus": 1858,
      "Ġbatang": 1859,
      "ras": 1860,
      "ission": 1861,
      "Ġpagtat": 1862,
      "Ġnaturang": 1863,
      "amo": 1864,
      "Ġdagdag": 1865,
      "Ġwork": 1866,
      "Ġsinasabi": 1867,
      "site": 1868,
      "Ġdalawa": 1869,
      "Ġedad": 1870,
      "ĠAd": 1871,
      "ĠKah": 1872,
      "Ġbitamina": 1873,
      "Ġmagandang": 1874,
      "ruit": 1875,
      "ĠGen": 1876,
      "asak": 1877,
      "Ġsy": 1878,
      "Ġmuna": 1879,
      "etal": 1880,
      "Ġkita": 1881,
      "ĠInter": 1882,
      "andaan": 1883,
      "Ġsumus": 1884,
      "tong": 1885,
      "gy": 1886,
      "Mga": 1887,
      "ĠReg": 1888,
      "iver": 1889,
      "ool": 1890,
      "Ġisip": 1891,
      "elo": 1892,
      "Ġmagh": 1893,
      "angailangan": 1894,
      "tao": 1895,
      "Ġcan": 1896,
      "Ġdro": 1897,
      "ĠTa": 1898,
      "ider": 1899,
      "akan": 1900,
      "anasan": 1901,
      "son": 1902,
      "can": 1903,
      "ĠAnd": 1904,
      "ĠDav": 1905,
      "Ġepekto": 1906,
      "Ġlibre": 1907,
      "AL": 1908,
      "Ġmangy": 1909,
      "ĠUS": 1910,
      "Ng": 1911,
      "load": 1912,
      "Ġdrug": 1913,
      "count": 1914,
      "Ġda": 1915,
      "yu": 1916,
      "old": 1917,
      "iar": 1918,
      "ondo": 1919,
      "kas": 1920,
      "ayaan": 1921,
      "Ġkad": 1922,
      "Ġsino": 1923,
      "ibang": 1924,
      "anggit": 1925,
      "rom": 1926,
      "ataan": 1927,
      "Ġtel": 1928,
      "sh": 1929,
      "ĠOff": 1930,
      "Ġuna": 1931,
      "Ġinih": 1932,
      "Ġsya": 1933,
      "va": 1934,
      "pr": 1935,
      "Ġlungsod": 1936,
      "ouse": 1937,
      "Ġalisin": 1938,
      "__": 1939,
      "ID": 1940,
      "Ġsag": 1941,
      "iban": 1942,
      "Ġmuli": 1943,
      "ty": 1944,
      "wal": 1945,
      "did": 1946,
      "Ġrito": 1947,
      "ĠNo": 1948,
      "ĠEd": 1949,
      "Ġkaniya": 1950,
      "ĠNak": 1951,
      "lad": 1952,
      "Ġnina": 1953,
      "Ġ18": 1954,
      "ics": 1955,
      "elik": 1956,
      "Ġmed": 1957,
      "ĠPr": 1958,
      "uwi": 1959,
      "ĠĠ": 1960,
      "Ġgin": 1961,
      "Ġfungus": 1962,
      "Ġsanhi": 1963,
      "ipe": 1964,
      "Ġpala": 1965,
      "mb": 1966,
      "ĠChina": 1967,
      "Ġ,": 1968,
      "Ġmod": 1969,
      "ution": 1970,
      "Ġpagpapalaki": 1971,
      "Ġmer": 1972,
      "Ġqu": 1973,
      "Ġsasak": 1974,
      "ys": 1975,
      "Ġagency": 1976,
      "bing": 1977,
      "ĠSh": 1978,
      "orta": 1979,
      "Ġnakal": 1980,
      "Ġlag": 1981,
      "yung": 1982,
      "ĠFilipino": 1983,
      "Ġsusunod": 1984,
      "ĠHe": 1985,
      "ospit": 1986,
      "uni": 1987,
      "Na": 1988,
      "Ġitin": 1989,
      "Ġtalagang": 1990,
      "ĠDe": 1991,
      "Ġbut": 1992,
      "Ġsite": 1993,
      "Ġdirek": 1994,
      "Ġremed": 1995,
      "ket": 1996,
      "ition": 1997,
      "Ġtit": 1998,
      "ural": 1999,
      "Ġig": 2000,
      "ospital": 2001,
      "ĠBiblia": 2002,
      "iardia": 2003,
      "Ġnangyari": 2004,
      "Ġlok": 2005,
      "Ġpatay": 2006,
      "ipas": 2007,
      "Ġbumili": 2008,
      "ido": 2009,
      "ilo": 2010,
      "Ġsec": 2011,
      "Ġkarapat": 2012,
      "12": 2013,
      "Ġlub": 2014,
      "Ġlit": 2015,
      "Ġmalapit": 2016,
      "Ġmalaman": 2017,
      "anggol": 2018,
      "Ġresulta": 2019,
      "ome": 2020,
      "Ġrecruit": 2021,
      "Ġonline": 2022,
      "Ġkont": 2023,
      "ingi": 2024,
      "Ġpamp": 2025,
      "ĠKap": 2026,
      "ibong": 2027,
      "Ġagaw": 2028,
      "Si": 2029,
      "Ġkatut": 2030,
      "ĠNgunit": 2031,
      "Ġkailangang": 2032,
      "puan": 2033,
      "IT": 2034,
      "Ġlangit": 2035,
      "Ġnakaraang": 2036,
      "ensya": 2037,
      "Ġmagl": 2038,
      "uns": 2039,
      "ĠCar": 2040,
      "str": 2041,
      "Ġyun": 2042,
      "ĠQue": 2043,
      "ĠIt": 2044,
      "ivers": 2045,
      "Ġisina": 2046,
      "Ġmagulang": 2047,
      "ree": 2048,
      "angyarihang": 2049,
      "ĠSen": 2050,
      "Ġpagpapat": 2051,
      "Ġpersonal": 2052,
      "umpay": 2053,
      "ĠSecretary": 2054,
      "ĠEx": 2055,
      "Ġwebsite": 2056,
      "Ġhair": 2057,
      "ld": 2058,
      "Ġsapat": 2059,
      "ĠMart": 2060,
      "Ġby": 2061,
      "amantala": 2062,
      "Ġmedia": 2063,
      "AR": 2064,
      "rang": 2065,
      "olog": 2066,
      "Ġatin": 2067,
      "low": 2068,
      "ĠPara": 2069,
      "ĠDahil": 2070,
      "Ġsing": 2071,
      "Ġhang": 2072,
      "anao": 2073,
      "Ġmawalan": 2074,
      "iritu": 2075,
      "Ġu": 2076,
      "Ġdaan": 2077,
      "uga": 2078,
      "inigay": 2079,
      "ict": 2080,
      "Ġmuling": 2081,
      "ĠÂ": 2082,
      "cos": 2083,
      "ĠRodr": 2084,
      "Ġ11": 2085,
      "Ġipinag": 2086,
      "ocial": 2087,
      "alataya": 2088,
      "asal": 2089,
      "rael": 2090,
      "amdam": 2091,
      "iwa": 2092,
      "ĠCristo": 2093,
      "Ġdroga": 2094,
      "Ġgayon": 2095,
      "Ġrecruitment": 2096,
      "Ġdugo": 2097,
      "ote": 2098,
      "intay": 2099,
      "ĠSp": 2100,
      "Ġmakakuha": 2101,
      "Ġem": 2102,
      "ĠCor": 2103,
      "erb": 2104,
      "Ġ30": 2105,
      "Ġganitong": 2106,
      "ĠNang": 2107,
      "Ġsist": 2108,
      "ĠSal": 2109,
      "ibil": 2110,
      "Ġbaka": 2111,
      "An": 2112,
      "Ġama": 2113,
      "inam": 2114,
      "agdagang": 2115,
      "ĠPinoy": 2116,
      "Ġnyo": 2117,
      "Ġpamb": 2118,
      "Ġnet": 2119,
      "olo": 2120,
      "chool": 2121,
      "roup": 2122,
      "cess": 2123,
      "tibong": 2124,
      "Ġsiy": 2125,
      "overnment": 2126,
      "Ġtumut": 2127,
      "isang": 2128,
      "Ġnagsis": 2129,
      "cl": 2130,
      "ĠIsrael": 2131,
      "Ġtaga": 2132,
      "daman": 2133,
      "oro": 2134,
      "irang": 2135,
      "ication": 2136,
      "alamat": 2137,
      "Ġibig": 2138,
      "ĠGr": 2139,
      "Ġpost": 2140,
      "oseso": 2141,
      "Ġev": 2142,
      "Ġsigur": 2143,
      "apangyarihang": 2144,
      "ugnayan": 2145,
      "ĠPanginoong": 2146,
      "AG": 2147,
      "its": 2148,
      "Ġind": 2149,
      "stem": 2150,
      "Ġani": 2151,
      "Ġbiya": 2152,
      "Ġlayun": 2153,
      "Ġmayroong": 2154,
      "hel": 2155,
      "land": 2156,
      "Ġbes": 2157,
      "ĠPNP": 2158,
      "ĠAnt": 2159,
      "Ġyou": 2160,
      "ukod": 2161,
      "Ġkaragdagang": 2162,
      "uka": 2163,
      "Ġpaghah": 2164,
      "AT": 2165,
      "Ġnakik": 2166,
      "ĠMo": 2167,
      "ahulugan": 2168,
      "ikang": 2169,
      "Ġpe": 2170,
      "Ġnad": 2171,
      "Ġpinap": 2172,
      "Ġkababa": 2173,
      "isan": 2174,
      "uran": 2175,
      "Ġph": 2176,
      "Ġkapangyarihan": 2177,
      "Ġcream": 2178,
      "Ġkur": 2179,
      "igas": 2180,
      "Ġfac": 2181,
      "Ġcont": 2182,
      "Ġipag": 2183,
      "unayan": 2184,
      "Ġmagd": 2185,
      "Ġsund": 2186,
      "ĠPan": 2187,
      "Ġnaming": 2188,
      "Nak": 2189,
      "araming": 2190,
      "Ġnai": 2191,
      "uwal": 2192,
      "Ġtang": 2193,
      "agang": 2194,
      "ensiya": 2195,
      "Ġkaugnay": 2196,
      "ilos": 2197,
      "imple": 2198,
      "stit": 2199,
      "anat": 2200,
      "Ġkaran": 2201,
      "udi": 2202,
      "init": 2203,
      "ater": 2204,
      "itna": 2205,
      "Ġaniya": 2206,
      "za": 2207,
      "ĠAmer": 2208,
      "Ġsob": 2209,
      "Ġtime": 2210,
      "Ġpangang": 2211,
      "net": 2212,
      "Ġtiyak": 2213,
      "apa": 2214,
      "Ġpelik": 2215,
      "Ġyan": 2216,
      "ĠIsang": 2217,
      "ukulang": 2218,
      "30": 2219,
      "ĠFran": 2220,
      "Ġsand": 2221,
      "ĠMaaari": 2222,
      "Ġmagkak": 2223,
      "Ġkaramihan": 2224,
      "Ġcl": 2225,
      "oloh": 2226,
      "Ġpaglago": 2227,
      "ces": 2228,
      "Ġgumagamit": 2229,
      "work": 2230,
      "Ġterm": 2231,
      "ents": 2232,
      "Ġbr": 2233,
      "Ġbeses": 2234,
      "ming": 2235,
      "11": 2236,
      "apang": 2237,
      "ated": 2238,
      "ook": 2239,
      "iwalay": 2240,
      "Ġimbestiga": 2241,
      "Ġilan": 2242,
      "uksa": 2243,
      "Ġtest": 2244,
      "ĠSam": 2245,
      "Tanong": 2246,
      "Ġkailan": 2247,
      "Ġaccount": 2248,
      "eed": 2249,
      "agat": 2250,
      "Ġadministr": 2251,
      "vest": 2252,
      "Ġbre": 2253,
      "arin": 2254,
      "Ġlist": 2255,
      "ner": 2256,
      "alian": 2257,
      "Ġhalip": 2258,
      "pos": 2259,
      "Ġkatutubong": 2260,
      "royo": 2261,
      "Ġalas": 2262,
      "Ġtah": 2263,
      "yente": 2264,
      "Ġhave": 2265,
      "ĠEl": 2266,
      "ĠHuwag": 2267,
      "Ġuma": 2268,
      "ĠQuezon": 2269,
      "Ġmon": 2270,
      "ior": 2271,
      "iwas": 2272,
      "Ġpagkaka": 2273,
      "ĠCO": 2274,
      "Ġpet": 2275,
      "ĠRodrigo": 2276,
      "upa": 2277,
      "pro": 2278,
      "Ġshow": 2279,
      "Ġdel": 2280,
      "Ġdaliri": 2281,
      "Ġmapup": 2282,
      "uhang": 2283,
      "ola": 2284,
      "ake": 2285,
      "Ġkababaihan": 2286,
      "Ġpananal": 2287,
      "Ġpalig": 2288,
      "Ġmilit": 2289,
      "Ġkasalanan": 2290,
      "aha": 2291,
      "Ġsenador": 2292,
      "ash": 2293,
      "akbang": 2294,
      "anib": 2295,
      "Ġprograma": 2296,
      "Ġpagka": 2297,
      "ĠThe": 2298,
      "sc": 2299,
      "ike": 2300,
      "Ġ&": 2301,
      "Ġkumpanya": 2302,
      "ĠOffice": 2303,
      "Ġkw": 2304,
      "Ġisin": 2305,
      "Ġtayong": 2306,
      "ĠAko": 2307,
      "Ġthis": 2308,
      "unti": 2309,
      "uot": 2310,
      "pas": 2311,
      "ormal": 2312,
      "Ġtablet": 2313,
      "Ġtiyan": 2314,
      "alaw": 2315,
      "Ġkinakailangan": 2316,
      "toridad": 2317,
      "Ġmahal": 2318,
      "Ġreh": 2319,
      "ech": 2320,
      "dang": 2321,
      "atid": 2322,
      "Ġmalakas": 2323,
      "17": 2324,
      "tan": 2325,
      "inom": 2326,
      "Ġ14": 2327,
      "Ġsas": 2328,
      "Ġ#": 2329,
      "Ġkilala": 2330,
      "indanao": 2331,
      "Ġhinah": 2332,
      "ting": 2333,
      "Ġpakikipag": 2334,
      "EA": 2335,
      "ubok": 2336,
      "ĠOr": 2337,
      "Ġoffic": 2338,
      "ĠCon": 2339,
      "ihim": 2340,
      "ode": 2341,
      "Ġsimula": 2342,
      "ayat": 2343,
      "Ġsasakyan": 2344,
      "ild": 2345,
      "amat": 2346,
      "Ġtama": 2347,
      "usa": 2348,
      "Ġkatulad": 2349,
      "Ġanim": 2350,
      "Ġpis": 2351,
      "ikasyon": 2352,
      "abilang": 2353,
      "Ġkulay": 2354,
      "BA": 2355,
      "uy": 2356,
      "Ġgaano": 2357,
      "hh": 2358,
      "Dahil": 2359,
      "ĠLe": 2360,
      "Ġ13": 2361,
      "Ġnagtat": 2362,
      "DA": 2363,
      "ail": 2364,
      "Ġpagbub": 2365,
      ",âĢĿ": 2366,
      "ĠDO": 2367,
      "rector": 2368,
      "Ġkasalukuyang": 2369,
      "ĠKat": 2370,
      "err": 2371,
      "ĠMakapangyarihang": 2372,
      "ade": 2373,
      "Ġgamutin": 2374,
      "aliwanag": 2375,
      "ĠPar": 2376,
      "Ġsimb": 2377,
      "Ġnegosyo": 2378,
      "Ġmawala": 2379,
      "yadong": 2380,
      "ms": 2381,
      "NA": 2382,
      "ĠBarangay": 2383,
      "Ġmaka": 2384,
      "mpalataya": 2385,
      "Ġday": 2386,
      "ator": 2387,
      "ĠAy": 2388,
      "unin": 2389,
      "isita": 2390,
      "Ġnagkaroon": 2391,
      "Isang": 2392,
      "ono": 2393,
      "usugan": 2394,
      "Ġkasong": 2395,
      "itor": 2396,
      "Ġtanong": 2397,
      "ĠSi": 2398,
      "amin": 2399,
      "Ġmore": 2400,
      "unc": 2401,
      "si": 2402,
      "aril": 2403,
      "Ġhari": 2404,
      "Ġmangg": 2405,
      "Ġganap": 2406,
      "50": 2407,
      "Ġanong": 2408,
      "Ġcar": 2409,
      "ny": 2410,
      "ĠFor": 2411,
      "Ġpagbabago": 2412,
      "Ġle": 2413,
      "ĠMayor": 2414,
      "uel": 2415,
      "Ġibinigay": 2416,
      "Ġinaas": 2417,
      "hair": 2418,
      "Ġ16": 2419,
      "Ġorgan": 2420,
      "Ġproy": 2421,
      "ĠCol": 2422,
      "ject": 2423,
      "taas": 2424,
      "evel": 2425,
      "uturing": 2426,
      "vice": 2427,
      "Ġnakap": 2428,
      "Ġkomp": 2429,
      "me": 2430,
      "Ġumanong": 2431,
      "asyong": 2432,
      "Ġkom": 2433,
      "Ġsistema": 2434,
      "Ġkaming": 2435,
      "Ġwas": 2436,
      "uwid": 2437,
      "Ġkabila": 2438,
      "akbo": 2439,
      "ĠPaano": 2440,
      "ĠMetro": 2441,
      ".,": 2442,
      "Ġse": 2443,
      "Ġpagmam": 2444,
      "ates": 2445,
      "Ġmabuti": 2446,
      "Ġoperasyon": 2447,
      "ihirap": 2448,
      "egal": 2449,
      "Ġlimang": 2450,
      "Ġdetal": 2451,
      "Ġent": 2452,
      "ext": 2453,
      "uth": 2454,
      "Ġitlog": 2455,
      "apply": 2456,
      "aloob": 2457,
      "ĠGu": 2458,
      "ani": 2459,
      "Ġbarangay": 2460,
      "arami": 2461,
      "ĠBar": 2462,
      "oul": 2463,
      "ilid": 2464,
      "Ġtanggap": 2465,
      "ĠBakit": 2466,
      "ĠWalang": 2467,
      "mang": 2468,
      "Ġsumusunod": 2469,
      "iwasan": 2470,
      "oo": 2471,
      "alig": 2472,
      "usapan": 2473,
      "Ġrek": 2474,
      "FW": 2475,
      "ph": 2476,
      "Ġhalimbawa": 2477,
      "Ġstr": 2478,
      "aharap": 2479,
      "Ġpanl": 2480,
      "Ġour": 2481,
      "Ġpaggawa": 2482,
      "The": 2483,
      "Ġfol": 2484,
      "siyon": 2485,
      "nila": 2486,
      "Ġnakikita": 2487,
      "ĠSer": 2488,
      "Ġbumaba": 2489,
      "uss": 2490,
      "untis": 2491,
      "Ġpun": 2492,
      "Ġpanuk": 2493,
      "pak": 2494,
      "Ġtamang": 2495,
      "Ġtotoo": 2496,
      "Ġmaayos": 2497,
      "Ġgaling": 2498,
      "Ġtinatawag": 2499,
      "Ġlokal": 2500,
      "Ġkumuha": 2501,
      "Ġresp": 2502,
      "Ġbibig": 2503,
      "ĠSenado": 2504,
      "bayan": 2505,
      "national": 2506,
      "ahi": 2507,
      "ĠVill": 2508,
      "ĠArroyo": 2509,
      "ason": 2510,
      "Ġpulisya": 2511,
      "ings": 2512,
      "ĠNiya": 2513,
      "kul": 2514,
      "Ġkaukulang": 2515,
      "Ġcor": 2516,
      "duc": 2517,
      "ĠTag": 2518,
      "atauhan": 2519,
      "Ġ24": 2520,
      "yonal": 2521,
      "amatay": 2522,
      "IS": 2523,
      "gin": 2524,
      "rato": 2525,
      "ĠMe": 2526,
      "Ġmalaki": 2527,
      "ica": 2528,
      "Ġtapos": 2529,
      "ĠKong": 2530,
      "alingin": 2531,
      "my": 2532,
      "enyo": 2533,
      "Ġall": 2534,
      "ĠMat": 2535,
      "Ġmagbigay": 2536,
      "Ġtut": 2537,
      "ute": 2538,
      "yembre": 2539,
      "aksyon": 2540,
      "Ġug": 2541,
      "Ġcr": 2542,
      "ising": 2543,
      "ĠKapag": 2544,
      "Ġpagdating": 2545,
      "Ġmater": 2546,
      "Ġgitna": 2547,
      "ĠSant": 2548,
      "Ġlikod": 2549,
      "ustice": 2550,
      "Ġkakay": 2551,
      "Ġlibreng": 2552,
      "ĠKas": 2553,
      "Ġmadalas": 2554,
      "ember": 2555,
      "mal": 2556,
      "Ġ*": 2557,
      "Ġpaligid": 2558,
      "Ġyear": 2559,
      "Ġih": 2560,
      "Ġhinih": 2561,
      "inay": 2562,
      "Ġsamp": 2563,
      "Ma": 2564,
      "ikular": 2565,
      "Ġnakas": 2566,
      "hone": 2567,
      "isk": 2568,
      "Ġding": 2569,
      "Ġbro": 2570,
      "Ġpamum": 2571,
      "ĠCommission": 2572,
      "Ġkaraniwang": 2573,
      "ugon": 2574,
      "Ġpant": 2575,
      "au": 2576,
      "trib": 2577,
      "Ġisyu": 2578,
      "ts": 2579,
      "Ġtina": 2580,
      "Ġass": 2581,
      "Ġmapupuksa": 2582,
      "ĠRos": 2583,
      "II": 2584,
      "ĠRob": 2585,
      "Ġdem": 2586,
      "tee": 2587,
      "Ġpuno": 2588,
      "ĠLim": 2589,
      "Ġawtoridad": 2590,
      "Ġmilyon": 2591,
      "oot": 2592,
      "Ġreport": 2593,
      "Pero": 2594,
      "Ġpubliko": 2595,
      "Ġhigh": 2596,
      "abu": 2597,
      "ulin": 2598,
      "go": 2599,
      "Ġdoktor": 2600,
      "Ġsit": 2601,
      "riend": 2602,
      "ber": 2603,
      "we": 2604,
      "Ġlayunin": 2605,
      "Ġposibleng": 2606,
      "Ġlip": 2607,
      "unlad": 2608,
      "Ġcusto": 2609,
      "15": 2610,
      "agot": 2611,
      "Ġmaganda": 2612,
      "Ġkabataan": 2613,
      "ĠBel": 2614,
      "Ġpagalingin": 2615,
      "ĠJo": 2616,
      "reen": 2617,
      "ĠLu": 2618,
      "ĠPO": 2619,
      "Ġgast": 2620,
      "--": 2621,
      "Ġwar": 2622,
      "ĠEspiritu": 2623,
      "ANG": 2624,
      "ugh": 2625,
      "ahalaga": 2626,
      "Ġtek": 2627,
      "Ġlaw": 2628,
      "edeng": 2629,
      "anyos": 2630,
      "Ġmakap": 2631,
      "nag": 2632,
      "iral": 2633,
      "ou": 2634,
      "Ġbayad": 2635,
      "ĠNap": 2636,
      "Ġkomun": 2637,
      "uhok": 2638,
      "imulan": 2639,
      "olohiya": 2640,
      "Ġmakikita": 2641,
      "Ġklas": 2642,
      "Ġimbestigasyon": 2643,
      "mittee": 2644,
      "Ġbus": 2645,
      "16": 2646,
      "ĠSab": 2647,
      "ware": 2648,
      "Ġpondo": 2649,
      "Ġdesisyon": 2650,
      "Ġpagkakaroon": 2651,
      "Ġbint": 2652,
      "kan": 2653,
      "tomas": 2654,
      "Ġfrom": 2655,
      "Ġmy": 2656,
      "Ġ17": 2657,
      "down": 2658,
      "uin": 2659,
      "Ġlumabas": 2660,
      "CP": 2661,
      "ĠMari": 2662,
      "rabaho": 2663,
      "uruan": 2664,
      "kod": 2665,
      "Ġtumat": 2666,
      "Ġestudy": 2667,
      "Ġhapon": 2668,
      "ĠBas": 2669,
      "Ġpapel": 2670,
      "Ġtawag": 2671,
      "Ġmamamayan": 2672,
      "api": 2673,
      "ador": 2674,
      "Ġlalak": 2675,
      "Ġsinus": 2676,
      "Ġrelih": 2677,
      "Ġsah": 2678,
      "ER": 2679,
      "Ġhakbang": 2680,
      "Ġmatatag": 2681,
      "Ġnagkak": 2682,
      "Ġniyo": 2683,
      "Ġ2018": 2684,
      "ral": 2685,
      "lor": 2686,
      "alaro": 2687,
      "inabang": 2688,
      "alawa": 2689,
      "oder": 2690,
      "Ġakon": 2691,
      "Ġkabu": 2692,
      "Ġkapwa": 2693,
      "Ġkayong": 2694,
      "Ġpig": 2695,
      "Ġayaw": 2696,
      "ĠHouse": 2697,
      "ision": 2698,
      "Ġnakab": 2699,
      "ĠTum": 2700,
      "ĠAyon": 2701,
      "utang": 2702,
      "wer": 2703,
      "otto": 2704,
      "Samantala": 2705,
      "Ġnaniniwala": 2706,
      "mat": 2707,
      "Ġsapagka": 2708,
      "hong": 2709,
      "Ġgumamit": 2710,
      "ĠGo": 2711,
      "min": 2712,
      "ĠKahit": 2713,
      "UR": 2714,
      "ĠTh": 2715,
      "inding": 2716,
      "Ġpartikular": 2717,
      "Ġpamamaraan": 2718,
      "Ġsug": 2719,
      "Ġmahirap": 2720,
      "ipat": 2721,
      "Ġsystem": 2722,
      "unga": 2723,
      "along": 2724,
      "irus": 2725,
      "Ġtuw": 2726,
      "Ġmismo": 2727,
      "ilim": 2728,
      "vin": 2729,
      "ier": 2730,
      "lamo": 2731,
      "Ġpumunta": 2732,
      "ĠKrist": 2733,
      "ĠEr": 2734,
      "Ġpinat": 2735,
      "eho": 2736,
      "oss": 2737,
      "fer": 2738,
      "uck": 2739,
      "Ġtagapag": 2740,
      "Ġituring": 2741,
      "ram": 2742,
      "ĠTV": 2743,
      "Ġsik": 2744,
      "Ġdagdagan": 2745,
      "Ġdakong": 2746,
      "ĠWala": 2747,
      "Ġnagm": 2748,
      "orn": 2749,
      "Ġform": 2750,
      "Ġsocial": 2751,
      "ĠMaynila": 2752,
      "No": 2753,
      "orya": 2754,
      "Ġmalinaw": 2755,
      "ĠKam": 2756,
      "inar": 2757,
      "Ġlalong": 2758,
      "ĠEst": 2759,
      "Ġsel": 2760,
      "ass": 2761,
      "Ġsimple": 2762,
      "lec": 2763,
      "Ġkrim": 2764,
      "Ġnakapag": 2765,
      "Ġplano": 2766,
      "Ġpelikula": 2767,
      "ĠOFW": 2768,
      "Ġminsan": 2769,
      "way": 2770,
      "Ġlin": 2771,
      "ĠMala": 2772,
      "Ġnamatay": 2773,
      "wit": 2774,
      "aano": 2775,
      "Ġlistahan": 2776,
      "Ġkons": 2777,
      "utok": 2778,
      "13": 2779,
      "ily": 2780,
      "Ġcell": 2781,
      "Ġ$": 2782,
      "Ġgovernment": 2783,
      "isens": 2784,
      "leg": 2785,
      "Ġlakas": 2786,
      "arm": 2787,
      "ĠRes": 2788,
      "Ġkaranasan": 2789,
      "Ġmis": 2790,
      "Ġmatat": 2791,
      "inala": 2792,
      "Ġmahigit": 2793,
      "ĠChief": 2794,
      "agalog": 2795,
      "ahid": 2796,
      "ĠRom": 2797,
      "ete": 2798,
      "orld": 2799,
      "Para": 2800,
      "Ġoil": 2801,
      "ĠJr": 2802,
      "ness": 2803,
      "Ġob": 2804,
      "okes": 2805,
      "Ġnung": 2806,
      "âĢĶ": 2807,
      "unes": 2808,
      "ipili": 2809,
      "ĠAp": 2810,
      "Ġseg": 2811,
      "ebr": 2812,
      "Ġresidente": 2813,
      "Ġopisina": 2814,
      "ĠUnivers": 2815,
      "Ġnagiging": 2816,
      "unawaan": 2817,
      "Ġ25": 2818,
      "Ġcol": 2819,
      "ĠSenate": 2820,
      "Ġbangk": 2821,
      "Ġumi": 2822,
      "Ġmakab": 2823,
      "ority": 2824,
      "away": 2825,
      "Ġkol": 2826,
      "ĠIp": 2827,
      "FP": 2828,
      "Ġpunt": 2829,
      "18": 2830,
      "14": 2831,
      "Ġtinut": 2832,
      "bayad": 2833,
      "red": 2834,
      "lesia": 2835,
      "akailan": 2836,
      "Ġantas": 2837,
      "ipin": 2838,
      "ĠAss": 2839,
      "ukas": 2840,
      "Ġsintomas": 2841,
      "Ip": 2842,
      "ĠMindanao": 2843,
      "Ġpagg": 2844,
      "ĠBiy": 2845,
      "uyo": 2846,
      "Ġbiy": 2847,
      "Nang": 2848,
      "Ġpop": 2849,
      "Ġbl": 2850,
      "ĠLahat": 2851,
      "Ġide": 2852,
      "Ġtekn": 2853,
      "Al": 2854,
      "eter": 2855,
      "Ġimpl": 2856,
      "Ġpalag": 2857,
      "Ġpors": 2858,
      "VID": 2859,
      "Ġok": 2860,
      "Ġproseso": 2861,
      "Ġnail": 2862,
      "por": 2863,
      "Ġnangangahulugan": 2864,
      "iti": 2865,
      "Ġproyekto": 2866,
      "irst": 2867,
      "oe": 2868,
      "ĠX": 2869,
      "inab": 2870,
      "aining": 2871,
      "Ġkalak": 2872,
      "avel": 2873,
      "oso": 2874,
      "Ġmagag": 2875,
      "Ġint": 2876,
      "ople": 2877,
      "Ġgid": 2878,
      "mm": 2879,
      "Ġkaalaman": 2880,
      "Ġmai": 2881,
      "ĠNgayon": 2882,
      "âĢĤ": 2883,
      "ous": 2884,
      "ĠJuan": 2885,
      "Ġsalitang": 2886,
      "Ġsubalit": 2887,
      "ĠTs": 2888,
      "empre": 2889,
      "Ġkinal": 2890,
      "Ġdetalye": 2891,
      "az": 2892,
      "hiya": 2893,
      "ukol": 2894,
      "ĠInd": 2895,
      "Ġmus": 2896,
      "Ġdami": 2897,
      "Ġwikang": 2898,
      "Ġkalusugan": 2899,
      "Ġmahalaga": 2900,
      "iksik": 2901,
      "ĠGiardia": 2902,
      "ocal": 2903,
      "ingan": 2904,
      "arito": 2905,
      "oderil": 2906,
      "ank": 2907,
      "ukl": 2908,
      "Ġulit": 2909,
      "Ġapp": 2910,
      "Ġpatak": 2911,
      "Ġestudyante": 2912,
      "under": 2913,
      "Ġlalake": 2914,
      "utol": 2915,
      "erat": 2916,
      "irm": 2917,
      "Ġpagsis": 2918,
      "anggi": 2919,
      "loob": 2920,
      "kaw": 2921,
      "ĠBen": 2922,
      "ilin": 2923,
      "Ġpaaralan": 2924,
      "akt": 2925,
      "ĠSout": 2926,
      "Ġtaba": 2927,
      "undin": 2928,
      "Ġtingin": 2929,
      "agong": 2930,
      "zoderil": 2931,
      "itaas": 2932,
      "Ġmasas": 2933,
      "irahan": 2934,
      "oob": 2935,
      "ips": 2936,
      "ĠSum": 2937,
      "eld": 2938,
      "ĠHair": 2939,
      "ĠRam": 2940,
      "Ġtila": 2941,
      "cial": 2942,
      "ely": 2943,
      "Ġkalag": 2944,
      "amitan": 2945,
      "umento": 2946,
      "Ġkada": 2947,
      "ĠJose": 2948,
      "Ġsobrang": 2949,
      "bong": 2950,
      "Ġremedyo": 2951,
      "ecut": 2952,
      "ampa": 2953,
      "unting": 2954,
      "RT": 2955,
      "uda": 2956,
      "Ġbatay": 2957,
      "gawa": 2958,
      "ited": 2959,
      "ĠPart": 2960,
      "Ġtauhan": 2961,
      "ants": 2962,
      "own": 2963,
      "Ġprobins": 2964,
      "cle": 2965,
      "ĠVal": 2966,
      "Ġung": 2967,
      "Ġ100": 2968,
      "Ġmatagal": 2969,
      "abor": 2970,
      "ĠGeneral": 2971,
      "Ġmagkano": 2972,
      "agad": 2973,
      "elec": 2974,
      "Ġhand": 2975,
      "Ġginamit": 2976,
      "ukuha": 2977,
      "otoo": 2978,
      "Ġschool": 2979,
      "enda": 2980,
      "Ġtreat": 2981,
      "Ġdati": 2982,
      "Ġ2019": 2983,
      "ady": 2984,
      "Ġ:": 2985,
      "Ġsanggol": 2986,
      "ustong": 2987,
      "ĠJer": 2988,
      "ĠÂ»": 2989,
      "ekl": 2990,
      "ock": 2991,
      "Ġinsidente": 2992,
      "atlong": 2993,
      "Ġkarapatan": 2994,
      "Ġpumasok": 2995,
      "Ġbur": 2996,
      "Ġdriver": 2997,
      "aysayan": 2998,
      "uturo": 2999,
      "Ġpangangailangan": 3000,
      "ukat": 3001,
      "ebook": 3002,
      "CO": 3003,
      "ould": 3004,
      "Ġpagtaas": 3005,
      "ĠAct": 3006,
      "abasa": 3007,
      "Ġhuli": 3008,
      "big": 3009,
      "ĠRe": 3010,
      "Ġlaki": 3011,
      "ĠNew": 3012,
      "Ġlitrato": 3013,
      "Ġdarating": 3014,
      "ecial": 3015,
      "Ġmateryal": 3016,
      "ĠTao": 3017,
      "eksto": 3018,
      "Ġland": 3019,
      "Ġsagot": 3020,
      "Ġemp": 3021,
      "itiko": 3022,
      "ubuo": 3023,
      "Ġsiguro": 3024,
      "yat": 3025,
      "ĠHal": 3026,
      "Ġter": 3027,
      "Ġmasyadong": 3028,
      "alala": 3029,
      "Ġmagsas": 3030,
      "ĠLunes": 3031,
      "Ġmail": 3032,
      "ĠSy": 3033,
      "Ġguro": 3034,
      "ĠDavao": 3035,
      "Ġbalita": 3036,
      "Ġgumagawa": 3037,
      "Ġpaghatol": 3038,
      "Ġari": 3039,
      "ĠBu": 3040,
      "ĠMakat": 3041,
      "Ġair": 3042,
      "hairman": 3043,
      "Ġhih": 3044,
      "ES": 3045,
      "ĠJustice": 3046,
      "Ġkamp": 3047,
      "Ġorder": 3048,
      "urity": 3049,
      "Mas": 3050,
      "ubre": 3051,
      "Ġmagpap": 3052,
      "Ġelection": 3053,
      "igtasan": 3054,
      "sk": 3055,
      "ipon": 3056,
      "rip": 3057,
      "Ġpaglil": 3058,
      "Ġreb": 3059,
      "Ġpublic": 3060,
      "Ġpagbibigay": 3061,
      "Ġlaman": 3062,
      "ning": 3063,
      "ĠLib": 3064,
      "hat": 3065,
      "ĠTagalog": 3066,
      "aryo": 3067,
      "Ġpagsubok": 3068,
      "Ġtax": 3069,
      "Ġmabig": 3070,
      "ĠCl": 3071,
      "Ġsoft": 3072,
      "Ġpad": 3073,
      "ubuhay": 3074,
      "Ġchief": 3075,
      "ese": 3076,
      "Ġ2016": 3077,
      "Ġtuwing": 3078,
      "Ġibin": 3079,
      "Ġnatut": 3080,
      "Ġbigyan": 3081,
      "Ġhim": 3082,
      "tions": 3083,
      "udget": 3084,
      "Ġpanay": 3085,
      "Ġgulang": 3086,
      "ublic": 3087,
      "ikan": 3088,
      "ĠPat": 3089,
      "ĠMarcos": 3090,
      "Ġpangy": 3091,
      "vers": 3092,
      "Ġrelasyon": 3093,
      "Ġinteres": 3094,
      "ablo": 3095,
      "ĠAking": 3096,
      "wagan": 3097,
      "Ġsangkatauhan": 3098,
      "Ġkalidad": 3099,
      "ilipat": 3100,
      "AS": 3101,
      "Ġindustr": 3102,
      "Ġbill": 3103,
      "Ġkaharian": 3104,
      "Kaya": 3105,
      "ĠGam": 3106,
      "top": 3107,
      "Ġgastos": 3108,
      "Ka": 3109,
      "Ġpinal": 3110,
      "ernes": 3111,
      "tain": 3112,
      "ias": 3113,
      "Ġul": 3114,
      "Ġtrad": 3115,
      "ĠCenter": 3116,
      "Ġmalawak": 3117,
      "Ġnapap": 3118,
      "illa": 3119,
      "ĠLac": 3120,
      "usang": 3121,
      "canang": 3122,
      "Ġ50": 3123,
      "CC": 3124,
      "BI": 3125,
      "Ġlalaw": 3126,
      "Ġhawak": 3127,
      "ida": 3128,
      "tat": 3129,
      "Ġgalit": 3130,
      "ush": 3131,
      "Ġmakatulong": 3132,
      "Ġcas": 3133,
      "inese": 3134,
      "ĠIsa": 3135,
      "Ġbukas": 3136,
      "Ġnum": 3137,
      "eno": 3138,
      "ĠGusto": 3139,
      "insala": 3140,
      "ĠSin": 3141,
      "Ġibabaw": 3142,
      "ril": 3143,
      "Ġuod": 3144,
      "antay": 3145,
      "Ġlupain": 3146,
      "ĠBe": 3147,
      "Ġpropes": 3148,
      "Ġfl": 3149,
      "Ġ0": 3150,
      "utusan": 3151,
      "Ġpwede": 3152,
      "ĠMalacanang": 3153,
      "abagong": 3154,
      "ohn": 3155,
      "abuti": 3156,
      "ikap": 3157,
      "Ġdad": 3158,
      "aas": 3159,
      "Ġkaka": 3160,
      "ĠFac": 3161,
      "ĠAm": 3162,
      "Ġospital": 3163,
      "anggal": 3164,
      "Ġsimbahan": 3165,
      "Ġmedyo": 3166,
      "ibay": 3167,
      "ĠCOVID": 3168,
      "Ġmasaya": 3169,
      "ĠHealth": 3170,
      "aso": 3171,
      "iisip": 3172,
      "Ġpangulo": 3173,
      "Ġsolusyon": 3174,
      "igpit": 3175,
      "ĠKal": 3176,
      "Ġmilyong": 3177,
      "uty": 3178,
      "ayop": 3179,
      "ental": 3180,
      "urt": 3181,
      "Ġkumain": 3182,
      "ploy": 3183,
      "Ġkatang": 3184,
      "Ġsurg": 3185,
      "Ġpagtit": 3186,
      "nang": 3187,
      "Ġteam": 3188,
      "ĠRuss": 3189,
      "Ġmens": 3190,
      "inasyon": 3191,
      "ĠPam": 3192,
      "ĠIng": 3193,
      "ĠSat": 3194,
      "EN": 3195,
      "itim": 3196,
      "Ġlider": 3197,
      "Ġbumalik": 3198,
      "ĠSe": 3199,
      "ubo": 3200,
      "Ġmanggagawa": 3201,
      "Ġanti": 3202,
      "Ġmamb": 3203,
      "Ġnatural": 3204,
      "ingat": 3205,
      "Ġposisyon": 3206,
      "astic": 3207,
      "ampok": 3208,
      "Ġmilitar": 3209,
      "Ġnational": 3210,
      "ĠIg": 3211,
      "esa": 3212,
      "Ġlalawigan": 3213,
      "uweb": 3214,
      "AP": 3215,
      "igd": 3216,
      "ced": 3217,
      "Ġsm": 3218,
      "Noong": 3219,
      "Ġsuporta": 3220,
      "Ġtemp": 3221,
      "Ġnagsasalita": 3222,
      "con": 3223,
      "Ġitaas": 3224,
      "akatulong": 3225,
      "uya": 3226,
      "indihan": 3227,
      "ĠPac": 3228,
      "BS": 3229,
      "Ġekzoderil": 3230,
      "Ġnetwork": 3231,
      "akad": 3232,
      "Ġset": 3233,
      "cis": 3234,
      "bab": 3235,
      "Ġmaip": 3236,
      "tibo": 3237,
      "road": 3238,
      "lass": 3239,
      "Ġtingnan": 3240,
      "atayan": 3241,
      "ĠDapat": 3242,
      "ĠEuro": 3243,
      "opment": 3244,
      "ĠBiyernes": 3245,
      "Ġ22": 3246,
      "Ġnapag": 3247,
      "??": 3248,
      "email": 3249,
      "esyal": 3250,
      "It": 3251,
      "Ġbinti": 3252,
      "ĠPresidential": 3253,
      "Ġkontra": 3254,
      "akdang": 3255,
      "Ġpasah": 3256,
      "wing": 3257,
      "Ġhel": 3258,
      "Ġnakaka": 3259,
      "Ġplay": 3260,
      "otel": 3261,
      "ology": 3262,
      "abayan": 3263,
      "WA": 3264,
      "DO": 3265,
      "Mat": 3266,
      "Ġmadali": 3267,
      "Ġalin": 3268,
      "ĠWe": 3269,
      "Ġnakuha": 3270,
      "Ġpangkal": 3271,
      "Ġche": 3272,
      "Ġtravel": 3273,
      "tern": 3274,
      "arant": 3275,
      "utos": 3276,
      "Ġdiy": 3277,
      "limming": 3278,
      "alapit": 3279,
      "erto": 3280,
      "Ġkaloob": 3281,
      "FA": 3282,
      "Ġhuk": 3283,
      "Ġsurgery": 3284,
      "akay": 3285,
      "natili": 3286,
      "Ġhon": 3287,
      "inst": 3288,
      "Ġibaba": 3289,
      "vey": 3290,
      "ĠSenador": 3291,
      "ĠMac": 3292,
      "Ġpermit": 3293,
      "rat": 3294,
      "ĠGamit": 3295,
      "Ġeng": 3296,
      "Ġben": 3297,
      "Ġmen": 3298,
      "onomiya": 3299,
      "Ġmagkakaroon": 3300,
      "ĠMartes": 3301,
      "ĠBuhok": 3302,
      "ureau": 3303,
      "iramdam": 3304,
      "ebu": 3305,
      "ĠFer": 3306,
      "reso": 3307,
      "Ġpabor": 3308,
      "Ġblog": 3309,
      "emon": 3310,
      "Ġhayop": 3311,
      "atawang": 3312,
      "Ġkagamitan": 3313,
      "Ġsahod": 3314,
      "orth": 3315,
      "Isa": 3316,
      "Ġhehehe": 3317,
      "Ġkayang": 3318,
      "Ġgas": 3319,
      "Ġlead": 3320,
      "Ano": 3321,
      "Ġkaw": 3322,
      "Ġexp": 3323,
      "Ġmagbayad": 3324,
      "ĠPagkatapos": 3325,
      "usulat": 3326,
      "imulang": 3327,
      "Ġsapagkat": 3328,
      "ĠJos": 3329,
      "ven": 3330,
      "Ġdamit": 3331,
      "ĠUniversity": 3332,
      "ĠBureau": 3333,
      "Ġhil": 3334,
      "24": 3335,
      "Ġadd": 3336,
      "Ġsitw": 3337,
      "anteng": 3338,
      "ton": 3339,
      "Ġmakuha": 3340,
      "ĠCour": 3341,
      "ĠChinese": 3342,
      "Ġtanging": 3343,
      "Ġmadagdagan": 3344,
      "Ġpresident": 3345,
      "ubos": 3346,
      "ĠBl": 3347,
      "Ġkandid": 3348,
      "irma": 3349,
      "ĠLinggo": 3350,
      "Ġmanag": 3351,
      "Ġdata": 3352,
      "ĠOk": 3353,
      "ĠQu": 3354,
      "Ġsis": 3355,
      "mga": 3356,
      "Ġcoun": 3357,
      "ĠSo": 3358,
      "Ġappl": 3359,
      "ense": 3360,
      "par": 3361,
      "Ġsoftware": 3362,
      "CB": 3363,
      "epono": 3364,
      "Ġganito": 3365,
      "Ġts": 3366,
      "kop": 3367,
      "apagka": 3368,
      "tang": 3369,
      "Ġteksto": 3370,
      "Ġgen": 3371,
      "Ġnabanggit": 3372,
      "Ġkasalukuyan": 3373,
      "oci": 3374,
      "Ġpinan": 3375,
      "iyahan": 3376,
      "Ġrelihiyon": 3377,
      "urg": 3378,
      "Ġcard": 3379,
      "asang": 3380,
      "Ġcons": 3381,
      "Ġhangin": 3382,
      "Ġcomm": 3383,
      "Ġhanay": 3384,
      "ices": 3385,
      "Ġiyan": 3386,
      "ĠTrans": 3387,
      "Ġtip": 3388,
      "ibers": 3389,
      "Ġkuwento": 3390,
      "Ġrep": 3391,
      "oko": 3392,
      "Ġtur": 3393,
      "Ã¡": 3394,
      "Kapag": 3395,
      "lob": 3396,
      "Ġprogram": 3397,
      "ĠTaiwan": 3398,
      "ekta": 3399,
      "ĠSalita": 3400,
      "Ġkasaysayan": 3401,
      "Ġnumero": 3402,
      "ix": 3403,
      "ĠMad": 3404,
      "dr": 3405,
      "Ġfre": 3406,
      "Ġ2017": 3407,
      "utas": 3408,
      "tok": 3409,
      "ife": 3410,
      "ahalagang": 3411,
      "Ġgumag": 3412,
      "Ġtahanan": 3413,
      "pers": 3414,
      "Ġsent": 3415,
      "ahok": 3416,
      "ortahan": 3417,
      "amba": 3418,
      "Ġwr": 3419,
      "Ġfacial": 3420,
      "Ġbinab": 3421,
      "Ġusap": 3422,
      "ĠBanal": 3423,
      "\".": 3424,
      "Ġtar": 3425,
      "ept": 3426,
      "Ġtheir": 3427,
      "iro": 3428,
      "ĠTingnan": 3429,
      "Ġcent": 3430,
      "iyer": 3431,
      "uwang": 3432,
      "anes": 3433,
      "Ġkontr": 3434,
      "Ġlubos": 3435,
      "ING": 3436,
      "Ġpigment": 3437,
      "ultura": 3438,
      "acy": 3439,
      "Ġmanl": 3440,
      "Ġforum": 3441,
      "Ġklase": 3442,
      "ĠBibliya": 3443,
      "Ġninyong": 3444,
      "ĠTe": 3445,
      "ĠJohn": 3446,
      "Ġsir": 3447,
      "arto": 3448,
      "dical": 3449,
      "ci": 3450,
      "play": 3451,
      "uon": 3452,
      "Ġchar": 3453,
      "Ġener": 3454,
      "ĠBo": 3455,
      "aligiran": 3456,
      "aaring": 3457,
      "Ġnapaka": 3458,
      "Ġpagsusuri": 3459,
      "Ġgano": 3460,
      "iwat": 3461,
      "ĠLa": 3462,
      "izal": 3463,
      "ĠAnak": 3464,
      "ĠAir": 3465,
      "**": 3466,
      "Ġpolice": 3467,
      "ports": 3468,
      "aa": 3469,
      "Ġartik": 3470,
      "Ġemple": 3471,
      "Ġumabot": 3472,
      "ĠMayo": 3473,
      "Ġhost": 3474,
      "Ġmaik": 3475,
      "ĠRey": 3476,
      "Ġgroup": 3477,
      "download": 3478,
      "Ġindi": 3479,
      "Ġkond": 3480,
      "anapin": 3481,
      "cent": 3482,
      "uwebes": 3483,
      "legal": 3484,
      "ĠBal": 3485,
      "ments": 3486,
      "ruz": 3487,
      "Ġsul": 3488,
      "ĠSub": 3489,
      "helyo": 3490,
      "Ġtap": 3491,
      "Ġmeron": 3492,
      "Ġkaligtasan": 3493,
      "Ġpagm": 3494,
      "Ġmatut": 3495,
      "igdig": 3496,
      "Ġmensahe": 3497,
      "Kin": 3498,
      "Ġthey": 3499,
      "ĠKore": 3500,
      "ĠBa": 3501,
      "Ġpinuno": 3502,
      "Ġtraining": 3503,
      "imik": 3504,
      "lin": 3505,
      "Ġcustomer": 3506,
      "Ġgo": 3507,
      "Ġmababa": 3508,
      "isit": 3509,
      "Ġlalaking": 3510,
      "ugto": 3511,
      "ĠCourt": 3512,
      "Ġpagsasanay": 3513,
      "Ġover": 3514,
      "Ġnait": 3515,
      "ahag": 3516,
      "Ġpaghahanda": 3517,
      "ulasyon": 3518,
      "law": 3519,
      "abog": 3520,
      "Ġpangyayari": 3521,
      "ĠIII": 3522,
      "Ġsigurad": 3523,
      "TV": 3524,
      "ayundin": 3525,
      "ets": 3526,
      "We": 3527,
      "aalok": 3528,
      "vel": 3529,
      "ĠEnero": 3530,
      "inggil": 3531,
      "Ġitinat": 3532,
      "Ġinf": 3533,
      "py": 3534,
      "Ġadv": 3535,
      "Ġmagagamit": 3536,
      "trict": 3537,
      "anatili": 3538,
      "click": 3539,
      "aramdaman": 3540,
      "Ġrad": 3541,
      "ĠInternational": 3542,
      "Ġimport": 3543,
      "ĠAlam": 3544,
      "Ġikalawang": 3545,
      "Ġpasahero": 3546,
      "Ġany": 3547,
      "ĠKamara": 3548,
      "ody": 3549,
      "ĠMiyer": 3550,
      "ĠJapan": 3551,
      "Ġukol": 3552,
      "ĠEstr": 3553,
      "ther": 3554,
      "ibilidad": 3555,
      "ize": 3556,
      "Ġrespons": 3557,
      "Ġprobinsya": 3558,
      "____": 3559,
      "PO": 3560,
      "22": 3561,
      "ĠUpang": 3562,
      "ĠHuwebes": 3563,
      "Ġpinang": 3564,
      "ific": 3565,
      "Ġhealth": 3566,
      "Ġplan": 3567,
      "tol": 3568,
      "Ġnakar": 3569,
      "Ġnagpapakita": 3570,
      "ĠSol": 3571,
      "lex": 3572,
      "aker": 3573,
      "Ġ40": 3574,
      "ause": 3575,
      "Ġhas": 3576,
      "abatas": 3577,
      "Ġsitwasyon": 3578,
      "ope": 3579,
      "paman": 3580,
      "ĠPablo": 3581,
      "Ġhangga": 3582,
      "Ġpananampalataya": 3583,
      "aresto": 3584,
      "Ġpanayam": 3585,
      "Ġ23": 3586,
      "Ġdagat": 3587,
      "Ġpinakamalaking": 3588,
      "vestig": 3589,
      "for": 3590,
      "Ġofficial": 3591,
      "igaw": 3592,
      "Ġgustong": 3593,
      "Ġtakot": 3594,
      "AM": 3595,
      "Ġkatao": 3596,
      "Ġpuwesto": 3597,
      "ĠDirector": 3598,
      "Bukod": 3599,
      "Ġsil": 3600,
      "ium": 3601,
      "abilis": 3602,
      "EUR": 3603,
      "ĠEstrada": 3604,
      "nas": 3605,
      "igr": 3606,
      "atch": 3607,
      "amot": 3608,
      "Ġmatinding": 3609,
      "ones": 3610,
      "Ġrecipe": 3611,
      "Ġsusp": 3612,
      "hih": 3613,
      "intindihan": 3614,
      "ĠPe": 3615,
      "ĠSupre": 3616,
      "umber": 3617,
      "ĠLag": 3618,
      "Ġlimit": 3619,
      "LE": 3620,
      "Ġnangyayari": 3621,
      "Ġpanahong": 3622,
      "Ġone": 3623,
      "ungin": 3624,
      "ungkol": 3625,
      "Ġmasama": 3626,
      "Ġkamatayan": 3627,
      "ĠSatanas": 3628,
      "25": 3629,
      "ale": 3630,
      "nel": 3631,
      "cel": 3632,
      "ĠBagong": 3633,
      "Ġkakayahan": 3634,
      "Ġminuto": 3635,
      "Ġback": 3636,
      "ĠCebu": 3637,
      "akda": 3638,
      "Ġbaril": 3639,
      "ĠHesus": 3640,
      "Ġemail": 3641,
      "Ġnalang": 3642,
      "ayunman": 3643,
      "Ġhanda": 3644,
      "Ġespesyal": 3645,
      "Ġkinab": 3646,
      "Ġnagpapat": 3647,
      "Ġabo": 3648,
      "Ġkot": 3649,
      "Ġtermino": 3650,
      "ĠSabado": 3651,
      "ĠLacson": 3652,
      "Ġfee": 3653,
      "ĠSur": 3654,
      "lock": 3655,
      "Ġtelepono": 3656,
      "Ġbudget": 3657,
      "Ġmaiwasan": 3658,
      "redo": 3659,
      "Ġrecord": 3660,
      "alakay": 3661,
      "Ġparty": 3662,
      "Ġ21": 3663,
      "Ġginawang": 3664,
      "Ġlaging": 3665,
      "Wala": 3666,
      "Ġpup": 3667,
      "Ġrate": 3668,
      "elf": 3669,
      "ious": 3670,
      "Ġpand": 3671,
      "date": 3672,
      "Ġpagkab": 3673,
      "trabaho": 3674,
      "rob": 3675,
      "isi": 3676,
      "Ã±": 3677,
      "Ġsaka": 3678,
      "ĠFacebook": 3679,
      "ights": 3680,
      "ils": 3681,
      "Ġhits": 3682,
      "Ġkalagayan": 3683,
      "Ġpaliwanag": 3684,
      "Ġbawal": 3685,
      "ayunpaman": 3686,
      "Ġempleyado": 3687,
      "nar": 3688,
      "li": 3689,
      "earch": 3690,
      "Ġsex": 3691,
      "ĠSinabi": 3692,
      "Ġpinas": 3693,
      "alagahan": 3694,
      "aks": 3695,
      "udio": 3696,
      "Ġisda": 3697,
      "Ġpakiramdam": 3698,
      "irapan": 3699,
      "Ġumalis": 3700,
      "ĠLaw": 3701,
      "igma": 3702,
      "ĠKab": 3703,
      "Ġplastic": 3704,
      "inawag": 3705,
      "IA": 3706,
      "uporta": 3707,
      "Ġmait": 3708,
      "day": 3709,
      "istro": 3710,
      "ility": 3711,
      "ĠCruz": 3712,
      "Ġnormal": 3713,
      "ping": 3714,
      "iguro": 3715,
      "Ġlar": 3716,
      "antayan": 3717,
      "Ġmahalagang": 3718,
      "uyan": 3719,
      "Ġbenep": 3720,
      "bot": 3721,
      "Ġsundalo": 3722,
      "Ġfolk": 3723,
      "ĠDavid": 3724,
      "Ġkapaligiran": 3725,
      "Ġlas": 3726,
      "Ġslimming": 3727,
      "Ġpress": 3728,
      "Ġbinig": 3729,
      "Ġbukod": 3730,
      "Ġbuwang": 3731,
      "Ġfil": 3732,
      "asalamat": 3733,
      "hal": 3734,
      "Ina": 3735,
      "uluhan": 3736,
      "Ġreal": 3737,
      "iliit": 3738,
      "Ġtim": 3739,
      "Ġbansang": 3740,
      "asya": 3741,
      "resista": 3742,
      "Ġkatangian": 3743,
      "Ġnawala": 3744,
      "Ġlinya": 3745,
      "SE": 3746,
      "ĠFrancis": 3747,
      "Ġpay": 3748,
      "ĠLot": 3749,
      "Ġpangk": 3750,
      "erc": 3751,
      "ende": 3752,
      "anood": 3753,
      "echn": 3754,
      "Ġnagsimula": 3755,
      "Ġpagkuha": 3756,
      "ales": 3757,
      "Ġaklat": 3758,
      "iting": 3759,
      "Ġtind": 3760,
      "TO": 3761,
      "ĠGawa": 3762,
      "Ġfe": 3763,
      "Ġpamahid": 3764,
      "ukasyon": 3765,
      "iklo": 3766,
      "Ġact": 3767,
      "Ġbala": 3768,
      "Ġpaniniwala": 3769,
      "ungkot": 3770,
      "ĠPal": 3771,
      "try": 3772,
      "ĠKristo": 3773,
      "Ġamo": 3774,
      "Ġnagbigay": 3775,
      "Ġabout": 3776,
      "ĠKar": 3777,
      "ĠAma": 3778,
      "ĠĠĠĠ": 3779,
      "Ġmais": 3780,
      "ja": 3781,
      "Ġshabu": 3782,
      "Ġdat": 3783,
      "Ġmali": 3784,
      "Ġstat": 3785,
      "Ġmatag": 3786,
      "ĠKongreso": 3787,
      "Ġmapap": 3788,
      "rap": 3789,
      "Ġhis": 3790,
      "21": 3791,
      "Ġmakik": 3792,
      "Ġdec": 3793,
      "Ġtreatment": 3794,
      "Ġkinuha": 3795,
      "ayad": 3796,
      "Ġmatatagpuan": 3797,
      "44": 3798,
      "ĠEm": 3799,
      "Ġligtas": 3800,
      "iao": 3801,
      "list": 3802,
      "Ġmarket": 3803,
      "Ġprib": 3804,
      "Ġnagawa": 3805,
      "alakbay": 3806,
      "Ġ>": 3807,
      "ĠIna": 3808,
      "mon": 3809,
      "Ġtumutulong": 3810,
      "ĠSing": 3811,
      "Ġpint": 3812,
      "erg": 3813,
      "Ġnasawi": 3814,
      "Ġkailanman": 3815,
      "dir": 3816,
      "hah": 3817,
      "entong": 3818,
      "Ġdisk": 3819,
      "encies": 3820,
      "istang": 3821,
      "akot": 3822,
      "emat": 3823,
      "ĠIngles": 3824,
      "ĠABS": 3825,
      "Ġproject": 3826,
      "Ġnaglalaman": 3827,
      "Ġhinggil": 3828,
      "Ġideya": 3829,
      "Ġkaagad": 3830,
      "Ġpahina": 3831,
      "langin": 3832,
      "eep": 3833,
      "ĠGroup": 3834,
      "Ġ199": 3835,
      "ĠGar": 3836,
      "Ġpangkalahat": 3837,
      "ĠRead": 3838,
      "Ġkondisyon": 3839,
      "inagd": 3840,
      "ĠSabi": 3841,
      "Ġpananaw": 3842,
      "fa": 3843,
      "ards": 3844,
      "Ġregular": 3845,
      "Ġmasamang": 3846,
      "Ġpuntos": 3847,
      "Ġfile": 3848,
      "Ġfirst": 3849,
      "Ġkahulugan": 3850,
      "ĠJan": 3851,
      "ĠDevel": 3852,
      "Kas": 3853,
      "yag": 3854,
      "ayap": 3855,
      "awad": 3856,
      "ico": 3857,
      "Ġnaganap": 3858,
      "rop": 3859,
      "abalik": 3860,
      "hip": 3861,
      "angat": 3862,
      "Ġsabay": 3863,
      "Ġsinasabing": 3864,
      "Ġkapit": 3865,
      "Ġpass": 3866,
      "bit": 3867,
      "obile": 3868,
      "Ġmababang": 3869,
      "Ġsumunod": 3870,
      "Ġtuloy": 3871,
      "Ġbreast": 3872,
      "Ġcap": 3873,
      "Ġkrimen": 3874,
      "agsak": 3875,
      "ĠIlo": 3876,
      "ities": 3877,
      "uch": 3878,
      "ound": 3879,
      "ayagan": 3880,
      "utong": 3881,
      "Ġteknolohiya": 3882,
      "sada": 3883,
      "Ġlabi": 3884,
      "Ġsimpleng": 3885,
      "aalala": 3886,
      "AY": 3887,
      "ole": 3888,
      "Ġpanalo": 3889,
      "Ġbabaeng": 3890,
      "Ġmabuting": 3891,
      "Ġestado": 3892,
      "ags": 3893,
      "Read": 3894,
      "Ġbasta": 3895,
      "Pagk": 3896,
      "ĠâĢ¦": 3897,
      "Ġlabanan": 3898,
      "ikot": 3899,
      "point": 3900,
      "unyo": 3901,
      "Ġtungkulin": 3902,
      "unong": 3903,
      "itaw": 3904,
      "usog": 3905,
      "Ġpinags": 3906,
      "ĠBrgy": 3907,
      "cer": 3908,
      "Ġmagka": 3909,
      "vent": 3910,
      "Ġmach": 3911,
      "Ngayon": 3912,
      "fter": 3913,
      "Ġkongresista": 3914,
      "Ġlegal": 3915,
      "ua": 3916,
      "Ġprof": 3917,
      "Ġmangyari": 3918,
      "ugod": 3919,
      "munity": 3920,
      "Ġbanal": 3921,
      "raft": 3922,
      "Ngunit": 3923,
      "ĠAngel": 3924,
      "abihin": 3925,
      "MM": 3926,
      "Ġkampanya": 3927,
      "ative": 3928,
      "ĠComelec": 3929,
      "Ġpitong": 3930,
      "Ġapplication": 3931,
      "Ġkinak": 3932,
      "Ġeff": 3933,
      "Ġkotse": 3934,
      "Ġipinap": 3935,
      "Ġhalaman": 3936,
      "Ġbalik": 3937,
      "aniniwala": 3938,
      "Kah": 3939,
      "ebenta": 3940,
      "obyembre": 3941,
      "friend": 3942,
      "Ġbase": 3943,
      "ĠBayan": 3944,
      "Ġmapang": 3945,
      "uksan": 3946,
      "Ġnangangailangan": 3947,
      "rel": 3948,
      "Ġguid": 3949,
      "ange": 3950,
      "che": 3951,
      "ĠSA": 3952,
      "Ġlipunan": 3953,
      "Ġtotoong": 3954,
      "olusyon": 3955,
      "Ġpaglabag": 3956,
      "unuan": 3957,
      "Ġitinuturing": 3958,
      "ull": 3959,
      "Ġ|": 3960,
      "ĠLum": 3961,
      "gaw": 3962,
      "Ġekonomiya": 3963,
      "ude": 3964,
      "Ġmaliliit": 3965,
      "Ġsurvey": 3966,
      "ubukan": 3967,
      "Ġkomunidad": 3968,
      "kin": 3969,
      "isyong": 3970,
      "ĠMore": 3971,
      "Ġdalhin": 3972,
      "ecutive": 3973,
      "apatay": 3974,
      "Ġpolit": 3975,
      "Ġremedyong": 3976,
      "ren": 3977,
      "trans": 3978,
      "Ġreklamo": 3979,
      "Ġing": 3980,
      "Ġnau": 3981,
      "ismong": 3982,
      "ilipinas": 3983,
      "yun": 3984,
      "eth": 3985,
      "ps": 3986,
      "23": 3987,
      "ĠLima": 3988,
      "ipilian": 3989,
      "pan": 3990,
      "Ġpanig": 3991,
      "Ġabroad": 3992,
      "ron": 3993,
      "salita": 3994,
      "Ġleh": 3995,
      "ĠDisyembre": 3996,
      "Ġdokumento": 3997,
      "ikayat": 3998,
      "gado": 3999,
      "isasyon": 4000,
      "eration": 4001,
      "ĠMakati": 4002,
      "ĠSouth": 4003,
      "ycle": 4004,
      "Ġstor": 4005,
      "Ġpil": 4006,
      "Ġkabuuang": 4007,
      "Ġmambabatas": 4008,
      "Ġlabis": 4009,
      "ĠVice": 4010,
      "Ġnakalipas": 4011,
      "Ġcomputer": 4012,
      "ball": 4013,
      "Ġpatungo": 4014,
      "Ġsamant": 4015,
      "Ġkalooban": 4016,
      "ayapaan": 4017,
      "Ġiya": 4018,
      "dibid": 4019,
      "atuloy": 4020,
      "ĠTsina": 4021,
      "Ġgus": 4022,
      "ĠAraw": 4023,
      "into": 4024,
      "row": 4025,
      "ĠKristiy": 4026,
      "ĠBilang": 4027,
      "ĠMus": 4028,
      "ives": 4029,
      "antong": 4030,
      "ĠKanya": 4031,
      "Ġthere": 4032,
      "banghelyo": 4033,
      "Ġhina": 4034,
      "asawa": 4035,
      "RJ": 4036,
      "Ġnaa": 4037,
      "usal": 4038,
      "emento": 4039,
      "Ġkalam": 4040,
      "Ġrehiyon": 4041,
      "osto": 4042,
      "sman": 4043,
      "ĠCal": 4044,
      "ilalang": 4045,
      "Ġanyo": 4046,
      "Ġpasyente": 4047,
      "Ġmakas": 4048,
      "ule": 4049,
      "Ġnanin": 4050,
      "Ġsiguraduhin": 4051,
      "kita": 4052,
      "Ġmahabang": 4053,
      "TC": 4054,
      "SS": 4055,
      "ather": 4056,
      "CBN": 4057,
      "arte": 4058,
      "\",": 4059,
      "ĠMarso": 4060,
      "Ġdun": 4061,
      "vert": 4062,
      "ension": 4063,
      "Ġipakita": 4064,
      "alaan": 4065,
      "Nab": 4066,
      "ffair": 4067,
      "Ġgawing": 4068,
      "Ġindibid": 4069,
      "ĠChrist": 4070,
      "Ġadministrasyon": 4071,
      "Ġ26": 4072,
      "Ġplac": 4073,
      "ersa": 4074,
      "mo": 4075,
      "illanes": 4076,
      "tribution": 4077,
      "Ġtoena": 4078,
      "asaad": 4079,
      "awas": 4080,
      "utulong": 4081,
      "ĠIb": 4082,
      "Ġpampubl": 4083,
      "Ġ_": 4084,
      "Ġpananaliksik": 4085,
      "Ġpastor": 4086,
      "Ġkorte": 4087,
      "ĠRegion": 4088,
      "ahati": 4089,
      "Ġilagay": 4090,
      "daan": 4091,
      "igal": 4092,
      "ĠPags": 4093,
      "Ġgilid": 4094,
      "untunin": 4095,
      "ĠRizal": 4096,
      "undok": 4097,
      "Ġlumikha": 4098,
      "usiness": 4099,
      "ĠIl": 4100,
      "Ġnews": 4101,
      "ĠOc": 4102,
      "idos": 4103,
      "Ġwho": 4104,
      "Ġ28": 4105,
      "ley": 4106,
      "illion": 4107,
      "Sh": 4108,
      "ï¿": 4109,
      "unsad": 4110,
      "Ġchairman": 4111,
      "ados": 4112,
      "Ġunit": 4113,
      "Ġhirap": 4114,
      "Ġindustriya": 4115,
      "Ġposit": 4116,
      "alarawan": 4117,
      "ilalim": 4118,
      "Ġlast": 4119,
      "nd": 4120,
      "Ġlink": 4121,
      "inagdag": 4122,
      "Ġgood": 4123,
      "ĠComp": 4124,
      "Ġillegal": 4125,
      "ĠHunyo": 4126,
      "ï¿½": 4127,
      "istr": 4128,
      "erek": 4129,
      "ask": 4130,
      "Ġcenters": 4131,
      "Ġhoney": 4132,
      "Ġdisenyo": 4133,
      "Ġface": 4134,
      "onio": 4135,
      "ihintay": 4136,
      "Ġnawawala": 4137,
      "Ġkuryente": 4138,
      "Ġmalayo": 4139,
      "Ġana": 4140,
      "Ġnatag": 4141,
      "ĠUm": 4142,
      "Ġagencies": 4143,
      "Ġwin": 4144,
      "install": 4145,
      "ĠMah": 4146,
      "ĠTrillanes": 4147,
      "Ġpagdinig": 4148,
      "Ġepektibong": 4149,
      "aff": 4150,
      "gamot": 4151,
      "Ġenerhiya": 4152,
      "Ġsinabing": 4153,
      "Ġmaaring": 4154,
      "Ġhead": 4155,
      "ĠNov": 4156,
      "ahinga": 4157,
      "Ġtext": 4158,
      "Ġlagi": 4159,
      "Ġbot": 4160,
      "Ġpagpatay": 4161,
      "Ġnilalaman": 4162,
      "ĠElec": 4163,
      "Ġedukasyon": 4164,
      "ĠNobyembre": 4165,
      "Ġpong": 4166,
      "ĠMula": 4167,
      "unal": 4168,
      "ulangan": 4169,
      "Ġkawalan": 4170,
      "ĠKo": 4171,
      "ĠNA": 4172,
      "Ġkinalaman": 4173,
      "Ġnon": 4174,
      "ĠSantos": 4175,
      "ĠGina": 4176,
      "ulak": 4177,
      "vestigation": 4178,
      "Ġpangung": 4179,
      "ĠRoque": 4180,
      "Ġaktib": 4181,
      "bas": 4182,
      "Ġtapat": 4183,
      "umin": 4184,
      "oma": 4185,
      "Ġproduc": 4186,
      "ference": 4187,
      "Ġkalik": 4188,
      "Ġnarar": 4189,
      "Ġbalak": 4190,
      "awasan": 4191,
      "Ġpanukala": 4192,
      "Ġbec": 4193,
      "Ġcal": 4194,
      "ectr": 4195,
      "ĠWorld": 4196,
      "ugunan": 4197,
      "Ġsikat": 4198,
      "ĠManag": 4199,
      "Ġdumalo": 4200,
      "Ġoperation": 4201,
      "Ġyears": 4202,
      "Ġdam": 4203,
      "ĠMor": 4204,
      "ican": 4205,
      "anah": 4206,
      "Ġdina": 4207,
      "Ġduwa": 4208,
      "Ġbagyo": 4209,
      "Ġlehitim": 4210,
      "ueva": 4211,
      "ĠMayroon": 4212,
      "Ġmagsis": 4213,
      "ube": 4214,
      "Ġentry": 4215,
      "kado": 4216,
      "ĠDevelopment": 4217,
      "tubre": 4218,
      "usahan": 4219,
      "Ġpambansang": 4220,
      "now": 4221,
      "Ġsangkap": 4222,
      "ĠKom": 4223,
      "Ġsek": 4224,
      "phone": 4225,
      "akuha": 4226,
      "?\"": 4227,
      "roll": 4228,
      "ĠIkaw": 4229,
      "akyat": 4230,
      "Ġkatunayan": 4231,
      "Ġmand": 4232,
      "Ġmotor": 4233,
      "Ġisinas": 4234,
      "ĠUnidos": 4235,
      "Ġkalsada": 4236,
      "angkot": 4237,
      "Ġsalamat": 4238,
      "bon": 4239,
      "aint": 4240,
      "uridad": 4241,
      "Ġmainit": 4242,
      "Ġeb": 4243,
      "Ġnaghahanap": 4244,
      "Ġpangarap": 4245,
      "ardo": 4246,
      "ffairs": 4247,
      "ca": 4248,
      "ization": 4249,
      "Ġnabubuhay": 4250,
      "Ġpeople": 4251,
      "Ġpagmamahal": 4252,
      "ĠCam": 4253,
      "RO": 4254,
      "Ġ2010": 4255,
      "Ġ27": 4256,
      "alakad": 4257,
      "indol": 4258,
      "ĠMaria": 4259,
      "ersisyo": 4260,
      "Ġipinang": 4261,
      "Ġbers": 4262,
      "ied": 4263,
      "Ġinternet": 4264,
      "UNA": 4265,
      "Ġâ": 4266,
      "Ġpagpapal": 4267,
      "yn": 4268,
      "ĠCusto": 4269,
      "Ġpanganib": 4270,
      "amali": 4271,
      "Ġpans": 4272,
      "Ġarea": 4273,
      "cia": 4274,
      "Ġsumas": 4275,
      "osis": 4276,
      "Ġbaga": 4277,
      "ham": 4278,
      "pay": 4279,
      "amahan": 4280,
      "ĠPana": 4281,
      "ĠPed": 4282,
      "umite": 4283,
      "?âĢĿ": 4284,
      "uta": 4285,
      "akain": 4286,
      "oles": 4287,
      "intulot": 4288,
      "dala": 4289,
      "ĠCas": 4290,
      "Ġpaghahanap": 4291,
      "irl": 4292,
      "Ġbilis": 4293,
      "Ġpatakaran": 4294,
      "Ġmalinis": 4295,
      "Ġpansin": 4296,
      "mum": 4297,
      "Ġhy": 4298,
      "ĠAll": 4299,
      "Ġnamam": 4300,
      "Ġtatlo": 4301,
      "Ġmass": 4302,
      "Ġinaasahan": 4303,
      "mbud": 4304,
      "igur": 4305,
      "ĠLuzon": 4306,
      "ahatid": 4307,
      "ĠPanelo": 4308,
      "Ġvs": 4309,
      "ĠBatang": 4310,
      "Ġeks": 4311,
      "Ġkontrol": 4312,
      "Ġla": 4313,
      "ĠBinay": 4314,
      "okesman": 4315,
      "aysay": 4316,
      "ckles": 4317,
      "Ġpagpipilian": 4318,
      "ĠAFP": 4319,
      "mbudsman": 4320,
      "unsod": 4321,
      "Ġnumber": 4322,
      "ĠAmerika": 4323,
      "ektado": 4324,
      "Ġbigla": 4325,
      "Ġtampok": 4326,
      "utom": 4327,
      "leto": 4328,
      "ora": 4329,
      "iago": 4330,
      "igilan": 4331,
      "Ġdala": 4332,
      "Ġnatit": 4333,
      "Ġinit": 4334,
      "eklara": 4335,
      "iin": 4336,
      "urs": 4337,
      "Ġkaugnayan": 4338,
      "ĠRec": 4339,
      "umpirma": 4340,
      "nais": 4341,
      "ĠRev": 4342,
      "Ġipat": 4343,
      "ensyon": 4344,
      "Ġbuto": 4345,
      "ĠEstados": 4346,
      "anayan": 4347,
      "Ġkor": 4348,
      "ĠRed": 4349,
      "ĠPC": 4350,
      "angan": 4351,
      "Ġpagkakaiba": 4352,
      ".)": 4353,
      "ĠDistrict": 4354,
      "Ġpanin": 4355,
      "uhunan": 4356,
      "Ġmalam": 4357,
      "Ġbiglang": 4358,
      "yas": 4359,
      "Ġbato": 4360,
      "Ġdiyeta": 4361,
      "ĠIglesia": 4362,
      "time": 4363,
      "isay": 4364,
      "Ġyugto": 4365,
      "Ġpagbubuntis": 4366,
      "usta": 4367,
      "ogle": 4368,
      "Ġapoy": 4369,
      "Ġti": 4370,
      "Ġkandidato": 4371,
      "ilon": 4372,
      "Ġbuwis": 4373,
      "kules": 4374,
      "Ġmapa": 4375,
      "Ġpribadong": 4376,
      "Maaari": 4377,
      "Ġlisens": 4378,
      "ĠOmbudsman": 4379,
      "ebrero": 4380,
      "Ġhap": 4381,
      "Ġlehitimong": 4382,
      "Ġcommittee": 4383,
      "Ġsaid": 4384,
      "Ġlocal": 4385,
      "Ġpir": 4386,
      "isipan": 4387,
      "mag": 4388,
      "Ġkinat": 4389,
      "Ġbituka": 4390,
      "Ġkababayan": 4391,
      "Ġkwento": 4392,
      "Ġif": 4393,
      "Ġangkop": 4394,
      "ĠAbril": 4395,
      "isy": 4396,
      "Ġkalikasan": 4397,
      "Ġtanggapin": 4398,
      "ĠCast": 4399,
      "Ġpower": 4400,
      "ED": 4401,
      "Ġpalat": 4402,
      "dy": 4403,
      "ĠPet": 4404,
      "Ġgagamit": 4405,
      "ongress": 4406,
      "enn": 4407,
      "Ġliwanag": 4408,
      "ugas": 4409,
      "Ġatt": 4410,
      "Ġkawan": 4411,
      "PD": 4412,
      "ĠRox": 4413,
      "Siya": 4414,
      "Ġnagbab": 4415,
      "Ġbilyon": 4416,
      "Ġunder": 4417,
      "Ġbigas": 4418,
      "reg": 4419,
      "Ġelections": 4420,
      "awid": 4421,
      "til": 4422,
      "Ġpamamahala": 4423,
      "reative": 4424,
      "Ġtransport": 4425,
      "ĠCay": 4426,
      "peto": 4427,
      "ĠKailangan": 4428,
      "ĠMab": 4429,
      "Ġgiardia": 4430,
      "Ġemploy": 4431,
      "ihinal": 4432,
      "Ġdown": 4433,
      "Ġmaliban": 4434,
      "!!!": 4435,
      "ĠMaraming": 4436,
      "Ġits": 4437,
      "Ġinaasahang": 4438,
      "Ġpanukalang": 4439,
      "Ġvirus": 4440,
      "Ġmonth": 4441,
      "lib": 4442,
      "Ġtan": 4443,
      "Ġtumulong": 4444,
      "hindi": 4445,
      "ĠPoe": 4446,
      "Ġcare": 4447,
      "Ġkahoy": 4448,
      "Ġganun": 4449,
      "Ġcam": 4450,
      "Ġret": 4451,
      "Ġbenepisyo": 4452,
      "ĠAtty": 4453,
      "Ġahensiya": 4454,
      "yr": 4455,
      "Ġtagal": 4456,
      "Ar": 4457,
      "Ġpampublikong": 4458,
      "ĠOktubre": 4459,
      "ĠSand": 4460,
      "Bilang": 4461,
      "Ġthem": 4462,
      "Id": 4463,
      "Ġtool": 4464,
      "Ġbababa": 4465,
      "Ġfreckles": 4466,
      "diriwang": 4467,
      "ĠMiyerkules": 4468,
      "Ġnagtatrabaho": 4469,
      "ĠSet": 4470,
      "ehiyo": 4471,
      "Ġtop": 4472,
      "Ġhihigit": 4473,
      "ucation": 4474,
      "SO": 4475,
      "Ġcase": 4476,
      "ustuhan": 4477,
      "Ġsecurity": 4478,
      "Ġdiyan": 4479,
      "Ġnakah": 4480,
      "Ġservice": 4481,
      "ke": 4482,
      "ney": 4483,
      "Ġdulo": 4484,
      "Ġmahihirap": 4485,
      "unduan": 4486,
      "Ġbunga": 4487,
      "Ġtanggapan": 4488,
      "ĠNG": 4489,
      "ugin": 4490,
      "Ġhinaharap": 4491,
      "uriin": 4492,
      "Ġutos": 4493,
      "iwatig": 4494,
      "Ġmangyayari": 4495,
      "ĠNoong": 4496,
      "ĠParty": 4497,
      "Ġhitsura": 4498,
      "ĠVic": 4499,
      "Ġitina": 4500,
      "Ġ+": 4501,
      "enteng": 4502,
      "ĠRobredo": 4503,
      "ront": 4504,
      "26": 4505,
      "anahunan": 4506,
      "Una": 4507,
      "als": 4508,
      "eratura": 4509,
      "45": 4510,
      "ĠPina": 4511,
      "ahon": 4512,
      "Ġne": 4513,
      "ĠKristiyano": 4514,
      "Ġdry": 4515,
      "Ġpagkakas": 4516,
      "Upang": 4517,
      "ĠArt": 4518,
      "Ġtinig": 4519,
      "IR": 4520,
      "atao": 4521,
      "irc": 4522,
      "Ġsch": 4523,
      "Ġnagmam": 4524,
      "Ġkasunod": 4525,
      "ules": 4526,
      "ĠVillar": 4527,
      "Ġindibidwal": 4528,
      "Ġmagbibigay": 4529,
      "ulyo": 4530,
      "Ġjust": 4531,
      "akip": 4532,
      "ĠPl": 4533,
      "Ġnakakat": 4534,
      "Ġsw": 4535,
      "Ġdalaga": 4536,
      "ipis": 4537,
      "Ġhah": 4538,
      "Ġhen": 4539,
      "ĠPOEA": 4540,
      "Ġyaon": 4541,
      "Ġling": 4542,
      "Ġtagumpay": 4543,
      "ibigyan": 4544,
      "Ġsuppl": 4545,
      "ful": 4546,
      "Ġboy": 4547,
      "bigay": 4548,
      "Ġsandaling": 4549,
      "orsiklo": 4550,
      "39": 4551,
      "anaw": 4552,
      "Ġmakakatulong": 4553,
      "uthority": 4554,
      "amon": 4555,
      "ĠMon": 4556,
      "imbestiga": 4557,
      "Ġ2015": 4558,
      "person": 4559,
      "pis": 4560,
      "Ġalak": 4561,
      "iliin": 4562,
      "inong": 4563,
      "emang": 4564,
      "Ġinc": 4565,
      "abol": 4566,
      "ety": 4567,
      "Ġperpek": 4568,
      "ird": 4569,
      "ugis": 4570,
      "Paano": 4571,
      "Ġprins": 4572,
      "uluwa": 4573,
      "osible": 4574,
      "Ġelectr": 4575,
      "Ġec": 4576,
      "Ġmahigpit": 4577,
      "enz": 4578,
      "ures": 4579,
      "Ġgusali": 4580,
      "ĠWill": 4581,
      "ĠBalita": 4582,
      "apekto": 4583,
      "kak": 4584,
      "ĠAgosto": 4585,
      ");": 4586,
      "ambo": 4587,
      "gad": 4588,
      "Ġdinala": 4589,
      "ĠPresidente": 4590,
      "ĠBit": 4591,
      "ungkahi": 4592,
      "Ġpwedeng": 4593,
      "Kabilang": 4594,
      "Ġmust": 4595,
      "PS": 4596,
      "atakbo": 4597,
      "Ġlumang": 4598,
      "alitang": 4599,
      "Ġporsiy": 4600,
      "Ġpinsala": 4601,
      "Ġtinawag": 4602,
      "round": 4603,
      "Ġhumingi": 4604,
      "undan": 4605,
      "Ġshe": 4606,
      "Pang": 4607,
      "erna": 4608,
      "Ġmalamang": 4609,
      "Ġpropesyonal": 4610,
      "dan": 4611,
      "ower": 4612,
      "Ġniy": 4613,
      "ĠPD": 4614,
      "Ġdako": 4615,
      "Ġseguridad": 4616,
      "rub": 4617,
      "resent": 4618,
      "uction": 4619,
      "Ġcenter": 4620,
      "Ġgatas": 4621,
      "ĠSta": 4622,
      "rest": 4623,
      "quiao": 4624,
      "Ġend": 4625,
      "Ġsarap": 4626,
      "uncil": 4627,
      "Ġdirector": 4628,
      "Ġher": 4629,
      "Ġinilabas": 4630,
      "Ġcle": 4631,
      "Ġhotel": 4632,
      "Ġmaunawaan": 4633,
      "ĠYou": 4634,
      "Ġsangkot": 4635,
      "Ġcode": 4636,
      "apo": 4637,
      "Ġlap": 4638,
      "Ġkautusan": 4639,
      "ks": 4640,
      "Ġmukhang": 4641,
      "gen": 4642,
      "amay": 4643,
      "eas": 4644,
      "Ġspots": 4645,
      "Walang": 4646,
      "ĠRoxas": 4647,
      "unahan": 4648,
      "Ġpagbili": 4649,
      "Ġhalalan": 4650,
      "Ġmalalaking": 4651,
      "40": 4652,
      "Ġpalaging": 4653,
      "aboy": 4654,
      "Ġnasusulat": 4655,
      "ĠPebrero": 4656,
      "Ġbawa": 4657,
      "Ġmachine": 4658,
      "ĠCommittee": 4659,
      "ĠAffairs": 4660,
      "Ġpetsa": 4661,
      "Ġ198": 4662,
      "Ġutak": 4663,
      "Turuan": 4664,
      "ĠPalas": 4665,
      "Ġlibro": 4666,
      "Ġnakatira": 4667,
      "apasok": 4668,
      "ikit": 4669,
      "fe": 4670,
      "Ġpalak": 4671,
      "Ġnangung": 4672,
      "Ġaktibidad": 4673,
      "27": 4674,
      "etano": 4675,
      "Ġpagkamatay": 4676,
      "Â¬": 4677,
      "Ġlindol": 4678,
      "ander": 4679,
      "urr": 4680,
      "ions": 4681,
      "very": 4682,
      "here": 4683,
      "Ġ29": 4684,
      "Ġkg": 4685,
      "epe": 4686,
      "atin": 4687,
      "akal": 4688,
      "Ġstand": 4689,
      "Ġdid": 4690,
      "akalawa": 4691,
      "anta": 4692,
      "ĠHigh": 4693,
      "Ġbumuo": 4694,
      "ĠDo": 4695,
      "Ġmagsasaka": 4696,
      "200": 4697,
      "IC": 4698,
      "Aniya": 4699,
      "Ġbundok": 4700,
      "ĠTim": 4701,
      "Ġserye": 4702,
      "king": 4703,
      "ĠUnited": 4704,
      "ĠTin": 4705,
      "Ġsamantalang": 4706,
      "Ġnararamdaman": 4707,
      "kalde": 4708,
      "Ġimahe": 4709,
      "Ġapl": 4710,
      "Ġitim": 4711,
      "Tin": 4712,
      "Ġconc": 4713,
      "rim": 4714,
      "lak": 4715,
      "29": 4716,
      "ĠAntonio": 4717,
      "plano": 4718,
      "maliban": 4719,
      "Ġdulot": 4720,
      "ernong": 4721,
      "Ġidin": 4722,
      "els": 4723,
      "Ġ2013": 4724,
      "Ġnarinig": 4725,
      "Ġpuk": 4726,
      "OR": 4727,
      "ĠCav": 4728,
      "Ġnegosy": 4729,
      "Ġpind": 4730,
      "Ġplacement": 4731,
      "eph": 4732,
      "Ġpagtanggap": 4733,
      "Ġkakulangan": 4734,
      "Ġmerkado": 4735,
      "Ġkilom": 4736,
      "tot": 4737,
      "Ġpangh": 4738,
      "ze": 4739,
      "awal": 4740,
      "Ġmagagawa": 4741,
      "Ġkilalang": 4742,
      "Ġrequ": 4743,
      "Ġbangkay": 4744,
      "Ġnanal": 4745,
      "ĠPacquiao": 4746,
      "Ġcheck": 4747,
      "Ġleg": 4748,
      "UNAWA": 4749,
      "anapan": 4750,
      "Ġbinigyan": 4751,
      "Ġiss": 4752,
      "28": 4753,
      "ĠCent": 4754,
      "Ġkultura": 4755,
      "nam": 4756,
      "ĠPalasyo": 4757,
      "Ġnagsasabi": 4758,
      "ĠNav": 4759,
      "ĠSila": 4760,
      "natiling": 4761,
      "Ġ60": 4762,
      "pal": 4763,
      "lag": 4764,
      "ĠHulyo": 4765,
      "ĠMark": 4766,
      "Ġibigay": 4767,
      "aliit": 4768,
      "Ġaddress": 4769,
      "ening": 4770,
      "Ġkapalit": 4771,
      "ĠPamp": 4772,
      "Ako": 4773,
      "Nap": 4774,
      "Ġpek": 4775,
      "NG": 4776,
      "Ġnaip": 4777,
      "awing": 4778,
      "Ġprov": 4779,
      "Ġinihayag": 4780,
      "Ġtabi": 4781,
      "osa": 4782,
      "anada": 4783,
      "seril": 4784,
      "ĉĊ": 4785,
      "ĠAlbay": 4786,
      "ĠMin": 4787,
      "arl": 4788,
      "Ġikatlong": 4789,
      "transaksyon": 4790,
      "Ġsen": 4791,
      "lege": 4792,
      "Ġteror": 4793,
      "aalam": 4794,
      "tract": 4795,
      "alingan": 4796,
      "ĠCayetano": 4797,
      "Ġhad": 4798,
      "Ġpagpasok": 4799,
      "izen": 4800,
      "ĠGum": 4801,
      "of": 4802,
      "Ġbahag": 4803,
      "Habang": 4804,
      "ĠNorth": 4805,
      "Ġbom": 4806,
      "Ġpunong": 4807,
      "ises": 4808,
      "Sabi": 4809,
      "Ġaks": 4810,
      "Ġha": 4811,
      "Ġmanlalaro": 4812,
      "ĠRa": 4813,
      "ĠAssoci": 4814,
      "Ġsukat": 4815,
      "ilik": 4816,
      "upit": 4817,
      "Ġnguni": 4818,
      "Ġtuk": 4819,
      "atake": 4820,
      "Ġmalalim": 4821,
      "oper": 4822,
      "Ġpaksa": 4823,
      "OS": 4824,
      "ĠSenator": 4825,
      "US": 4826,
      "sang": 4827,
      "Ġabogado": 4828,
      "Ġnangangako": 4829,
      "Ġpalitan": 4830,
      "ĠTumawag": 4831,
      "ĠMic": 4832,
      "ted": 4833,
      "ĠFore": 4834,
      "ĠBul": 4835,
      "ugatan": 4836,
      "ival": 4837,
      "Ġanay": 4838,
      "ĠHar": 4839,
      "ubog": 4840,
      "Sin": 4841,
      "Ġmanat": 4842,
      "ĠSupt": 4843,
      "Ġdom": 4844,
      "Ġlikas": 4845,
      "ger": 4846,
      "burg": 4847,
      "achment": 4848,
      "Ġtaas": 4849,
      "TI": 4850,
      "Ġopin": 4851,
      "Alam": 4852,
      "ektahan": 4853,
      "post": 4854,
      "ĠPol": 4855,
      "ĠAgu": 4856,
      "onood": 4857,
      "usalem": 4858,
      "Ġtw": 4859,
      "Kahit": 4860,
      "rd": 4861,
      "ensa": 4862,
      "inanong": 4863,
      "Matapos": 4864,
      "Ġnanay": 4865,
      "Ġdark": 4866,
      "uma": 4867,
      "athala": 4868,
      "Ġagain": 4869,
      "Ġsasabihin": 4870,
      "Ġkamakalawa": 4871,
      "ues": 4872,
      "ists": 4873,
      "Ġpot": 4874,
      "Ġpayo": 4875,
      "Ġnakikipag": 4876,
      "upong": 4877,
      "apore": 4878,
      "hy": 4879,
      "ĠJam": 4880,
      "rot": 4881,
      "ĠAdministr": 4882,
      "Ġmatiyak": 4883,
      "Ġganoon": 4884,
      "Ġbaguhin": 4885,
      "Ġsulat": 4886,
      "erry": 4887,
      "Ġproduktong": 4888,
      "ĠSpe": 4889,
      "rup": 4890,
      "yento": 4891,
      "ĠCommons": 4892,
      "reet": 4893,
      "Ġnagsabi": 4894,
      "Ġbandang": 4895,
      "aham": 4896,
      "Ġipinat": 4897,
      "anggan": 4898,
      "ĠDiv": 4899,
      "Ġkaaway": 4900,
      "ĠGe": 4901,
      "Ġmotorsiklo": 4902,
      "Ġpoint": 4903,
      "gas": 4904,
      "ĠPedro": 4905,
      "ahayan": 4906,
      "ĠAustr": 4907,
      "tres": 4908,
      "Ġboto": 4909,
      "Ġkopo": 4910,
      "Ġkaluluwa": 4911,
      "PAUNAWA": 4912,
      "Ġfam": 4913,
      "ĠPAG": 4914,
      "Ġkinas": 4915,
      "Dapat": 4916,
      "Ġkatap": 4917,
      "amantalang": 4918,
      "Ġporsiyento": 4919,
      "Ġsunog": 4920,
      "inta": 4921,
      "uwento": 4922,
      "ella": 4923,
      "Ġbuy": 4924,
      "iso": 4925,
      "Ġlisensyado": 4926,
      "apekt": 4927,
      "osyo": 4928,
      "Ġsinumang": 4929,
      "ĠDoc": 4930,
      "imum": 4931,
      "Ġkontrata": 4932,
      "Ġkapayapaan": 4933,
      "Ġkatan": 4934,
      "Ġbih": 4935,
      "Ġipap": 4936,
      "Ġsakaling": 4937,
      "Ġpawang": 4938,
      "Ġkasing": 4939,
      "rib": 4940,
      "Ġpuro": 4941,
      "risis": 4942,
      "ĠJun": 4943,
      "Ġtula": 4944,
      "Ġpresidente": 4945,
      "ĠKan": 4946,
      "Ġpamamaga": 4947,
      "ĠPinag": 4948,
      "Ġkid": 4949,
      "Ġginagawang": 4950,
      "Ġposibilidad": 4951,
      "Ġkoponan": 4952,
      "ulacan": 4953,
      "ĠLo": 4954,
      "Ġorihinal": 4955,
      "Ġpagkah": 4956,
      "Ġafter": 4957,
      "osisyon": 4958,
      "Ġinsp": 4959,
      "iang": 4960,
      "akilala": 4961,
      "iza": 4962,
      "Ġmaib": 4963,
      "ababa": 4964,
      "Ġkulang": 4965,
      "Ġiligal": 4966,
      "Ġpartido": 4967,
      "Bakit": 4968,
      "Ġmurang": 4969,
      "ĠMaaaring": 4970,
      "dock": 4971,
      "Ġtupa": 4972,
      "ĠJul": 4973,
      "ĠSar": 4974,
      "Ġnatagpuan": 4975,
      "ilaw": 4976,
      "insunod": 4977,
      "ĠSantiago": 4978,
      "Ġharapan": 4979,
      "ĠDom": 4980,
      "Ġkamakailan": 4981,
      "ibili": 4982,
      "Ġlaser": 4983,
      "Ġyour": 4984,
      "ĠCreative": 4985,
      "yl": 4986,
      "Ġpriv": 4987,
      "Ġumiiral": 4988,
      "Ġvol": 4989,
      "Ġord": 4990,
      "Ġnatatang": 4991,
      "Ġsuka": 4992,
      "uportahan": 4993,
      "Ġproduksyon": 4994,
      "roid": 4995,
      "UL": 4996,
      "Ġmangyaring": 4997,
      "Ġvery": 4998,
      "buhay": 4999,
      "laban": 5000,
      "Ġtulungan": 5001,
      "!âĢĿ": 5002,
      "Mal": 5003,
      "ward": 5004,
      "Ġmismong": 5005,
      "alayan": 5006,
      "Ġbecause": 5007,
      "witter": 5008,
      "aalaga": 5009,
      "eksiyon": 5010,
      "vincial": 5011,
      "Ġmaw": 5012,
      "bahay": 5013,
      "Ġmaikling": 5014,
      "ĠNorte": 5015,
      "Ġdoc": 5016,
      "AC": 5017,
      "uyod": 5018,
      "Ġnagkatawang": 5019,
      "formation": 5020,
      "agawang": 5021,
      "edy": 5022,
      "ubay": 5023,
      "Ġpagkal": 5024,
      "Ġwag": 5025,
      "Ġkalihim": 5026,
      "Ġkasamaan": 5027,
      "ipl": 5028,
      "iisa": 5029,
      "Ġalkalde": 5030,
      "Th": 5031,
      "Ġmult": 5032,
      "esis": 5033,
      "Ġkalaban": 5034,
      "Ġpunto": 5035,
      "ontrol": 5036,
      "ario": 5037,
      "Ġpamumuhay": 5038,
      "Ġref": 5039,
      "ĠSapagka": 5040,
      "ĠMarawi": 5041,
      "Ġgawaing": 5042,
      "Ġbir": 5043,
      "ĠAsia": 5044,
      "ahas": 5045,
      "ĠRosa": 5046,
      "urong": 5047,
      "Ġpareho": 5048,
      "NC": 5049,
      "ĠGoogle": 5050,
      "ĠProgr": 5051,
      "atakot": 5052,
      "aalis": 5053,
      "nampalataya": 5054,
      "ĠNet": 5055,
      "arantine": 5056,
      "ĠJerusalem": 5057,
      "ĠCab": 5058,
      "elle": 5059,
      "ĠKum": 5060,
      "Ġnapatay": 5061,
      "Ġbinubuo": 5062,
      "ars": 5063,
      "ding": 5064,
      "Ġpus": 5065,
      "ĠPin": 5066,
      "ĠArmy": 5067,
      "ota": 5068,
      "ĠKorte": 5069,
      "Ġmagamit": 5070,
      "kuk": 5071,
      "Ġtindahan": 5072,
      "Ġpilipinas": 5073,
      "ĠLisens": 5074,
      "ibersidad": 5075,
      "bibigay": 5076,
      "Ġkumpara": 5077,
      "Ġmakal": 5078,
      "Ġtoenails": 5079,
      "toto": 5080,
      "Ġmakilala": 5081,
      "ranch": 5082,
      "Ġkinakailangang": 5083,
      "vices": 5084,
      "ĠPublic": 5085,
      "urse": 5086,
      "Ġdek": 5087,
      "ikos": 5088,
      "iment": 5089,
      "Ġtoes": 5090,
      "unyag": 5091,
      "ĠPer": 5092,
      "emor": 5093,
      "Ġmobile": 5094,
      "Ġz": 5095,
      "Ġfund": 5096,
      "Ġtren": 5097,
      "rer": 5098,
      "Ġshould": 5099,
      "Ġsaad": 5100,
      "Ġlandas": 5101,
      "aster": 5102,
      "Ġartikulo": 5103,
      "abawal": 5104,
      "ats": 5105,
      "Ġroon": 5106,
      "alif": 5107,
      "Ġpinili": 5108,
      "Ġsib": 5109,
      "Ġbub": 5110,
      "erv": 5111,
      "ĠDef": 5112,
      "Ġsta": 5113,
      "amis": 5114,
      "Ġtinanggap": 5115,
      "Ġhard": 5116,
      "ĠNarito": 5117,
      "ĠSetyembre": 5118,
      "save": 5119,
      "ĠBor": 5120,
      "Ġport": 5121,
      "Ġtro": 5122,
      "Ġlayo": 5123,
      "ĠFernan": 5124,
      "Ġutang": 5125,
      "ĠRegional": 5126,
      "ilidad": 5127,
      "ĠBulacan": 5128,
      "Mula": 5129,
      "ĠInc": 5130,
      "Ġtarget": 5131,
      "inalang": 5132,
      "ukin": 5133,
      "Ġdet": 5134,
      "Ġcompl": 5135,
      "Ġmillion": 5136,
      "60": 5137,
      "uyang": 5138,
      "alakihan": 5139,
      "ros": 5140,
      "Ġkasabay": 5141,
      "alon": 5142,
      "Ġwalong": 5143,
      "Ġpagpup": 5144,
      "...]": 5145,
      "ĠCavite": 5146,
      "by": 5147,
      "500": 5148,
      "Ġwakas": 5149,
      "Ġpalabas": 5150,
      "aranas": 5151,
      "ilyo": 5152,
      "ĠIm": 5153,
      "ĠDrug": 5154,
      "Ġsakay": 5155,
      "Ġdeb": 5156,
      "esta": 5157,
      "lit": 5158,
      "ĠLotseril": 5159,
      "Ġmateryales": 5160,
      "biz": 5161,
      "ĠCCP": 5162,
      "AH": 5163,
      "Ġ33": 5164,
      "Ġfungi": 5165,
      "inggan": 5166,
      "Ġtungo": 5167,
      "Ġputing": 5168,
      "apal": 5169,
      "ĠSimb": 5170,
      "Ġbusiness": 5171,
      "Ġmain": 5172,
      "ĠItal": 5173,
      ".....": 5174,
      "Ġbersyon": 5175,
      "ield": 5176,
      "ots": 5177,
      "apektuhan": 5178,
      "Ġmarahil": 5179,
      "oll": 5180,
      "arez": 5181,
      "Ġeffect": 5182,
      "ĠLor": 5183,
      "atap": 5184,
      "aganap": 5185,
      "ĠDel": 5186,
      "iyas": 5187,
      "ĠSanto": 5188,
      "Ġnagsisimula": 5189,
      "EP": 5190,
      "wan": 5191,
      "Ġaabot": 5192,
      "Pagkatapos": 5193,
      "ĠBat": 5194,
      "Ġpagkas": 5195,
      "ilingkod": 5196,
      "Ġipinal": 5197,
      "patuloy": 5198,
      "Ġcook": 5199,
      "Ġju": 5200,
      "Ġnamum": 5201,
      "Ġpuwedeng": 5202,
      "ĠSingapore": 5203,
      "Ġsl": 5204,
      "Ġmatagumpay": 5205,
      "Ġwould": 5206,
      "ination": 5207,
      "aking": 5208,
      "Ġistr": 5209,
      "Matat": 5210,
      "ĠPad": 5211,
      "Ġdakilang": 5212,
      "Ġbox": 5213,
      "Ġapar": 5214,
      "Ġhumantong": 5215,
      "Ġilog": 5216,
      "ĠMed": 5217,
      "ipan": 5218,
      "yano": 5219,
      "ĠKuko": 5220,
      "Ġ2014": 5221,
      "irinig": 5222,
      "Ġnow": 5223,
      "âĢ¦.": 5224,
      "fo": 5225,
      "awalang": 5226,
      "ĠMuslim": 5227,
      "abe": 5228,
      "utr": 5229,
      "Ġmatemat": 5230,
      "Ġpaglalakbay": 5231,
      "nakaw": 5232,
      "acter": 5233,
      "indigan": 5234,
      "Ġdireksyon": 5235,
      "Ġhumih": 5236,
      "amas": 5237,
      "ĠLang": 5238,
      "umano": 5239,
      "Ġpercent": 5240,
      "Ġsunod": 5241,
      "Ġkrus": 5242,
      "sunod": 5243,
      "akatuwid": 5244,
      "Ġpalatandaan": 5245,
      "Ġpamil": 5246,
      "Um": 5247,
      "Ġclass": 5248,
      "abal": 5249,
      "hern": 5250,
      "Ġscreen": 5251,
      "Ġilegal": 5252,
      "ray": 5253,
      "Ġpanatil": 5254,
      "stitusyon": 5255,
      "Ġet": 5256,
      "Ġgagamitin": 5257,
      "Ġ2012": 5258,
      "Ġeksp": 5259,
      "Ġipinah": 5260,
      "Ġlive": 5261,
      "Ġgayundin": 5262,
      "Ġibibigay": 5263,
      "Ġconf": 5264,
      "Ġhuman": 5265,
      "back": 5266,
      "reh": 5267,
      "Ġval": 5268,
      "ĠCustoms": 5269,
      "ĠHabang": 5270,
      "ban": 5271,
      "ape": 5272,
      "abo": 5273,
      "urn": 5274,
      "inh": 5275,
      "Ġgabay": 5276,
      "Ġkatanungan": 5277,
      "asahan": 5278,
      "ĠMr": 5279,
      "andaang": 5280,
      "ĠCouncil": 5281,
      "Ġkabuuan": 5282,
      "osp": 5283,
      "Ġkuwarto": 5284,
      "ĠSotto": 5285,
      "Ġsilid": 5286,
      "Magagamit": 5287,
      "Ġpagbabayad": 5288,
      "Ġhandog": 5289,
      "ĠMult": 5290,
      "Ġdela": 5291,
      "angkapan": 5292,
      "Ġugat": 5293,
      "Ġboard": 5294,
      "Ġpader": 5295,
      "Ġsiyempre": 5296,
      "Mak": 5297,
      "AB": 5298,
      "Ġwater": 5299,
      "inda": 5300,
      "Share": 5301,
      "ource": 5302,
      "error": 5303,
      "too": 5304,
      "Ġunti": 5305,
      "Ġband": 5306,
      "Ġmailapat": 5307,
      "AK": 5308,
      "may": 5309,
      "ĠEng": 5310,
      "Ġesk": 5311,
      "arangan": 5312,
      "ĠReyes": 5313,
      "ukha": 5314,
      "Ġpagpapag": 5315,
      "Ġkampo": 5316,
      "ĠMarami": 5317,
      "Ġneed": 5318,
      "iron": 5319,
      "Ġmakaraang": 5320,
      "redit": 5321,
      "Ġpumili": 5322,
      "Ġepektibo": 5323,
      "Ġmaling": 5324,
      "inggit": 5325,
      "ĠHalimbawa": 5326,
      "Ġput": 5327,
      "Ġnakipag": 5328,
      "ilbing": 5329,
      "Ġpagbabalik": 5330,
      "EL": 5331,
      "Ġlike": 5332,
      "Ch": 5333,
      "ĠKorea": 5334,
      "Ġother": 5335,
      "Ġuminom": 5336,
      "Ġrating": 5337,
      "abl": 5338,
      "ĠAnti": 5339,
      "ĠGlor": 5340,
      "Ġist": 5341,
      "ti": 5342,
      "lobal": 5343,
      "Ġdamo": 5344,
      "Ġigo": 5345,
      "Ġbulating": 5346,
      "He": 5347,
      "ĠBatangas": 5348,
      "Ulat": 5349,
      "wento": 5350,
      "Ġbeen": 5351,
      "ampoo": 5352,
      "IV": 5353,
      "ĠJe": 5354,
      "Ġsay": 5355,
      "Ġtrap": 5356,
      "ĠBukod": 5357,
      "ikilala": 5358,
      "ĠBill": 5359,
      "less": 5360,
      "ric": 5361,
      "Ġpagkat": 5362,
      "Ġexc": 5363,
      "ĠAuthority": 5364,
      "Ġcommunity": 5365,
      "Ġmagkag": 5366,
      "Ġkahirapan": 5367,
      "ym": 5368,
      "Ġknow": 5369,
      "Ġsupport": 5370,
      "Ġkaganapan": 5371,
      "Ġmabigyan": 5372,
      "Ġpagkilos": 5373,
      "ĠTakdang": 5374,
      "Ġkunin": 5375,
      "Ġdon": 5376,
      "Ġsandali": 5377,
      "ĠWeb": 5378,
      "alagaan": 5379,
      "Ġnarito": 5380,
      "uklasan": 5381,
      "Ġorganisasyon": 5382,
      "Ġgumagana": 5383,
      "Ġtig": 5384,
      "Ġwhat": 5385,
      "Ġlove": 5386,
      "udulot": 5387,
      "igong": 5388,
      "ux": 5389,
      "Ġilaw": 5390,
      "ĠEurope": 5391,
      "Ġartista": 5392,
      "Ġtemperatura": 5393,
      "Ġkumpl": 5394,
      "inisin": 5395,
      "Ġkalalakihan": 5396,
      "Ġperson": 5397,
      "Ġworkers": 5398,
      "ĠSpeaker": 5399,
      "Ġarm": 5400,
      "PNP": 5401,
      "Ġengine": 5402,
      "Ġaktres": 5403,
      "read": 5404,
      "Ġext": 5405,
      "adali": 5406,
      "uation": 5407,
      "ahad": 5408,
      "Ġjeep": 5409,
      "ĠStar": 5410,
      "Ġmatanda": 5411,
      "Ġtour": 5412,
      "Ġfriend": 5413,
      "Ġmaaga": 5414,
      "alingsing": 5415,
      "Ġpulit": 5416,
      "Ġbuntis": 5417,
      "Ġpagtuturo": 5418,
      "ĠSchool": 5419,
      "robers": 5420,
      "35": 5421,
      "Ġkasamahan": 5422,
      "ĠPort": 5423,
      "Ġsto": 5424,
      "Ġalisan": 5425,
      "Ġmisis": 5426,
      "Ġpuwede": 5427,
      "Tum": 5428,
      "ĠBin": 5429,
      "ĠAttribution": 5430,
      "Ġsun": 5431,
      "Ġ31": 5432,
      "Ay": 5433,
      "Ġiniisip": 5434,
      "virus": 5435,
      "ĠLisensyang": 5436,
      "Lum": 5437,
      "Alike": 5438,
      "Ġcourt": 5439,
      "omenda": 5440,
      "Ġkama": 5441,
      "Ġbisita": 5442,
      "iyal": 5443,
      "ĠMagandang": 5444,
      "ici": 5445,
      "Ġtunog": 5446,
      "ĠOn": 5447,
      "Ġnakilala": 5448,
      "Ġsinuman": 5449,
      "Ġmamatay": 5450,
      "Ġweek": 5451,
      "Ġaccess": 5452,
      "Ġinal": 5453,
      "ĠBuhay": 5454,
      "Ġpagpapatupad": 5455,
      "Nabatid": 5456,
      "Bag": 5457,
      "amdamin": 5458,
      "jo": 5459,
      "Ġnakakapag": 5460,
      "Ġero": 5461,
      "Ġnilikha": 5462,
      "Ġebid": 5463,
      "kung": 5464,
      "Ġsektor": 5465,
      "aron": 5466,
      "tar": 5467,
      "ĠIslam": 5468,
      "Ġkl": 5469,
      "ĠSuprema": 5470,
      "ĠEsc": 5471,
      "ugang": 5472,
      "Ġginto": 5473,
      "ĠSC": 5474,
      "Ġbagyong": 5475,
      "Ġmahahalagang": 5476,
      "Ġtiti": 5477,
      "Ġcash": 5478,
      "Ġlumitaw": 5479,
      "Ġsayo": 5480,
      "ugma": 5481,
      "ĠGarcia": 5482,
      "ĠAbu": 5483,
      "Ġmabuhay": 5484,
      "Unang": 5485,
      ".[": 5486,
      "EC": 5487,
      "ï¿½ï¿½": 5488,
      "Ġimpek": 5489,
      "Ġtangg": 5490,
      "gamit": 5491,
      "ĠASE": 5492,
      "rant": 5493,
      "ĠNasa": 5494,
      "Ġaktor": 5495,
      "Ġibalik": 5496,
      "Ġmakakapag": 5497,
      "angyaring": 5498,
      "tomat": 5499,
      "Ġbasahin": 5500,
      "Ġtinit": 5501,
      "abayad": 5502,
      "ĠGawain": 5503,
      "zan": 5504,
      "Ġkompanya": 5505,
      "Ġmisyon": 5506,
      "ĠASEAN": 5507,
      "Ġoffice": 5508,
      "anging": 5509,
      "Ġparasite": 5510,
      "Ġsem": 5511,
      "ĠAre": 5512,
      "Ġimpe": 5513,
      "venue": 5514,
      "ĠStation": 5515,
      "ĠSino": 5516,
      "oda": 5517,
      "come": 5518,
      "Ġspecial": 5519,
      "RA": 5520,
      "uwel": 5521,
      "uris": 5522,
      "ĠForeign": 5523,
      "Ġinis": 5524,
      "Ġusapin": 5525,
      "Ġbarko": 5526,
      "Ġsundin": 5527,
      "sis": 5528,
      "Ġnatat": 5529,
      "ĠManagement": 5530,
      "ĠNeg": 5531,
      "Ġnagkakahalaga": 5532,
      "Ġcirc": 5533,
      "Ġmatukoy": 5534,
      "Ġpagna": 5535,
      "Ġkontrobers": 5536,
      "Ġshort": 5537,
      "Ġmess": 5538,
      "ĠRussian": 5539,
      "ĠTransport": 5540,
      "pagk": 5541,
      "Ġtatanggap": 5542,
      "Ġdef": 5543,
      "Ġmakamit": 5544,
      "sam": 5545,
      "umpa": 5546,
      "met": 5547,
      "Ed": 5548,
      "tag": 5549,
      "Ġpagkatao": 5550,
      "ĠForce": 5551,
      "Ġpinagm": 5552,
      "Ġsimulan": 5553,
      "Ġnatanggap": 5554,
      "Ġkamag": 5555,
      "Ġjo": 5556,
      "angkop": 5557,
      "Ġkatapusan": 5558,
      "rew": 5559,
      "lease": 5560,
      "ĠKatol": 5561,
      "ipunan": 5562,
      "ĠBum": 5563,
      "Ġkapal": 5564,
      "ĠMen": 5565,
      "ysay": 5566,
      "!\"": 5567,
      "Ġsports": 5568,
      "Ġequ": 5569,
      "uento": 5570,
      "Ġpiliin": 5571,
      "âĢĿ.": 5572,
      "Ġkilometro": 5573,
      "pi": 5574,
      "dez": 5575,
      "ĠParang": 5576,
      "ired": 5577,
      "alok": 5578,
      "Ġcond": 5579,
      "olina": 5580,
      "ĠGab": 5581,
      "ahilig": 5582,
      "Ġbody": 5583,
      "ampion": 5584,
      "Ġsubukan": 5585,
      "Ġdiumano": 5586,
      "Ġpapunta": 5587,
      "Ġbasura": 5588,
      "Ġakala": 5589,
      "Ġtraff": 5590,
      "ĠBon": 5591,
      "Ġ2011": 5592,
      "Ġisk": 5593,
      "ĠChar": 5594,
      "icle": 5595,
      "astos": 5596,
      "Ġmagsagawa": 5597,
      "ĠBay": 5598,
      "Ġnapat": 5599,
      "ilib": 5600,
      "verseas": 5601,
      "Hin": 5602,
      "ease": 5603,
      "Ġste": 5604,
      "ahalaang": 5605,
      "Ġulan": 5606,
      "ĠSU": 5607,
      "PC": 5608,
      "Nat": 5609,
      "Ġnatatanging": 5610,
      "Ġpagdiriwang": 5611,
      "Ġdirektang": 5612,
      "ĠBoard": 5613,
      "Ġpu": 5614,
      "Ġpangako": 5615,
      "be": 5616,
      "ĠCamp": 5617,
      "Ġisla": 5618,
      "ikat": 5619,
      "icone": 5620,
      "Ġisas": 5621,
      "Ġalso": 5622,
      "Ġnagpapah": 5623,
      "ging": 5624,
      "Ġnagmula": 5625,
      "ĠLaguna": 5626,
      "Ġcall": 5627,
      "Ġnatapos": 5628,
      "posisyon": 5629,
      "Ġmetro": 5630,
      "Ġpresidential": 5631,
      "ĠProgram": 5632,
      "onavirus": 5633,
      "Ġbreak": 5634,
      "ĠMoises": 5635,
      "ĠSinas": 5636,
      "Ġpangkalahatang": 5637,
      "ĠGloria": 5638,
      "ĠMM": 5639,
      "Ġbatayan": 5640,
      "uts": 5641,
      "alakasin": 5642,
      "Ġgayong": 5643,
      "Ġmet": 5644,
      "alaban": 5645,
      "arilyo": 5646,
      "Ġkomento": 5647,
      "ĠPagb": 5648,
      "awit": 5649,
      "inister": 5650,
      "Ġganda": 5651,
      "Ġbet": 5652,
      "imentel": 5653,
      "Ġwant": 5654,
      "ikano": 5655,
      "ĠRussia": 5656,
      "Ġmahanap": 5657,
      "Ġcontrol": 5658,
      "obo": 5659,
      "Nil": 5660,
      "Ġtagagawa": 5661,
      "ĠBut": 5662,
      "Ġkasangkapan": 5663,
      "Ġfungal": 5664,
      "ĠFar": 5665,
      "adal": 5666,
      "Ġamag": 5667,
      "Ġmalag": 5668,
      "Ġdumaan": 5669,
      "ship": 5670,
      "Ġpula": 5671,
      "uit": 5672,
      "okesperson": 5673,
      "ĠPagl": 5674,
      "iligtas": 5675,
      "Ġpaki": 5676,
      "ilitaw": 5677,
      "ĠMig": 5678,
      "Ġehersisyo": 5679,
      "Ġsuriin": 5680,
      "Ġkagand": 5681,
      "Ġmagm": 5682,
      "Ġkani": 5683,
      "arinig": 5684,
      "agaling": 5685,
      "ĠJoseph": 5686,
      "ĠPimentel": 5687,
      "onald": 5688,
      "Ġiglesia": 5689,
      "atory": 5690,
      "ĠTom": 5691,
      "irerek": 5692,
      "dow": 5693,
      "ĠCap": 5694,
      "ĠDay": 5695,
      "Ġpagpili": 5696,
      "Ġuli": 5697,
      "Ġpinakamataas": 5698,
      "Ġgame": 5699,
      "Ġfree": 5700,
      "Ġacc": 5701,
      "Ġub": 5702,
      "irt": 5703,
      "daang": 5704,
      "ument": 5705,
      "awakan": 5706,
      "ĠGan": 5707,
      "ĠDec": 5708,
      "ĠPinak": 5709,
      "Ġmagkas": 5710,
      "Ġpinakabagong": 5711,
      "ĠLand": 5712,
      "dapat": 5713,
      "Ġlet": 5714,
      "olution": 5715,
      "ĠSay": 5716,
      "giniit": 5717,
      "aktura": 5718,
      "ampaign": 5719,
      "Ġamb": 5720,
      "Batay": 5721,
      "Ġsampi": 5722,
      "aramihan": 5723,
      "Ġngang": 5724,
      "osyon": 5725,
      "ĠKasi": 5726,
      "Ġpangalawang": 5727,
      "eron": 5728,
      "Ġsupply": 5729,
      "Ġkaragdagan": 5730,
      "Ġpopulasyon": 5731,
      "sama": 5732,
      "Ġporsyento": 5733,
      "ved": 5734,
      "ĠSocial": 5735,
      "verage": 5736,
      "ift": 5737,
      "ĠMRT": 5738,
      "hasa": 5739,
      "ĠMang": 5740,
      "Ġmayor": 5741,
      "Ġpagtatapos": 5742,
      "ector": 5743,
      "ized": 5744,
      "Ġcountry": 5745,
      "Ġkalayaan": 5746,
      "ĠInt": 5747,
      "asiwa": 5748,
      "ukasan": 5749,
      "Ġelder": 5750,
      "Ġibinibigay": 5751,
      "........": 5752,
      "Ġbiyahe": 5753,
      "Ġkasapi": 5754,
      "Ġmasasabi": 5755,
      "ĠVi": 5756,
      "Ġnararapat": 5757,
      "ektibong": 5758,
      "Ġalinsunod": 5759,
      "ĠPasay": 5760,
      "ves": 5761,
      "Ġbest": 5762,
      "Ġkahalagahan": 5763,
      "bp": 5764,
      "bal": 5765,
      "ĠRich": 5766,
      "Ġgirl": 5767,
      "ĠIsland": 5768,
      "Ġespirit": 5769,
      "Ġpund": 5770,
      "Ġdiyos": 5771,
      "Ġakus": 5772,
      "ĠLabor": 5773,
      "Ph": 5774,
      "ĠDOH": 5775,
      "ĠBro": 5776,
      "ĠTunay": 5777,
      "Ġpasalingsing": 5778,
      "Ġdumi": 5779,
      "ury": 5780,
      "Ġshop": 5781,
      "170": 5782,
      "Ġbinata": 5783,
      "Ġmapat": 5784,
      "ĠState": 5785,
      "Ġsumali": 5786,
      "isayas": 5787,
      "ĠKris": 5788,
      "Ġngipin": 5789,
      "Ġipinagb": 5790,
      "Ġkawani": 5791,
      "Ġpagsunod": 5792,
      "itiw": 5793,
      "dote": 5794,
      "Ġfood": 5795,
      "karoon": 5796,
      "Ġmodelo": 5797,
      "Ġmedical": 5798,
      "Ġpopular": 5799,
      "Ġsigurado": 5800,
      "Ġila": 5801,
      "akalat": 5802,
      "Di": 5803,
      "Ġkill": 5804,
      "Ġimpeachment": 5805,
      "Ġmatatanda": 5806,
      "alos": 5807,
      "abaan": 5808,
      "ðŁ": 5809,
      "adem": 5810,
      "yt": 5811,
      "inkles": 5812,
      "ĠSalv": 5813,
      "Ġgrupong": 5814,
      "imili": 5815,
      "Ġdayuhan": 5816,
      "ĠPagpap": 5817,
      "Ġtatay": 5818,
      "Ġpinab": 5819,
      "umpis": 5820,
      "inc": 5821,
      "844": 5822,
      "Ġinilagay": 5823,
      "Ġhom": 5824,
      "onomic": 5825,
      "uong": 5826,
      "Ġfilipino": 5827,
      "Ġsama": 5828,
      "inals": 5829,
      "ession": 5830,
      "Ġopinyon": 5831,
      "ĠAlex": 5832,
      "Ġpulong": 5833,
      "Ġnaninirahan": 5834,
      "Ġ2020": 5835,
      "Ġnananal": 5836,
      "Ġpapasok": 5837,
      "Ġpack": 5838,
      "Ġumaasa": 5839,
      "Ġwhich": 5840,
      "noy": 5841,
      "itness": 5842,
      "Ġstag": 5843,
      "Ġtik": 5844,
      "Ġdrugs": 5845,
      "Ġmabigat": 5846,
      "iber": 5847,
      "ually": 5848,
      "Ġmalusog": 5849,
      "ĠCarl": 5850,
      "ĠGR": 5851,
      "olekta": 5852,
      "Ġcit": 5853,
      "ĠCongress": 5854,
      "ĠEducation": 5855,
      "Ġdamdamin": 5856,
      "onz": 5857,
      "Ġatbp": 5858,
      "Ġlam": 5859,
      "Ġisipin": 5860,
      "Ġpaglilinis": 5861,
      "Ġeroplano": 5862,
      "Ġkasunduan": 5863,
      "Ġtugon": 5864,
      "ender": 5865,
      "Ġline": 5866,
      "Gina": 5867,
      "ĠMos": 5868,
      "ids": 5869,
      "ĠHospital": 5870,
      "apatan": 5871,
      "igi": 5872,
      "Ġfoot": 5873,
      "araniwang": 5874,
      "Ġmom": 5875,
      "Ġtumakbo": 5876,
      "Ġtabletas": 5877,
      "Ni": 5878,
      "Nasa": 5879,
      "Ġayusin": 5880,
      "oke": 5881,
      "Ġibahagi": 5882,
      "Ġpinatay": 5883,
      "ĠKaharian": 5884,
      "Ġsugatan": 5885,
      "Ġmasus": 5886,
      "Ġassist": 5887,
      "papat": 5888,
      "apital": 5889,
      "ju": 5890,
      "kukunan": 5891,
      "ience": 5892,
      "Ġpahayagan": 5893,
      "Ġpari": 5894,
      "Ġsk": 5895,
      "ĠSM": 5896,
      "ĠII": 5897,
      "Ġmangang": 5898,
      "bin": 5899,
      "Ġtamb": 5900,
      "Ġstaff": 5901,
      "Ġyaong": 5902,
      "ĠâĢĶ": 5903,
      "Ġcity": 5904,
      "joy": 5905,
      "Ġbakal": 5906,
      "ification": 5907,
      "orma": 5908,
      "rid": 5909,
      "Ġparte": 5910,
      "820": 5911,
      "Ġnand": 5912,
      "Ġwere": 5913,
      "areh": 5914,
      "ĠUk": 5915,
      "Ġonly": 5916,
      "Ġsiyam": 5917,
      "Ġtumanggap": 5918,
      "Ġmusika": 5919,
      "ĠÐ": 5920,
      "ulto": 5921,
      "Ġstate": 5922,
      "Ġnaunang": 5923,
      "Ġpamunuan": 5924,
      "ements": 5925,
      "andaigdig": 5926,
      "press": 5927,
      "ĠSea": 5928,
      "Ġsuot": 5929,
      "Ġred": 5930,
      "Ġroom": 5931,
      "upunta": 5932,
      "ambing": 5933,
      "alanin": 5934,
      "Ġnegosyante": 5935,
      "yos": 5936,
      "ilbi": 5937,
      "ĠPagh": 5938,
      "impl": 5939,
      "Ġhepe": 5940,
      "OC": 5941,
      "leta": 5942,
      "Mar": 5943,
      "aEUR": 5944,
      "uct": 5945,
      "ini": 5946,
      "fore": 5947,
      "Dagdag": 5948,
      "Ġkapak": 5949,
      "ĠNi": 5950,
      "Ġold": 5951,
      "Ġaso": 5952,
      "abit": 5953,
      "ĠBong": 5954,
      "Ġ35": 5955,
      "order": 5956,
      "Ġcoronavirus": 5957,
      "ĠSuper": 5958,
      "Ġdevel": 5959,
      "Ġespiritu": 5960,
      "Ġlibong": 5961,
      "As": 5962,
      "izens": 5963,
      "Ġtablets": 5964,
      "ĠVisayas": 5965,
      "Ġkadalas": 5966,
      "ĠKag": 5967,
      "ected": 5968,
      "ateo": 5969,
      "Ġsakop": 5970,
      "Ġfore": 5971,
      "Ġnalalaman": 5972,
      "ĠBang": 5973,
      "Ġaral": 5974,
      "alitan": 5975,
      "Ġhaba": 5976,
      "ading": 5977,
      "pon": 5978,
      "igyan": 5979,
      "Ġkadahil": 5980,
      "Ġpabalik": 5981,
      "Ġpinto": 5982,
      "ĠPampanga": 5983,
      "ĠPak": 5984,
      "tress": 5985,
      "Noy": 5986,
      "ĠSana": 5987,
      "Ġnakaraan": 5988,
      "rame": 5989,
      "ĠBac": 5990,
      "Ġpinagmulan": 5991,
      "Ġdila": 5992,
      "Ġpropeta": 5993,
      "ET": 5994,
      "7170": 5995,
      "Ġpamantayan": 5996,
      "Ġbanta": 5997,
      "ilding": 5998,
      "Inih": 5999,
      "ĠFRJ": 6000,
      "Ġahensya": 6001,
      "Ġpagbisita": 6002,
      "Ġpalakihin": 6003,
      "Ġinternational": 6004,
      "Ġkakayahang": 6005,
      "uusap": 6006,
      "ĠGayunpaman": 6007,
      "Ġnangg": 6008,
      "Ġlarangan": 6009,
      "ĠCag": 6010,
      "Ġmake": 6011,
      "Ġitem": 6012,
      "Ġkahil": 6013,
      "ĠJames": 6014,
      "ĠWh": 6015,
      "Ġpagpapa": 6016,
      "Ġitinatag": 6017,
      "Ġmatulungan": 6018,
      "ĠFil": 6019,
      "Ġlevel": 6020,
      "Ġdepende": 6021,
      "Ġkonsep": 6022,
      "mi": 6023,
      "Ġcampaign": 6024,
      "Ġlinisin": 6025,
      "ĠEv": 6026,
      "Ġcellphone": 6027,
      "Ġquarantine": 6028,
      "ĠLas": 6029,
      "Ġpangkat": 6030,
      "ĠOh": 6031,
      "Ġaparato": 6032,
      "Ġtruck": 6033,
      "eting": 6034,
      "umpleto": 6035,
      "Ġbangko": 6036,
      "abihan": 6037,
      "Ġkurso": 6038,
      "antad": 6039,
      "wala": 6040,
      "Ġlong": 6041,
      "ILG": 6042,
      "Ġwrinkles": 6043,
      "Ġmabawasan": 6044,
      "alayong": 6045,
      "loy": 6046,
      "gawang": 6047,
      "Tr": 6048,
      "Ġdiin": 6049,
      "ĠHigit": 6050,
      "ĠED": 6051,
      "Ġsecond": 6052,
      "Ġmapanganib": 6053,
      "Ġala": 6054,
      "Ġtwo": 6055,
      "ubad": 6056,
      "Ġmarinig": 6057,
      "Ġtinapay": 6058,
      "Maraming": 6059,
      "Ġsaser": 6060,
      "Ġpananak": 6061,
      "Ġatay": 6062,
      "Ġkumb": 6063,
      "off": 6064,
      "istis": 6065,
      "ginip": 6066,
      "Ġpaglikha": 6067,
      "ĠInvestigation": 6068,
      "ĠBaut": 6069,
      "Ġpalagay": 6070,
      "illo": 6071,
      "Ġwa": 6072,
      "Ġpage": 6073,
      "anc": 6074,
      "Ġtuluyang": 6075,
      "Ġnaisip": 6076,
      "Ġkriminal": 6077,
      "akasama": 6078,
      "uwiran": 6079,
      "ĠTulad": 6080,
      "ocan": 6081,
      "ampas": 6082,
      "TF": 6083,
      "ayaw": 6084,
      "igla": 6085,
      "uble": 6086,
      "ĠUnion": 6087,
      "Gusto": 6088,
      "ĠCr": 6089,
      "Ġpanatilihin": 6090,
      "Ġhanggan": 6091,
      "hatian": 6092,
      "diin": 6093,
      "Ġofficer": 6094,
      "ĠGovernment": 6095,
      "Ġsens": 6096,
      "Ġpangangalaga": 6097,
      "100": 6098,
      "ima": 6099,
      "umbas": 6100,
      "Ġtechn": 6101,
      "coin": 6102,
      "Ġpagtatayo": 6103,
      "itis": 6104,
      "Ġtrip": 6105,
      "aramdam": 6106,
      "Ġpict": 6107,
      "Ġdeal": 6108,
      "Ġbel": 6109,
      "Ġ..": 6110,
      "pot": 6111,
      "Ġlahi": 6112,
      "ĠWest": 6113,
      "ĠMana": 6114,
      "gasyon": 6115,
      "iona": 6116,
      "Com": 6117,
      "Ġinv": 6118,
      "ĠCream": 6119,
      "Ġdigma": 6120,
      "Ġmister": 6121,
      "Ġlife": 6122,
      "Ġpalakasin": 6123,
      "ibak": 6124,
      "put": 6125,
      "isenyo": 6126,
      "ler": 6127,
      "ungong": 6128,
      "tomatikong": 6129,
      "ĠPeople": 6130,
      "ĠImp": 6131,
      "ĠNBI": 6132,
      "Ġpagganap": 6133,
      "Ġtumaas": 6134,
      "isda": 6135,
      "ahing": 6136,
      "ateg": 6137,
      "Ġmagpakailan": 6138,
      "Ġcamera": 6139,
      "Gayunman": 6140,
      "Ġmanipis": 6141,
      "ĠHong": 6142,
      "ages": 6143,
      "Ġabot": 6144,
      "Ġ2009": 6145,
      "Ġpagkahulog": 6146,
      "mar": 6147,
      "Bago": 6148,
      "roseso": 6149,
      "Ġrun": 6150,
      "ĠAvenue": 6151,
      "ĠSpokesman": 6152,
      "Ġlog": 6153,
      "uff": 6154,
      "ĠEuropa": 6155,
      "esisyon": 6156,
      "Ġpanib": 6157,
      "Ġhukbo": 6158,
      "ĠOng": 6159,
      "leng": 6160,
      "eni": 6161,
      "Ġlubhang": 6162,
      "cow": 6163,
      "Ġplat": 6164,
      "forc": 6165,
      "oly": 6166,
      "simula": 6167,
      "ĠHapon": 6168,
      "ulatan": 6169,
      "ando": 6170,
      "Ġlumalabas": 6171,
      "Ġstud": 6172,
      "Ġside": 6173,
      "ĠSaudi": 6174,
      "Ġpagkakataong": 6175,
      "Ġfamily": 6176,
      "Ġchan": 6177,
      "ĠPhil": 6178,
      "Ġsuper": 6179,
      "umpati": 6180,
      "Ġsaserdote": 6181,
      "Ġmanatili": 6182,
      "Ġmatugunan": 6183,
      "Ġganyan": 6184,
      "imbestigahan": 6185,
      "Ġtiwala": 6186,
      "Ġpaningin": 6187,
      "fr": 6188,
      "Ġwarrant": 6189,
      "Ġhiwalay": 6190,
      "ĠWork": 6191,
      "ĠMedical": 6192,
      "Ġsad": 6193,
      "ĠPinas": 6194,
      "Ġtattoo": 6195,
      "ĠMultil": 6196,
      "ĠEg": 6197,
      "Ġphoto": 6198,
      "ĠRepublic": 6199,
      "Ġbaboy": 6200,
      "ĠSc": 6201,
      "alab": 6202,
      "isitahin": 6203,
      "ĠMultilotto": 6204,
      "Ġnob": 6205,
      "alooban": 6206,
      "Ġpeace": 6207,
      "ĠAlv": 6208,
      "80": 6209,
      "Ġrem": 6210,
      "Ġbinuo": 6211,
      "unita": 6212,
      "aloocan": 6213,
      "ilyong": 6214,
      "Ġphone": 6215,
      "ĠKapanahunan": 6216,
      "Ġlingkod": 6217,
      "Ġginanap": 6218,
      "Ġbagaman": 6219,
      "Ġkaunti": 6220,
      "Ġpisikal": 6221,
      "36": 6222,
      "ubhang": 6223,
      "Ġnaghihintay": 6224,
      "Ġvide": 6225,
      "Ġpuwersa": 6226,
      "Ġmahulog": 6227,
      "ane": 6228,
      "Ġnegat": 6229,
      "usot": 6230,
      "SW": 6231,
      "uhod": 6232,
      "lood": 6233,
      "ĠPatak": 6234,
      "ĠMatapos": 6235,
      "dian": 6236,
      "ĠOb": 6237,
      "Ġpagpunta": 6238,
      "Ġkinatawan": 6239,
      "Ġhar": 6240,
      "ĠIyong": 6241,
      "IG": 6242,
      "ĠMalays": 6243,
      "Ġol": 6244,
      "Ġtangk": 6245,
      "alia": 6246,
      "Ġget": 6247,
      "Ġmanager": 6248,
      "Ġlabor": 6249,
      "Ġpelikulang": 6250,
      "ĠPaggamot": 6251,
      "angkin": 6252,
      "ĠPasko": 6253,
      "bakan": 6254,
      "ways": 6255,
      "ĠJuda": 6256,
      "ĠNPA": 6257,
      "tt": 6258,
      "Ġpagbuo": 6259,
      "Ġsinis": 6260,
      "inado": 6261,
      "ĠLit": 6262,
      "pol": 6263,
      "ugg": 6264,
      "70": 6265,
      "Ġsinal": 6266,
      "ĠCommun": 6267,
      "Ġpagtitistis": 6268,
      "akap": 6269,
      "ications": 6270,
      "Ġparasitiko": 6271,
      "Ġinumin": 6272,
      "Ġpatayin": 6273,
      "ĠBab": 6274,
      "Ġproteksyon": 6275,
      "Ġstop": 6276,
      "Ġfunc": 6277,
      "ketball": 6278,
      "iol": 6279,
      "RB": 6280,
      "Ġpagkakak": 6281,
      "Ġrebel": 6282,
      "Oo": 6283,
      "ĠFlor": 6284,
      "32": 6285,
      "uhayan": 6286,
      "ĠDito": 6287,
      "weet": 6288,
      "Ġpork": 6289,
      "para": 6290,
      "bahayan": 6291,
      "toc": 6292,
      "yle": 6293,
      "angin": 6294,
      "uusapan": 6295,
      "ibot": 6296,
      "Ġoperations": 6297,
      "Ġmanalo": 6298,
      "Ġnanalo": 6299,
      "Ġpusa": 6300,
      "tribusyon": 6301,
      "Ġmustasa": 6302,
      "ĠManny": 6303,
      "ares": 6304,
      "urance": 6305,
      "ĠPum": 6306,
      "Ġleb": 6307,
      "Ġfinan": 6308,
      "ĠDum": 6309,
      "bigkas": 6310,
      "Ġunguento": 6311,
      "ĠSalamat": 6312,
      "Ġdumad": 6313,
      "Ġkaarawan": 6314,
      "ĠIndones": 6315,
      "alagyan": 6316,
      "Ġlokasyon": 6317,
      "ibilangan": 6318,
      "ĠIlang": 6319,
      "sy": 6320,
      "Ġpinagb": 6321,
      "Ġarrest": 6322,
      "Ġisinagawa": 6323,
      "Ġshowbiz": 6324,
      "IP": 6325,
      "ĠSubalit": 6326,
      "acio": 6327,
      "ĠMiguel": 6328,
      "ahirap": 6329,
      "TA": 6330,
      "Ġmagsalita": 6331,
      "Ġdest": 6332,
      "Ġamoy": 6333,
      "Ġmagpapat": 6334,
      "Ġagainst": 6335,
      "Ġ45": 6336,
      "ĠCan": 6337,
      "Ġtagas": 6338,
      "MP": 6339,
      "uhos": 6340,
      "ĠGer": 6341,
      "ĠArab": 6342,
      "ĠOFWs": 6343,
      "Ġbasi": 6344,
      "Ġnilalang": 6345,
      "ĠForces": 6346,
      "Ġfire": 6347,
      "Ġsamahan": 6348,
      "31": 6349,
      "ops": 6350,
      "34": 6351,
      "usulong": 6352,
      "alhin": 6353,
      "ĠHin": 6354,
      "Ġmid": 6355,
      "Ġtinutukoy": 6356,
      "tle": 6357,
      "ij": 6358,
      "Ġkahilingan": 6359,
      "Ġsim": 6360,
      "Ġtod": 6361,
      "Ġitinak": 6362,
      "Ġinspir": 6363,
      "ilikha": 6364,
      "Ġmaintindihan": 6365,
      "Iginiit": 6366,
      "Ġnaram": 6367,
      "etong": 6368,
      "Ġbon": 6369,
      "Ġsobra": 6370,
      "Ġplayer": 6371,
      "ĠKay": 6372,
      "book": 6373,
      "ĠBer": 6374,
      "Ġmasarap": 6375,
      "entro": 6376,
      "Ġprogramang": 6377,
      "Ġhugis": 6378,
      "Ġtema": 6379,
      "agram": 6380,
      "Ġmanun": 6381,
      "ĠSangk": 6382,
      "Ġkanina": 6383,
      "taong": 6384,
      "Ġbook": 6385,
      "Ġmagkagayo": 6386,
      "udad": 6387,
      "Ġmagpat": 6388,
      "ASA": 6389,
      "ebisyon": 6390,
      "Ġpilipino": 6391,
      "urch": 6392,
      "alimutan": 6393,
      "epektibong": 6394,
      "Ġmagagandang": 6395,
      "amilya": 6396,
      "ĠJes": 6397,
      "Ġnararating": 6398,
      "abilit": 6399,
      "Ġlola": 6400,
      "Ġtoe": 6401,
      "Ġbutas": 6402,
      "ĠFa": 6403,
      "ĠBautista": 6404,
      "awat": 6405,
      "Ġpinans": 6406,
      "Ġpes": 6407,
      "Ġkilos": 6408,
      "uwalhatian": 6409,
      "erya": 6410,
      "Ġfight": 6411,
      "Kasama": 6412,
      "Ġmagsimula": 6413,
      "ĠCasino": 6414,
      "ĠAssociation": 6415,
      "Ġnakad": 6416,
      "ĠUnang": 6417,
      "Ġtumingin": 6418,
      "Ġpros": 6419,
      "Ġaplikasyon": 6420,
      "uyong": 6421,
      "ĠPark": 6422,
      "ĠNueva": 6423,
      "Ġnakasulat": 6424,
      "Ġty": 6425,
      "icol": 6426,
      "Ġmall": 6427,
      "Ġthink": 6428,
      "Ġpiraso": 6429,
      "awaran": 6430,
      "ĠNar": 6431,
      "DI": 6432,
      "Ġpip": 6433,
      "ĠCentral": 6434,
      "erong": 6435,
      "Ġthen": 6436,
      "ĠAndroid": 6437,
      "utupad": 6438,
      "Ġsenior": 6439,
      "Ġ80": 6440,
      "ĠKasama": 6441,
      "anti": 6442,
      "Ġpharm": 6443,
      "ette": 6444,
      "ĠProduk": 6445,
      "Ġumuwi": 6446,
      "ONG": 6447,
      "Ġisipan": 6448,
      "ĠInternet": 6449,
      "ĠSalvador": 6450,
      "Ġkolehiyo": 6451,
      "Ġaff": 6452,
      "Ġnawalan": 6453,
      "zer": 6454,
      "Ġitinal": 6455,
      "kanilang": 6456,
      "ova": 6457,
      "ĠPagbigkas": 6458,
      "Ġpresyon": 6459,
      "eralco": 6460,
      "Ġpagtut": 6461,
      "kalawang": 6462,
      "ally": 6463,
      "ĠTol": 6464,
      "oco": 6465,
      "dro": 6466,
      "Ġprinsip": 6467,
      "Ġkarne": 6468,
      "otohan": 6469,
      "ederal": 6470,
      "iew": 6471,
      "ame": 6472,
      "ills": 6473,
      "Ġunibersidad": 6474,
      "ĠTan": 6475,
      "Ġyata": 6476,
      "ĠWin": 6477,
      "ĠJeh": 6478,
      "Ġcert": 6479,
      "Ġpinah": 6480,
      "ternat": 6481,
      "Ġactiv": 6482,
      "Ġmoney": 6483,
      "luran": 6484,
      "Ġlumapit": 6485,
      "ailalim": 6486,
      "gar": 6487,
      "ison": 6488,
      "ĠSandigan": 6489,
      "yaf": 6490,
      "Nauna": 6491,
      "den": 6492,
      "ipad": 6493,
      "38": 6494,
      "ĠGal": 6495,
      "Ġdist": 6496,
      "Sum": 6497,
      "ĠKin": 6498,
      "Idinagdag": 6499,
      "set": 6500,
      "Ġgulay": 6501,
      "Ġmagtrabaho": 6502,
      "Ġmainam": 6503,
      "Ġfans": 6504,
      "Ġtanda": 6505,
      "Ġmatematika": 6506,
      "ĠMoscow": 6507,
      "Ġfeed": 6508,
      "Ġmagtat": 6509,
      "Ġkasiyahan": 6510,
      "Ġgani": 6511,
      "iseo": 6512,
      "alagad": 6513,
      "ĠCorpor": 6514,
      "andal": 6515,
      "Ġkarapatang": 6516,
      "Ġkaraming": 6517,
      "Ġkumita": 6518,
      "Ġapektado": 6519,
      "Naniniwala": 6520,
      "embers": 6521,
      "Ġumaabot": 6522,
      "Ġofficials": 6523,
      "Ġpanibagong": 6524,
      "CA": 6525,
      "ĠSayyaf": 6526,
      "ĠDivision": 6527,
      "Ġbulak": 6528,
      "erby": 6529,
      "Ġhome": 6530,
      "andog": 6531,
      "Ġregalo": 6532,
      "itoryo": 6533,
      "Ġsugat": 6534,
      "ripisyo": 6535,
      "Kinilala": 6536,
      "aaralan": 6537,
      "Ġhinihinalang": 6538,
      "ending": 6539,
      "ĠTapos": 6540,
      "alde": 6541,
      "Ġpinay": 6542,
      "Ġdaigdig": 6543,
      "Ġniyaon": 6544,
      "ĠCaloocan": 6545,
      "ĠWar": 6546,
      "Ġnagtatag": 6547,
      "orin": 6548,
      "udero": 6549,
      "Ġpintuan": 6550,
      "Ġkalakal": 6551,
      "ĠDan": 6552,
      "Ġmilitary": 6553,
      "Ġmodernong": 6554,
      "uhit": 6555,
      "Ġpatungong": 6556,
      "asinan": 6557,
      "ĠTal": 6558,
      "ugat": 6559,
      "ipment": 6560,
      "Ġnakasaad": 6561,
      "ĠRoad": 6562,
      "word": 6563,
      "Ġkinabibilangan": 6564,
      "Ġsubong": 6565,
      "Ġtrapiko": 6566,
      "other": 6567,
      "Ġmakabagong": 6568,
      "Ġpolitical": 6569,
      "icip": 6570,
      "Ġbabalik": 6571,
      "Ġpiso": 6572,
      "Ġ2007": 6573,
      "Ġpuke": 6574,
      "Ġkonsepto": 6575,
      "Ġx": 6576,
      "ĠSm": 6577,
      "ilaan": 6578,
      "Ġtatak": 6579,
      "ĠOper": 6580,
      "Ġnagpat": 6581,
      "aging": 6582,
      "Ġigin": 6583,
      "Ġbawang": 6584,
      "Ġpanlabas": 6585,
      "Ġimo": 6586,
      "iving": 6587,
      "Ġpalang": 6588,
      "Ġdatos": 6589,
      "ĠBatas": 6590,
      "ĠIlocos": 6591,
      "Ġmakaka": 6592,
      "Ġhangganan": 6593,
      "ĠTur": 6594,
      "Ġworker": 6595,
      "Ġresolusyon": 6596,
      "Ġnasugatan": 6597,
      "tainment": 6598,
      "imo": 6599,
      "Ġpinakah": 6600,
      "ehan": 6601,
      "Ġbiyaya": 6602,
      "igang": 6603,
      "Ġdisposisyon": 6604,
      "Ġaksidente": 6605,
      "ellig": 6606,
      "uparan": 6607,
      "Ġnaramdaman": 6608,
      "Ġsmart": 6609,
      "ĠEbanghelyo": 6610,
      "ĠStreet": 6611,
      "ĠSystem": 6612,
      "ww": 6613,
      "Ġ70": 6614,
      "Ġpinaniniwala": 6615,
      "Ġuser": 6616,
      "ĠWik": 6617,
      "Ġpagsasalin": 6618,
      "Ġalang": 6619,
      "Ġworld": 6620,
      "lano": 6621,
      "iyente": 6622,
      "Ġkabut": 6623,
      "ergy": 6624,
      "Ġtalam": 6625,
      "Ġhusto": 6626,
      "Ġpagpapakita": 6627,
      "AW": 6628,
      "Ġpagsisikap": 6629,
      "libong": 6630,
      "taur": 6631,
      "ĠMartin": 6632,
      "reng": 6633,
      "untahan": 6634,
      "Ġpaglaban": 6635,
      "ĠBuong": 6636,
      "Ġalagad": 6637,
      "ĠCagayan": 6638,
      "igration": 6639,
      "Ġipinahayag": 6640,
      "uluhang": 6641,
      "Ġimplants": 6642,
      "host": 6643,
      "olid": 6644,
      "ihoh": 6645,
      "ĠUP": 6646,
      "Ġinvest": 6647,
      "ĠDela": 6648,
      "Ġoint": 6649,
      "Ġnangag": 6650,
      "undong": 6651,
      "Ġnew": 6652,
      "oth": 6653,
      "ĠJim": 6654,
      "Ġhinahanap": 6655,
      "alaganap": 6656,
      "Ġteorya": 6657,
      "tory": 6658,
      "Ġscam": 6659,
      "Ġkasanayan": 6660,
      "Ġplatform": 6661,
      "Ġexam": 6662,
      "Ġbid": 6663,
      "Ġseason": 6664,
      "eman": 6665,
      "Ġtumutukoy": 6666,
      "Ġkatumbas": 6667,
      "omen": 6668,
      "ĠPasig": 6669,
      "agandang": 6670,
      "Ġpaglul": 6671,
      "Ġbibigyan": 6672,
      "dong": 6673,
      "imon": 6674,
      "Ġdiri": 6675,
      "eda": 6676,
      "Ġway": 6677,
      "sas": 6678,
      "Ġmovie": 6679,
      "uf": 6680,
      "Ġbalan": 6681,
      "Ġisama": 6682,
      "ĠSandiganbayan": 6683,
      "abahagi": 6684,
      "ĠWillie": 6685,
      "Ġkanang": 6686,
      "Ilang": 6687,
      "Ã©": 6688,
      "aong": 6689,
      "Ġeksak": 6690,
      "oundation": 6691,
      "Ġpanaginip": 6692,
      "ĠPagd": 6693,
      "ĠPre": 6694,
      "Ġprotina": 6695,
      "ĠExecutive": 6696,
      "Ġspe": 6697,
      "stitute": 6698,
      "Ġmagaling": 6699,
      "ograp": 6700,
      "ĠBoy": 6701,
      "ĠSecurity": 6702,
      "Ġcompany": 6703,
      "UN": 6704,
      "Ġtam": 6705,
      "Ġprem": 6706,
      "Ġhiling": 6707,
      "Ġwell": 6708,
      "ĠKim": 6709,
      "Ġbrow": 6710,
      "Ġtumatakbo": 6711,
      "Ġbirth": 6712,
      "onel": 6713,
      "Ġsenator": 6714,
      "aph": 6715,
      "ough": 6716,
      "astern": 6717,
      "ĠSte": 6718,
      "Ġstar": 6719,
      "Ġmart": 6720,
      "itude": 6721,
      "xt": 6722,
      "umbayan": 6723,
      "mite": 6724,
      "Ġhamon": 6725,
      "Ġpaghih": 6726,
      "bl": 6727,
      "alal": 6728,
      "resto": 6729,
      "ĠApr": 6730,
      "ĠSu": 6731,
      "Ġnaghah": 6732,
      "zar": 6733,
      "Ġwhen": 6734,
      "Ġsilicone": 6735,
      "hali": 6736,
      "Ġkalahati": 6737,
      "Ġmedikal": 6738,
      "Ġkatiw": 6739,
      "ĠDon": 6740,
      "ĠGonz": 6741,
      "ikas": 6742,
      "osit": 6743,
      "ergency": 6744,
      "ĠSpecial": 6745,
      "Ġnagbalik": 6746,
      "ĠNais": 6747,
      "Ġround": 6748,
      "ĠEnr": 6749,
      "Ġprocess": 6750,
      "hati": 6751,
      "Ġboses": 6752,
      "Ġadvert": 6753,
      "ĠPeters": 6754,
      "!!!!": 6755,
      "ĠLiza": 6756,
      "tegr": 6757,
      "vention": 6758,
      "isyonal": 6759,
      "Ġstation": 6760,
      "Ġisinagawang": 6761,
      "ĠCons": 6762,
      "mail": 6763,
      "alakal": 6764,
      "Ġcookies": 6765,
      "Base": 6766,
      "iwalaan": 6767,
      "ĠAlvarez": 6768,
      "Ġiniwan": 6769,
      "Ġcandid": 6770,
      "Ġipinakita": 6771,
      "ĠDOJ": 6772,
      "Ġmakina": 6773,
      "ensity": 6774,
      "uba": 6775,
      "viron": 6776,
      "iwalang": 6777,
      "Ġtumawag": 6778,
      "Ġbis": 6779,
      "ulutan": 6780,
      "ĠID": 6781,
      "Ġmina": 6782,
      "Ġdiskarte": 6783,
      "Ġcontact": 6784,
      "hhhh": 6785,
      "Ġstatement": 6786,
      "abago": 6787,
      "lalaki": 6788,
      "Ġlayuning": 6789,
      "ikilos": 6790,
      "Ġinihain": 6791,
      "oman": 6792,
      "Ġtumit": 6793,
      "iyong": 6794,
      "iyempre": 6795,
      "Ġkinabukasan": 6796,
      "Ġspec": 6797,
      "Ġbinat": 6798,
      "Ġpangg": 6799,
      "ansya": 6800,
      "Ġmor": 6801,
      "ĠAirport": 6802,
      "Ã³": 6803,
      "erasyon": 6804,
      "Ġdyan": 6805,
      "Ġtransportasyon": 6806,
      "Ġcasino": 6807,
      "laim": 6808,
      "Ġtinukoy": 6809,
      "Ġkarag": 6810,
      "ugali": 6811,
      "Ġkapakanan": 6812,
      "Ġstart": 6813,
      "atapuwa": 6814,
      "Marami": 6815,
      "Ġmatuwid": 6816,
      "Ġherb": 6817,
      "ĠTransportation": 6818,
      "ulture": 6819,
      "Ġbuksan": 6820,
      "ikadong": 6821,
      "untunan": 6822,
      "abase": 6823,
      "Ġgwa": 6824,
      "ĠEscudero": 6825,
      "Ġsampung": 6826,
      "ilanlan": 6827,
      "ektr": 6828,
      "tuloy": 6829,
      "zone": 6830,
      "Ġhour": 6831,
      "ĠEDSA": 6832,
      "Ġmananal": 6833,
      "amboanga": 6834,
      "uig": 6835,
      "ĠBago": 6836,
      "ĠOp": 6837,
      "Ikaw": 6838,
      "Ġnalaman": 6839,
      "Ġnagkas": 6840,
      "umer": 6841,
      "Ġkauna": 6842,
      "Ġtinatayang": 6843,
      "Ġbulaklak": 6844,
      "ĠPatakaran": 6845,
      "not": 6846,
      "Ġburdock": 6847,
      "ihing": 6848,
      "ĠSil": 6849,
      "ĠEle": 6850,
      "ni": 6851,
      "OL": 6852,
      "ĠPaul": 6853,
      "ĠJac": 6854,
      "ĠHuling": 6855,
      "Ġmg": 6856,
      "Ġeksena": 6857,
      "Ġanuman": 6858,
      "ĠJud": 6859,
      "ĠFrancisco": 6860,
      "lish": 6861,
      "akin": 6862,
      "ipedia": 6863,
      "Ġkanta": 6864,
      "ĠAkin": 6865,
      "Ġsentro": 6866,
      "Ġbi": 6867,
      "Ġallow": 6868,
      "ĠSel": 6869,
      "iyahe": 6870,
      "acay": 6871,
      "ĠNab": 6872,
      "Ġfeel": 6873,
      "Ġrest": 6874,
      "ĠPangasinan": 6875,
      "Ġmagn": 6876,
      "akasal": 6877,
      "ĠVideo": 6878,
      "Ġacid": 6879,
      "Ġevent": 6880,
      "99": 6881,
      "33": 6882,
      "umal": 6883,
      "ĠHer": 6884,
      "ĠKon": 6885,
      "Ġpababa": 6886,
      "Ġthese": 6887,
      "ĠAgr": 6888,
      "raine": 6889,
      "Ġpagpapas": 6890,
      "ĠDrilon": 6891,
      "Ġpagpapahayag": 6892,
      "Ġleader": 6893,
      "Ġdaloy": 6894,
      "ĠOo": 6895,
      "Ġmagkasama": 6896,
      "________": 6897,
      "Ġsoda": 6898,
      "Ġdiwa": 6899,
      "Ġmari": 6900,
      "ient": 6901,
      "Ġtelebisyon": 6902,
      "pya": 6903,
      "Pinag": 6904,
      "Ġtagap": 6905,
      "Ġtuktok": 6906,
      "Ġmagawa": 6907,
      "Ġstock": 6908,
      "ĠCy": 6909,
      "Ġbayang": 6910,
      "oli": 6911,
      "ryp": 6912,
      "Ġawit": 6913,
      "Ġmapabuti": 6914,
      "vironment": 6915,
      "ĠSenior": 6916,
      "OT": 6917,
      "Ġself": 6918,
      "Ġartikulong": 6919,
      "ĠWord": 6920,
      "ĠTrump": 6921,
      "abuso": 6922,
      "Ġpanalangin": 6923,
      "Ġnadagdagan": 6924,
      "Ġnakakuha": 6925,
      "Ġinstr": 6926,
      "Ġpagbubukas": 6927,
      "ĠPEP": 6928,
      "Ġlupon": 6929,
      "Ġanghel": 6930,
      "Ġlemon": 6931,
      "ĠDFA": 6932,
      "Ġkwarto": 6933,
      "ĠIV": 6934,
      "Ġdy": 6935,
      "Ġforeign": 6936,
      "ĠGMAN": 6937,
      "Ġnapansin": 6938,
      "adura": 6939,
      "Ġmenor": 6940,
      "ĠPetersburg": 6941,
      "ahiya": 6942,
      "ĠPinay": 6943,
      "alawig": 6944,
      "pres": 6945,
      "Ġhorm": 6946,
      "Ġmahih": 6947,
      "Ġkalinga": 6948,
      "Ġpaghahatid": 6949,
      "ĠAnn": 6950,
      "rect": 6951,
      "ukhang": 6952,
      "Ġkatiwalian": 6953,
      "Ġcoach": 6954,
      "Ġissue": 6955,
      "ĠMel": 6956,
      "ĠRichard": 6957,
      "ĠId": 6958,
      "ĠArmed": 6959,
      "ĠYork": 6960,
      "ĠProt": 6961,
      "Ġhanapin": 6962,
      "Ġkaunting": 6963,
      "Ġebanghelyo": 6964,
      "Ġkaluwalhatian": 6965,
      "ĠInst": 6966,
      "Ġtainga": 6967,
      "omet": 6968,
      "ĠSul": 6969,
      "rey": 6970,
      "igital": 6971,
      "ĠProdukto": 6972,
      "abato": 6973,
      "Ġshampoo": 6974,
      "Ġpanawagan": 6975,
      "Ġkomite": 6976,
      "ĠGMANews": 6977,
      "iano": 6978,
      "taurant": 6979,
      "Ġgames": 6980,
      "Ġleeg": 6981,
      "ials": 6982,
      "Ġcredit": 6983,
      "ĠMeralco": 6984,
      "ĠKami": 6985,
      "tulungan": 6986,
      "Ġkahon": 6987,
      "Ġpray": 6988,
      "ĠYung": 6989,
      "ĠVol": 6990,
      "iskubre": 6991,
      "Ġradio": 6992,
      "ĠNaniniwala": 6993,
      "Ġsumuko": 6994,
      "inung": 6995,
      "Ġsapatos": 6996,
      "orry": 6997,
      "Ġmagkaka": 6998,
      "Ġpagw": 6999,
      "ĠEci": 7000,
      "unungan": 7001,
      "Ġevery": 7002,
      "ingisda": 7003,
      "Lahat": 7004,
      "hael": 7005,
      "ĠGames": 7006,
      "Ġalok": 7007,
      "Ġpulitika": 7008,
      "Ġbonus": 7009,
      "led": 7010,
      "Ġbanyo": 7011,
      "ĠAsian": 7012,
      "ĠAnong": 7013,
      "Ġnaitala": 7014,
      "Sub": 7015,
      "Ġkey": 7016,
      "Ġpagsabog": 7017,
      "Ġbras": 7018,
      "ention": 7019,
      "Ġnasak": 7020,
      "ungat": 7021,
      "Ġpaulit": 7022,
      "Ġumu": 7023,
      "Ġmarketing": 7024,
      "Ġright": 7025,
      "Ġtumigil": 7026,
      "Ġkliyente": 7027,
      "asis": 7028,
      "Ġsuportahan": 7029,
      "ources": 7030,
      "Ġlalam": 7031,
      "angguni": 7032,
      "ĠLuc": 7033,
      "forcement": 7034,
      "ĠLt": 7035,
      "Ġ500": 7036,
      "Ġkalakalan": 7037,
      "Ġalinmang": 7038,
      "ĠIloilo": 7039,
      "Ġho": 7040,
      "ĠCanada": 7041,
      "ĠGRN": 7042,
      "Yung": 7043,
      "Ġhalagang": 7044,
      "bar": 7045,
      "Ġanu": 7046,
      "Ġpamumuno": 7047,
      "Ġmalamig": 7048,
      "Ġtumakas": 7049,
      "This": 7050,
      "anoorin": 7051,
      "Ġawtomatikong": 7052,
      "ipiko": 7053,
      "Ġkalamnan": 7054,
      "Ġfollow": 7055,
      "ĠIsab": 7056,
      "pakinabang": 7057,
      "lap": 7058,
      "access": 7059,
      "cha": 7060,
      "Ġistor": 7061,
      "ured": 7062,
      "igno": 7063,
      "ĠGil": 7064,
      "Ġapartment": 7065,
      "Ġyaman": 7066,
      "print": 7067,
      "ungang": 7068,
      "eme": 7069,
      "Ġmaagang": 7070,
      "Ġpinagh": 7071,
      "ĠBank": 7072,
      "entino": 7073,
      "apagal": 7074,
      "Ġlumipat": 7075,
      "Pina": 7076,
      "Ġbisitahin": 7077,
      "men": 7078,
      "Ġpagod": 7079,
      "ĠChairman": 7080,
      "Ġexper": 7081,
      "Ġmember": 7082,
      "Ġmembers": 7083,
      "Ġcareer": 7084,
      "aksiyon": 7085,
      "Ġtala": 7086,
      "ipid": 7087,
      "ĠHanggang": 7088,
      "Ġnatitirang": 7089,
      "Ġnasasak": 7090,
      "Ġblack": 7091,
      "bihan": 7092,
      "isya": 7093,
      "Ġtanungin": 7094,
      "Ġitat": 7095,
      "Ġmahaba": 7096,
      "ĠTo": 7097,
      "Ġown": 7098,
      "Ġtalumpati": 7099,
      "Ġdigmaan": 7100,
      "uio": 7101,
      "ataang": 7102,
      "Ġinterview": 7103,
      "Ġmahina": 7104,
      "nasyonal": 7105,
      "umi": 7106,
      "ĠMinsan": 7107,
      "ĠTha": 7108,
      "upan": 7109,
      "ĠBelg": 7110,
      "aniel": 7111,
      "ĠService": 7112,
      "amam": 7113,
      "Ġgeneral": 7114,
      "Ġlight": 7115,
      "ayuan": 7116,
      "ble": 7117,
      "Ġhearing": 7118,
      "ining": 7119,
      "Ġtagapagsalita": 7120,
      "Ġmura": 7121,
      "ĠZamboanga": 7122,
      "aragdag": 7123,
      "olar": 7124,
      "Ġthird": 7125,
      "Ġinj": 7126,
      "arungan": 7127,
      "ĠSupreme": 7128,
      "abagsak": 7129,
      "Ġpagsasagawa": 7130,
      "Ġkape": 7131,
      "Ġyon": 7132,
      "inter": 7133,
      "Ġgagawa": 7134,
      "Ġpasok": 7135,
      "unte": 7136,
      "Ġcounter": 7137,
      "Ġflight": 7138,
      "Ġturista": 7139,
      "lation": 7140,
      "val": 7141,
      "Ġnakatuon": 7142,
      "ĠKatoliko": 7143,
      "Ġkahih": 7144,
      "Ġipinanganak": 7145,
      "board": 7146,
      "ĠPeter": 7147,
      "unahang": 7148,
      "enez": 7149,
      "lar": 7150,
      "ĠStr": 7151,
      "ĠFel": 7152,
      "Ġbumagsak": 7153,
      "Ġrice": 7154,
      "Ġespirituwal": 7155,
      "Ġalternat": 7156,
      "Ġpansamantalang": 7157,
      "Ġarmas": 7158,
      "ĠUna": 7159,
      "ĠIndustr": 7160,
      "Ġpulang": 7161,
      "ĠBI": 7162,
      "Ġ300": 7163,
      "pagkaboy": 7164,
      "Ġeleksyon": 7165,
      "ĠMaj": 7166,
      "Ġ2008": 7167,
      "iyasat": 7168,
      "SC": 7169,
      "iter": 7170,
      "ĠDa": 7171,
      "dal": 7172,
      "Ġbank": 7173,
      "Ġsumagot": 7174,
      "Ġ197": 7175,
      "tanggol": 7176,
      "Ġnutr": 7177,
      "abet": 7178,
      "Ġilong": 7179,
      "Ġexecutive": 7180,
      "ĠOras": 7181,
      "ĠCastro": 7182,
      "Ġpaglipat": 7183,
      "//": 7184,
      "alsik": 7185,
      "Ġdeath": 7186,
      "BP": 7187,
      "Ġkn": 7188,
      "Ġreaksyon": 7189,
      "ĠAssist": 7190,
      "Ġimpluw": 7191,
      "37": 7192,
      "Ġ90": 7193,
      "Ġtahimik": 7194,
      "ugalian": 7195,
      "ĠOrgan": 7196,
      "Ġate": 7197,
      "Ġahente": 7198,
      "ĠEcija": 7199,
      "awaan": 7200,
      "Ġmetal": 7201,
      "BB": 7202,
      "ĠAdministration": 7203,
      "Ġcharacter": 7204,
      "ubilin": 7205,
      "itahan": 7206,
      "Ġsuliran": 7207,
      "umbalik": 7208,
      "Ġsaloob": 7209,
      "ĠOl": 7210,
      "enef": 7211,
      "Ġmahilig": 7212,
      "Kaugnay": 7213,
      "Ġgrad": 7214,
      "Ġputi": 7215,
      "Ġmabub": 7216,
      "Ġhumah": 7217,
      "Ġkomunikasyon": 7218,
      "Ġtraffic": 7219,
      "Ġname": 7220,
      "Ġemergency": 7221,
      "Ġpagbib": 7222,
      "AD": 7223,
      "ineb": 7224,
      "Ġcy": 7225,
      "Sapagka": 7226,
      "mbass": 7227,
      "ĠGrace": 7228,
      "Ġmalalaman": 7229,
      "irek": 7230,
      "ST": 7231,
      "Ġtanan": 7232,
      "Ġelemento": 7233,
      "uque": 7234,
      "Ġnext": 7235,
      "Ġpanun": 7236,
      "Ġseries": 7237,
      "Ġiginiit": 7238,
      "Ġipinadala": 7239,
      "ordon": 7240,
      "Ġnananalig": 7241,
      "Ġund": 7242,
      "Ġkatawang": 7243,
      "Ġdayuhang": 7244,
      "Ġlot": 7245,
      "Ġkagandahan": 7246,
      "angalan": 7247,
      "Ġsinggit": 7248,
      "ĠEgip": 7249,
      "elligence": 7250,
      "ĠMis": 7251,
      "ensyal": 7252,
      "Ġbisa": 7253,
      "Ġinak": 7254,
      "Ġdaang": 7255,
      "alanan": 7256,
      "Ġmatibay": 7257,
      "Kailangan": 7258,
      "ĠEast": 7259,
      "Ġteritoryo": 7260,
      "ĠIyon": 7261,
      "ĠBlack": 7262,
      "Ġaktibong": 7263,
      "Ġdead": 7264,
      "fety": 7265,
      "Ġsure": 7266,
      "Ġlathala": 7267,
      "Ġginagamot": 7268,
      "Ġmaliwanag": 7269,
      "ĠCat": 7270,
      "Ġbilyong": 7271,
      "iyansa": 7272,
      "Ġra": 7273,
      "Ġtinanong": 7274,
      "Ġtandaan": 7275,
      "atong": 7276,
      "ilig": 7277,
      "Ġnagsasabing": 7278,
      "ĠAmerikano": 7279,
      "PP": 7280,
      "endent": 7281,
      "onic": 7282,
      "Ġkalamidad": 7283,
      "Ġilipat": 7284,
      "Ġtaumbayan": 7285,
      "Ġinspirasyon": 7286,
      "mote": 7287,
      "ĠProvincial": 7288,
      "Ġperform": 7289,
      "Ġlamb": 7290,
      "Ġkahabaan": 7291,
      "Ġelement": 7292,
      "ĠInsp": 7293,
      "Ð¾": 7294,
      "Ġminam": 7295,
      "Ġoo": 7296,
      "Ġsiglo": 7297,
      "Ġlng": 7298,
      "ĠJess": 7299,
      "basa": 7300,
      "Ġdevice": 7301,
      "ĠGod": 7302,
      "alisay": 7303,
      "Ġmun": 7304,
      "ĠMakipag": 7305,
      "Ġsaloobin": 7306,
      "arya": 7307,
      "Ġnakatayo": 7308,
      "Ġpilit": 7309,
      "Ġkit": 7310,
      "Ġkrisis": 7311,
      "ĠFilip": 7312,
      "olus": 7313,
      "Ġbayaran": 7314,
      "Ġpagkilala": 7315,
      "Ġsingil": 7316,
      "Ġkilalanin": 7317,
      "Ġchampion": 7318,
      "Ġperpekto": 7319,
      "Ġtumayo": 7320,
      "ukang": 7321,
      "alog": 7322,
      "ĠEnrile": 7323,
      "ĠCot": 7324,
      "retso": 7325,
      "Ġfull": 7326,
      "Ġconference": 7327,
      "Ġappro": 7328,
      "ĠTwitter": 7329,
      "Tulad": 7330,
      "Ġalm": 7331,
      "ĠMangyaring": 7332,
      "van": 7333,
      "Ġnatamo": 7334,
      "Ġber": 7335,
      "Ġtumagal": 7336,
      "rong": 7337,
      "Ġkausap": 7338,
      "ĠPul": 7339,
      "bre": 7340,
      "Ġsat": 7341,
      "Ġkalim": 7342,
      "ingo": 7343,
      "âĢĵ": 7344,
      "Ġoperat": 7345,
      "Ġsource": 7346,
      "ĠCard": 7347,
      "Ġupuan": 7348,
      "Ġlibo": 7349,
      "ihi": 7350,
      "Ġnagsalita": 7351,
      "Ġmigo": 7352,
      "Ġokay": 7353,
      "ĠMacapagal": 7354,
      "Ġpaanan": 7355,
      "ampi": 7356,
      "ĠAw": 7357,
      "ĠApp": 7358,
      "Ġlihim": 7359,
      "ĠBoracay": 7360,
      "atlo": 7361,
      "ĠNas": 7362,
      "Ġbefore": 7363,
      "ĠPamb": 7364,
      "ificate": 7365,
      "Kasabay": 7366,
      "ĠPH": 7367,
      "libutan": 7368,
      "andar": 7369,
      "GA": 7370,
      "ĠKuwa": 7371,
      "Ġevents": 7372,
      "Ġgasolina": 7373,
      "Ġaton": 7374,
      "apy": 7375,
      "ipit": 7376,
      "ĠLap": 7377,
      "Ġpanel": 7378,
      "Ġbuo": 7379,
      "ILF": 7380,
      "otohanang": 7381,
      "Ġbilog": 7382,
      "ĠPapa": 7383,
      "Ġ:)": 7384,
      "ĠAT": 7385,
      "ĠTor": 7386,
      "itnang": 7387,
      "Ġmayaman": 7388,
      "ĠMiss": 7389,
      "auty": 7390,
      "Ġ36": 7391,
      "Ġsupl": 7392,
      "ct": 7393,
      "room": 7394,
      "Ġnyang": 7395,
      "Ġalyas": 7396,
      "icycle": 7397,
      "ĠUN": 7398,
      "Ġaudio": 7399,
      "abae": 7400,
      "Ġkalye": 7401,
      "lash": 7402,
      "Ġpormal": 7403,
      "Ġnagpunta": 7404,
      "Ġmasakit": 7405,
      "Ġnagsimulang": 7406,
      "Ġmalubhang": 7407,
      "vis": 7408,
      "wiran": 7409,
      "Ġkuha": 7410,
      "amanan": 7411,
      "Ġmaabot": 7412,
      "Ġipatupad": 7413,
      "Ġdekada": 7414,
      "Ġkaragatan": 7415,
      "Ġbrand": 7416,
      "Ġgali": 7417,
      "Ġgagawing": 7418,
      "Ġkumpirm": 7419,
      "ansa": 7420,
      "Ġkateg": 7421,
      "Ġelectric": 7422,
      "ĠMaging": 7423,
      "Ġactor": 7424,
      "Ġtake": 7425,
      "uyas": 7426,
      "andaigdigang": 7427,
      "ĠCorporation": 7428,
      "Ġsining": 7429,
      "Mayroon": 7430,
      "TFRB": 7431,
      "ivil": 7432,
      "Ġviol": 7433,
      "ically": 7434,
      "ektong": 7435,
      "Ġkahanga": 7436,
      "Ap": 7437,
      "ĠParas": 7438,
      "ĠMy": 7439,
      "Ġhinlalaki": 7440,
      "iram": 7441,
      "Ġenter": 7442,
      "Tube": 7443,
      "Ġpanloob": 7444,
      "engue": 7445,
      "Ġparmas": 7446,
      "Ġpaglipas": 7447,
      "):": 7448,
      "Ġmaghanap": 7449,
      "des": 7450,
      "Ġcat": 7451,
      "Ġnangungunang": 7452,
      "intulutan": 7453,
      "Ġnapa": 7454,
      "Ġsirkul": 7455,
      "lima": 7456,
      "rubahan": 7457,
      "Ġasin": 7458,
      "mpanan": 7459,
      "Ġipinak": 7460,
      "Ġpagbabasa": 7461,
      "omend": 7462,
      "ihinto": 7463,
      "Ġcontract": 7464,
      "agana": 7465,
      "Nakat": 7466,
      "ĠKing": 7467,
      "ĠInstitute": 7468,
      "Ġtuluyan": 7469,
      "light": 7470,
      "ify": 7471,
      "hen": 7472,
      "Ġrole": 7473,
      "Ġpagkakamali": 7474,
      "Ġibat": 7475,
      "ensiyon": 7476,
      "vail": 7477,
      "ugust": 7478,
      "Ġkapitbahay": 7479,
      "Ġiisang": 7480,
      "Ġdisc": 7481,
      "Ġpumasa": 7482,
      "Ġsearch": 7483,
      "Ġnakatanggap": 7484,
      "Ġhous": 7485,
      "Bum": 7486,
      "itikan": 7487,
      "ĠPA": 7488,
      "Ġmakakakuha": 7489,
      "ĠTaguig": 7490,
      "ND": 7491,
      "Ġgay": 7492,
      "Ġlay": 7493,
      "Ġkarunungan": 7494,
      "ĠBenigno": 7495,
      "ky": 7496,
      "Ġvac": 7497,
      "Ġvisa": 7498,
      "Ġbaha": 7499,
      "ĠNil": 7500,
      "ĠNagpap": 7501,
      "icy": 7502,
      "Ġniyan": 7503,
      "Ġdirekta": 7504,
      "âĢĿ,": 7505,
      "Ġkagaya": 7506,
      "iel": 7507,
      "ige": 7508,
      "Ġlumalaki": 7509,
      "amaneho": 7510,
      "ITY": 7511,
      "Ġpigmentation": 7512,
      "Ġistraktura": 7513,
      "ĠLocal": 7514,
      "Ġkuting": 7515,
      "Ġkaliwa": 7516,
      "maasa": 7517,
      "wel": 7518,
      "ĠEastern": 7519,
      "Ġpalagi": 7520,
      "Ġhere": 7521,
      "Ġpagkakat": 7522,
      "Ġpetisyon": 7523,
      "dinan": 7524,
      "Ġjob": 7525,
      "mint": 7526,
      "Ġprinsipyo": 7527,
      "Ġpahintulot": 7528,
      "aktikal": 7529,
      "Ġairport": 7530,
      "Ġsibil": 7531,
      "iliw": 7532,
      "anata": 7533,
      "ĠUkraine": 7534,
      "Ġbola": 7535,
      "abat": 7536,
      "Ġprutas": 7537,
      "Bin": 7538,
      "Ġnabasa": 7539,
      "ĠPers": 7540,
      "xx": 7541,
      "Ġmapanatili": 7542,
      "tal": 7543,
      "Ġpatungkol": 7544,
      "Ġkadahilanan": 7545,
      "Ġkinilala": 7546,
      "elfare": 7547,
      "ker": 7548,
      "ego": 7549,
      "Ġmarunong": 7550,
      "Ġpagpapaluwang": 7551,
      "Ġkopya": 7552,
      "Ġtanggalin": 7553,
      "ĠVel": 7554,
      "Ġtaxi": 7555,
      "ilinan": 7556,
      "ĠLead": 7557,
      "Ġmeeting": 7558,
      "Ġnagpa": 7559,
      "Ġsakin": 7560,
      "Ġminimum": 7561,
      "Ġpagbebenta": 7562,
      "Ġkilo": 7563,
      "Ġkumilos": 7564,
      "'m": 7565,
      "Ġpindutan": 7566,
      "Ġ32": 7567,
      "inde": 7568,
      "Ġdisease": 7569,
      "Ġisinulat": 7570,
      "Ġhold": 7571,
      "Ġgel": 7572,
      "Ġsetting": 7573,
      "ĠCode": 7574,
      "Ġpositibong": 7575,
      "asyo": 7576,
      "ruption": 7577,
      "Ġkuk": 7578,
      "Ġtinag": 7579,
      "ukob": 7580,
      "Ġalinman": 7581,
      "ĠTaon": 7582,
      "stitution": 7583,
      "alahan": 7584,
      "ĠRepresent": 7585,
      "the": 7586,
      "Ġbanda": 7587,
      "ahimik": 7588,
      "Ġinst": 7589,
      "Ġipinas": 7590,
      "ĠMarket": 7591,
      "Ġniyog": 7592,
      "Ġhospital": 7593,
      "Ġlabing": 7594,
      "Ð°": 7595,
      "Ġalamin": 7596,
      "serb": 7597,
      "lab": 7598,
      "ĠMichael": 7599,
      "anganak": 7600,
      "outh": 7601,
      "ulas": 7602,
      "ĠRevilla": 7603,
      "ĠFernando": 7604,
      "Ġakt": 7605,
      "Ġkoneksyon": 7606,
      "Buhok": 7607,
      "asahang": 7608,
      "iwanan": 7609,
      "ĠTolentino": 7610,
      "agsik": 7611,
      "Ġnun": 7612,
      "ester": 7613,
      "Ġbug": 7614,
      "Ġnagaganap": 7615,
      "raz": 7616,
      "Ġnagpakita": 7617,
      "ering": 7618,
      "Ġinformation": 7619,
      "ĠWikipedia": 7620,
      "gu": 7621,
      "ĠðŁ": 7622,
      "Ġkapaki": 7623,
      "Ġlook": 7624,
      "Ġipinagbabawal": 7625,
      "ĠRamon": 7626,
      "ript": 7627,
      "Ġhelp": 7628,
      "ensive": 7629,
      "Ġnakatakdang": 7630,
      "MC": 7631,
      "uela": 7632,
      "arth": 7633,
      "ĠGordon": 7634,
      "xide": 7635,
      "Ġoposisyon": 7636,
      "ĠJoy": 7637,
      "Mask": 7638,
      "oon": 7639,
      "Ġnagmum": 7640,
      "ĠMalaysia": 7641,
      "ĠMap": 7642,
      "bust": 7643,
      "Ġdays": 7644,
      "Ġfunction": 7645,
      "Ġchild": 7646,
      "rik": 7647,
      "agon": 7648,
      "Ġpasilidad": 7649,
      "ĠSak": 7650,
      "ĠCC": 7651,
      "Ġemb": 7652,
      "ĠPower": 7653,
      "ilitan": 7654,
      "ĠNakita": 7655,
      "Matatandaang": 7656,
      "ĠSinasabi": 7657,
      "ĠUnd": 7658,
      "IM": 7659,
      "ires": 7660,
      "Dum": 7661,
      "RC": 7662,
      "ĠSw": 7663,
      "Ġpamahalaang": 7664,
      "Ġtakbo": 7665,
      "ten": 7666,
      "Ġbraso": 7667,
      "bos": 7668,
      "Ġplanong": 7669,
      "akong": 7670,
      "ambal": 7671,
      "overnor": 7672,
      "abuuang": 7673,
      "Ġfec": 7674,
      "Ġpangalang": 7675,
      "bound": 7676,
      "Ġeven": 7677,
      "pet": 7678,
      "ĠTungkol": 7679,
      "ĠMMDA": 7680,
      "ĠBgy": 7681,
      "Ġsingit": 7682,
      "://": 7683,
      "ĠNaging": 7684,
      "Ġnangyaring": 7685,
      "Ġkayamanan": 7686,
      "ĠGreen": 7687,
      "Ġlebadura": 7688,
      "ĠDaniel": 7689,
      "Ġumakyat": 7690,
      "olic": 7691,
      "Ġbaby": 7692,
      "Ġdemok": 7693,
      "cr": 7694,
      "Ġbrief": 7695,
      "ispo": 7696,
      "Ġmessage": 7697,
      "anim": 7698,
      "Ġhiniling": 7699,
      "Ġhehe": 7700,
      "ĠTab": 7701,
      "Ġinu": 7702,
      "Ġfilm": 7703,
      "Ġdug": 7704,
      "Ġ(@": 7705,
      "Ġistasyon": 7706,
      "Ġdadalhin": 7707,
      "Ġtrat": 7708,
      "ĠPamam": 7709,
      "Ġkasamang": 7710,
      "Ġinirerek": 7711,
      "onsor": 7712,
      "Ġadministration": 7713,
      "ume": 7714,
      "Ã¢": 7715,
      "Ġthan": 7716,
      "aria": 7717,
      "iis": 7718,
      "ipa": 7719,
      "Ġipaalam": 7720,
      "ĠCH": 7721,
      "part": 7722,
      "Ġhenerasyon": 7723,
      "tm": 7724,
      "ober": 7725,
      "ĠSamakatuwid": 7726,
      "zz": 7727,
      "ĠDefense": 7728,
      "ĠSereno": 7729,
      "ĠCommissioner": 7730,
      "ability": 7731,
      "estic": 7732,
      "ĠHotel": 7733,
      "ayayat": 7734,
      "ĠCotabato": 7735,
      "Ġsignal": 7736,
      "Ġrestaurant": 7737,
      "ĠRonald": 7738,
      "ĠInf": 7739,
      "akatawan": 7740,
      "uugali": 7741,
      "Ġdayon": 7742,
      "Ġkanser": 7743,
      "âĢ¦]": 7744,
      "Ġview": 7745,
      "ampung": 7746,
      "update": 7747,
      "ĠGayunman": 7748,
      "Ġmakatanggap": 7749,
      "dness": 7750,
      "Ġdiv": 7751,
      "Ġbiktimang": 7752,
      "song": 7753,
      "Ġaksyon": 7754,
      "ĠCollege": 7755,
      "Ġbayani": 7756,
      "Ġpagsasama": 7757,
      "Ġpaglabas": 7758,
      "upang": 7759,
      "Ġvan": 7760,
      "Ġmamamahayag": 7761,
      "Ġpaanong": 7762,
      "ĠDILG": 7763,
      "Ġcel": 7764,
      "ishop": 7765,
      "Ġ***": 7766,
      "Ġusapan": 7767,
      "SP": 7768,
      "antes": 7769,
      "Ġmenu": 7770,
      "Ġaway": 7771,
      "ĠWater": 7772,
      "Ġrights": 7773,
      "ĠHil": 7774,
      "ĠLeni": 7775,
      "ĠEc": 7776,
      "ĠEnter": 7777,
      "Ġnasira": 7778,
      "ĠArch": 7779,
      "ĠMayroong": 7780,
      "Ġstress": 7781,
      "Ġnasus": 7782,
      "Ġmamimili": 7783,
      "estival": 7784,
      "Ġmanunulat": 7785,
      "ernador": 7786,
      "ĠAgency": 7787,
      "Ġbrowser": 7788,
      "Inihayag": 7789,
      "ories": 7790,
      "Ġkanan": 7791,
      "Ġbinal": 7792,
      "ille": 7793,
      "doza": 7794,
      "ĠInstagram": 7795,
      "ĠYouTube": 7796,
      "uez": 7797,
      "Ġdeg": 7798,
      "Ġchat": 7799,
      "erte": 7800,
      "igs": 7801,
      "angel": 7802,
      "ungkulan": 7803,
      "ĠFoundation": 7804,
      "Ġpagtatang": 7805,
      "ukal": 7806,
      "49": 7807,
      "ĠMaute": 7808,
      "ĠElections": 7809,
      "alakayin": 7810,
      "Binig": 7811,
      "intahan": 7812,
      "Ġkatuwiran": 7813,
      "uklas": 7814,
      "ĠEuropean": 7815,
      "Ġnakakita": 7816,
      "Ġtesting": 7817,
      "Ġcontin": 7818,
      "Ġprivate": 7819,
      "year": 7820,
      "ĠAlb": 7821,
      "abait": 7822,
      "abak": 7823,
      "Ġikin": 7824,
      "publ": 7825,
      "Ġkontribusyon": 7826,
      "Ġmakapasok": 7827,
      "Ġmakahanap": 7828,
      "Ġprofile": 7829,
      "wood": 7830,
      "langan": 7831,
      "ression": 7832,
      "ãĥ": 7833,
      "Ġaspeto": 7834,
      "ĠAsya": 7835,
      "Nana": 7836,
      "ampo": 7837,
      "Ġsige": 7838,
      "Ġpatotoo": 7839,
      "rough": 7840,
      "Ġpartner": 7841,
      "ĠGerman": 7842,
      "Patuloy": 7843,
      "Ġbinabay": 7844,
      "quez": 7845,
      "Ġseks": 7846,
      "Ġbarrel": 7847,
      "Press": 7848,
      "ondena": 7849,
      "Ġmau": 7850,
      "Ġnagsasagawa": 7851,
      "Ġkapital": 7852,
      "Ġmatanggap": 7853,
      "Ġkaraniwan": 7854,
      "Nilinaw": 7855,
      "ĠIba": 7856,
      "Ġmaingat": 7857,
      "Ġparin": 7858,
      "Ġmaituturing": 7859,
      "sign": 7860,
      "liga": 7861,
      "Ġpagpapadala": 7862,
      "yin": 7863,
      "Ġtricycle": 7864,
      "Ġbabala": 7865,
      "ÃŃ": 7866,
      "kl": 7867,
      "Ġanaly": 7868,
      "ITE": 7869,
      "ĠMagu": 7870,
      "ĠEs": 7871,
      "ĠTask": 7872,
      "ĠSangkatauhan": 7873,
      "Ġitinalaga": 7874,
      "wede": 7875,
      "abuhay": 7876,
      "ĠIbig": 7877,
      "Ġmapagkukunan": 7878,
      "Ġpangunguna": 7879,
      "Ġkakaibang": 7880,
      "Ġinterest": 7881,
      "Ġimplement": 7882,
      "Ġhouse": 7883,
      "ĠAL": 7884,
      "reement": 7885,
      "Ġnagbebenta": 7886,
      "Ġpananalig": 7887,
      "aming": 7888,
      "Ġnakitang": 7889,
      "gg": 7890,
      "Ġtagubilin": 7891,
      "Ġwall": 7892,
      "ibing": 7893,
      "char": 7894,
      "48": 7895,
      "Ġlumaki": 7896,
      "Subalit": 7897,
      "Ġpicture": 7898,
      "Ġvers": 7899,
      "Ġtirahan": 7900,
      "Ġparusa": 7901,
      "Ġpahayagang": 7902,
      "ahasan": 7903,
      "obernador": 7904,
      "So": 7905,
      "Ġ[âĢ¦]": 7906,
      "ikozan": 7907,
      "Ġtropa": 7908,
      "emikal": 7909,
      "Ġpatunay": 7910,
      "Ġpagkakatawang": 7911,
      "inary": 7912,
      "Ġpapa": 7913,
      "ĠKabilang": 7914,
      "ĠRad": 7915,
      "Ġiniulat": 7916,
      "ges": 7917,
      "Ġalipin": 7918,
      "Ġbakbakan": 7919,
      "hehehe": 7920,
      "ĠMagd": 7921,
      "Ġsala": 7922,
      "Ġkarak": 7923,
      "GU": 7924,
      "aslang": 7925,
      "ibility": 7926,
      "Ġpagtingin": 7927,
      "Ġteles": 7928,
      "Ġyog": 7929,
      "ĠAga": 7930,
      "Ġvice": 7931,
      "Ġpalad": 7932,
      "ĠMags": 7933,
      "ĠLeon": 7934,
      "Ġpagtulog": 7935,
      "Ġopen": 7936,
      "Ġlumal": 7937,
      "Ġabs": 7938,
      "inaan": 7939,
      "Ġnakaupo": 7940,
      "ĠOffic": 7941,
      "ving": 7942,
      "Ġperpektong": 7943,
      "Ġnaaresto": 7944,
      "Ġtaglay": 7945,
      "arter": 7946,
      "rika": 7947,
      "essional": 7948,
      "ĠPinakam": 7949,
      "Ġhab": 7950,
      "Ġkagustuhan": 7951,
      "istahan": 7952,
      "kailangan": 7953,
      "âĢ¦âĢ¦": 7954,
      "unch": 7955,
      "inahagi": 7956,
      "Bas": 7957,
      "ĠAlbayalde": 7958,
      "55": 7959,
      "Ġdahan": 7960,
      "iligaw": 7961,
      "ĠEgipto": 7962,
      "ĠChe": 7963,
      "Ġkaugalian": 7964,
      "erbisyo": 7965,
      "Ġisinamp": 7966,
      "amento": 7967,
      "Ġ@": 7968,
      "action": 7969,
      "Ġnauna": 7970,
      "ĠCath": 7971,
      "ĠKatawang": 7972,
      "ĠOut": 7973,
      "Ġbasketball": 7974,
      "Ġmunang": 7975,
      "Ġmawawala": 7976,
      "Ġhist": 7977,
      "ners": 7978,
      "ugot": 7979,
      "ĠSamar": 7980,
      "ĠBenj": 7981,
      "ahinang": 7982,
      "Ġtumatanggap": 7983,
      "FRJ": 7984,
      "iingat": 7985,
      "ungg": 7986,
      "ĠShe": 7987,
      "pakan": 7988,
      "Ġtuntunin": 7989,
      "ihirapan": 7990,
      "pound": 7991,
      "Ġparmasya": 7992,
      "ocus": 7993,
      "ĠCorp": 7994,
      "ĠWorm": 7995,
      "ĠAS": 7996,
      "ĠCarlos": 7997,
      "egasyon": 7998,
      "Ġbunsod": 7999,
      "Ġsumusuporta": 8000,
      "ultural": 8001,
      "kaloob": 8002,
      "estern": 8003,
      "Ġ38": 8004,
      "Ġdahon": 8005,
      "antala": 8006,
      "Nais": 8007,
      "ellow": 8008,
      "Ġpagsasa": 8009,
      "Ġsiyudad": 8010,
      "Ġinteresado": 8011,
      "alino": 8012,
      "tery": 8013,
      "ayanan": 8014,
      "ĠAustralia": 8015,
      "Ġep": 8016,
      "Ġkadalasang": 8017,
      "ĠLope": 8018,
      "ĠCA": 8019,
      "Ġiligtas": 8020,
      "Ġmur": 8021,
      "lesya": 8022,
      "iliman": 8023,
      "ĠIndonesia": 8024,
      "umo": 8025,
      "Ġruta": 8026,
      "Ġpagtulong": 8027,
      "Ġnahuli": 8028,
      "ĠTagapag": 8029,
      "Ġlis": 8030,
      "Ġointment": 8031,
      "ĠLungsod": 8032,
      "Ġinternasyonal": 8033,
      "Ġtinatanggap": 8034,
      "Ġbenef": 8035,
      "Ġteknikal": 8036,
      "ĠSimbahan": 8037,
      "Ġbol": 8038,
      "Ġhita": 8039,
      "ahah": 8040,
      "Ġkaisipan": 8041,
      "ĠOne": 8042,
      "ĠPagt": 8043,
      "Ġpinip": 8044,
      "ansinukob": 8045,
      "eri": 8046,
      "Ġpaghihirap": 8047,
      "unot": 8048,
      "Ġfield": 8049,
      "Ġproyektong": 8050,
      "Ġaniyang": 8051,
      "Ġelektr": 8052,
      "Ġpagpapalawig": 8053,
      "pabor": 8054,
      "Ġimporm": 8055,
      "Ġ×": 8056,
      "ĠAv": 8057,
      "etnam": 8058,
      "Ġpantay": 8059,
      "Ġmiss": 8060,
      "Ġmakakat": 8061,
      "Ġkabab": 8062,
      "Ġprotektahan": 8063,
      "ĠKina": 8064,
      "BC": 8065,
      "Ðµ": 8066,
      "Ġsome": 8067,
      "ĠMach": 8068,
      "Ġmakukuha": 8069,
      "Ġzone": 8070,
      "ĠTechn": 8071,
      "Ġpaboritong": 8072,
      "Ġseksyon": 8073,
      "alisin": 8074,
      "Ġyogurt": 8075,
      "unaw": 8076,
      "Ġ2004": 8077,
      "ĠMendoza": 8078,
      "ĠSept": 8079,
      "Ġblock": 8080,
      "ahiwalay": 8081,
      "uary": 8082,
      "Ġroll": 8083,
      "alangkas": 8084,
      "Ġpekeng": 8085,
      "Ġkinikilala": 8086,
      "aliz": 8087,
      "Ġipinapakita": 8088,
      "Ġsession": 8089,
      "ĠANG": 8090,
      "CR": 8091,
      "ĠRel": 8092,
      "Ġmangayayat": 8093,
      "Ġhalik": 8094,
      "ĠDar": 8095,
      "zh": 8096,
      "Ġvot": 8097,
      "Ġgreen": 8098,
      "pana": 8099,
      "sel": 8100,
      "wag": 8101,
      "asy": 8102,
      "Ġkahal": 8103,
      "FF": 8104,
      "Ġepis": 8105,
      "lax": 8106,
      "46": 8107,
      "ll": 8108,
      "tero": 8109,
      "Ġaverage": 8110,
      "Ġistorya": 8111,
      "ĠBaguio": 8112,
      "Ġpi": 8113,
      "Ġdemand": 8114,
      "ĠCrist": 8115,
      "ĠCITY": 8116,
      "Ġbaldness": 8117,
      "Ġisinasagawa": 8118,
      "Ġpaglalaro": 8119,
      "Ġmagpadala": 8120,
      "Ġbasehan": 8121,
      "Ġsuport": 8122,
      "ĠAna": 8123,
      "Ġpapaano": 8124,
      "urusa": 8125,
      "ki": 8126,
      "Ġpaglalarawan": 8127,
      "WH": 8128,
      "adya": 8129,
      "Ġeksperto": 8130,
      "kad": 8131,
      "ĠGeor": 8132,
      "Kat": 8133,
      "Ġpharmacy": 8134,
      "ĠCapital": 8135,
      "Ġkaguluhan": 8136,
      "Ġsecretary": 8137,
      "Ġmasak": 8138,
      "Ġipasok": 8139,
      "Ġmost": 8140,
      "Ġbituin": 8141,
      "Ġbags": 8142,
      "ĠInterior": 8143,
      "ĠMaguindanao": 8144,
      "Ġkemikal": 8145,
      "Ġangkan": 8146,
      "maan": 8147,
      "Ġserver": 8148,
      "UT": 8149,
      "Ġordinar": 8150,
      "Ġnakakas": 8151,
      "irre": 8152,
      "oph": 8153,
      "Ġpagkakakilanlan": 8154,
      "Ġklin": 8155,
      "ĠLey": 8156,
      "Ġtimog": 8157,
      "Ġpur": 8158,
      "Ġtratuhin": 8159,
      "Ġhtt": 8160,
      "Ġcer": 8161,
      "Ġmabisang": 8162,
      "Ġkumakain": 8163,
      "osito": 8164,
      "aras": 8165,
      "asabi": 8166,
      "Ġappoint": 8167,
      "88": 8168,
      "Ġkulungan": 8169,
      "Ġpagsulat": 8170,
      "ides": 8171,
      "Ġsulok": 8172,
      "ĠLeg": 8173,
      "Ġmanagement": 8174,
      "anin": 8175,
      "tober": 8176,
      "Ġinto": 8177,
      "Ġsaklaw": 8178,
      "oice": 8179,
      "Ġmaari": 8180,
      "awig": 8181,
      "Ġinamin": 8182,
      "Ġnagbago": 8183,
      "Ġess": 8184,
      "ĠNatural": 8185,
      "alap": 8186,
      "akasyon": 8187,
      "Ġitigil": 8188,
      "xy": 8189,
      "esel": 8190,
      "Ġsap": 8191,
      "onekta": 8192,
      "alain": 8193,
      "Ġkumalat": 8194,
      "ĠKomun": 8195,
      "ĠBaka": 8196,
      "Ġyum": 8197,
      "Ġcost": 8198,
      "ligtas": 8199,
      "ĠLP": 8200,
      "idel": 8201,
      "Ġ[...]": 8202,
      "Ġkarakter": 8203,
      "RR": 8204,
      "ĠHum": 8205,
      "estiyon": 8206,
      "ayaring": 8207,
      "Agad": 8208,
      "Ġtela": 8209,
      "upload": 8210,
      "ugal": 8211,
      "ilio": 8212,
      "Ġresponsable": 8213,
      "af": 8214,
      "inoon": 8215,
      "inatnan": 8216,
      "ĠJehova": 8217,
      "Ġnawa": 8218,
      "eso": 8219,
      "Ġaward": 8220,
      "Nitong": 8221,
      "Ġimah": 8222,
      "ĠEdu": 8223,
      "ĠKuwait": 8224,
      "Ġulap": 8225,
      "pen": 8226,
      "Ġinat": 8227,
      "ĠJune": 8228,
      "ĠNakat": 8229,
      "ibilang": 8230,
      "idong": 8231,
      "Ġmagpatuloy": 8232,
      "Ġbinanggit": 8233,
      "wat": 8234,
      "ĠHalos": 8235,
      "Ġsyang": 8236,
      "Ġcock": 8237,
      "Ġibon": 8238,
      "ahating": 8239,
      "worm": 8240,
      "ĠJona": 8241,
      "Ġbillion": 8242,
      "Ġpwesto": 8243,
      "Narito": 8244,
      "Ġkala": 8245,
      "ĠPant": 8246,
      "Ġbumubuo": 8247,
      "abong": 8248,
      "ĠTanging": 8249,
      "adyang": 8250,
      "Ġpamilyang": 8251,
      "Ġpic": 8252,
      "Ġstill": 8253,
      "nance": 8254,
      "Ġpumatay": 8255,
      "Ġtatanggapin": 8256,
      "ĠBig": 8257,
      "Ġfront": 8258,
      "ĠFirst": 8259,
      "Ġnapakaraming": 8260,
      "Ġnagkakaroon": 8261,
      "angkilik": 8262,
      "Ġmananampalataya": 8263,
      "ria": 8264,
      "Ġpaglilingkod": 8265,
      "alidad": 8266,
      "ĠAfr": 8267,
      "iding": 8268,
      "Ġdinisenyo": 8269,
      "Ġhow": 8270,
      "Ġroad": 8271,
      "ĠPangilinan": 8272,
      "dis": 8273,
      "ĠOri": 8274,
      "taon": 8275,
      "Ġsinimulan": 8276,
      "tors": 8277,
      "Ġhydro": 8278,
      "asaluku": 8279,
      "iping": 8280,
      "ĠRamos": 8281,
      "ĠOnline": 8282,
      "ores": 8283,
      "unty": 8284,
      "arlac": 8285,
      "ĠPDEA": 8286,
      "hol": 8287,
      "Ġdosis": 8288,
      "Ġlasa": 8289,
      "Ġpow": 8290,
      "Ġlingg": 8291,
      "anang": 8292,
      "Ġinaresto": 8293,
      "Ġnagpahayag": 8294,
      "Ġresponsibilidad": 8295,
      "alagi": 8296,
      "Ġkumakatawan": 8297,
      "ĠChi": 8298,
      "ĠOrder": 8299,
      "Ġrelihiyos": 8300,
      "Hum": 8301,
      "inalin": 8302,
      "aliw": 8303,
      "Ġkabutihan": 8304,
      "Ġmakabuluhang": 8305,
      "Ġdirektor": 8306,
      "ĠFariseo": 8307,
      "agaw": 8308,
      "ribado": 8309,
      "SWD": 8310,
      "ĠIr": 8311,
      "Sinas": 8312,
      "ĠHen": 8313,
      "Ġterorista": 8314,
      "ĠPuw": 8315,
      "Ġnaririnig": 8316,
      "Ġtradisyonal": 8317,
      "Ġformat": 8318,
      "Ġmagpa": 8319,
      "Paliwanag": 8320,
      "Ġresult": 8321,
      "Ġnaglalayong": 8322,
      "Ġsegundo": 8323,
      "ĠPrin": 8324,
      "ĠNovember": 8325,
      "change": 8326,
      "Ġpananag": 8327,
      "ĠItalya": 8328,
      "Ġmadilim": 8329,
      "ĠNetwork": 8330,
      "Ġmaj": 8331,
      "90": 8332,
      "ournal": 8333,
      "angis": 8334,
      "ĠDem": 8335,
      "ective": 8336,
      "Ġboyfriend": 8337,
      "oliday": 8338,
      "Ġkuya": 8339,
      "Ġkus": 8340,
      "ĠTeam": 8341,
      "ĠAngara": 8342,
      "Ġhinihintay": 8343,
      "Ġthose": 8344,
      "iation": 8345,
      "Ġpupunta": 8346,
      "idence": 8347,
      "iland": 8348,
      "une": 8349,
      "Ġestilo": 8350,
      "Ġlih": 8351,
      "Ġcrim": 8352,
      "ĠMarch": 8353,
      "Kum": 8354,
      "ĠHa": 8355,
      "ecia": 8356,
      "Ġjoint": 8357,
      "ecretary": 8358,
      "Ġpataas": 8359,
      "Ġbuhat": 8360,
      "cue": 8361,
      "Ġapos": 8362,
      "ĠSon": 8363,
      "Ġidinagdag": 8364,
      "Ġpakinabang": 8365,
      "ground": 8366,
      "Ġshoot": 8367,
      "edule": 8368,
      "ĠGold": 8369,
      "ĠManuel": 8370,
      "47": 8371,
      "Ġbakasyon": 8372,
      "inago": 8373,
      "Ġdevelopment": 8374,
      "Ġli": 8375,
      "aliksik": 8376,
      "Ġsumasak": 8377,
      "ĠDeputy": 8378,
      "ĠKatotohanan": 8379,
      "ĠLopez": 8380,
      "ĠLev": 8381,
      "ĠMike": 8382,
      "Ġgun": 8383,
      "Ġsibuyas": 8384,
      "ĠSulu": 8385,
      "Ġmakarating": 8386,
      "Ġchair": 8387,
      "Ġpagpaputi": 8388,
      "Ġjustice": 8389,
      "Ġposs": 8390,
      "Ġnanana": 8391,
      "ĠJuly": 8392,
      "Ġkamang": 8393,
      "gao": 8394,
      "Ġimpeksiyon": 8395,
      "Ġbeing": 8396,
      "Ġic": 8397,
      "Ġwire": 8398,
      "ready": 8399,
      "ampalataya": 8400,
      "ĠChristian": 8401,
      "ĠNapoles": 8402,
      "Ġconcern": 8403,
      "Ġple": 8404,
      "ĠSanta": 8405,
      "bula": 8406,
      "Ġpasasalamat": 8407,
      "ĠNog": 8408,
      "ĠPaghatol": 8409,
      "Ġfarm": 8410,
      "inet": 8411,
      "ĠBicol": 8412,
      "Ġdona": 8413,
      "Ġcut": 8414,
      "ĠEmploy": 8415,
      "ĠFood": 8416,
      "ĠDirek": 8417,
      "die": 8418,
      "Ġproblem": 8419,
      "istrado": 8420,
      "AFP": 8421,
      "atives": 8422,
      "abahala": 8423,
      "Ġstay": 8424,
      "arra": 8425,
      "Ġkabig": 8426,
      "Ġ37": 8427,
      "urol": 8428,
      "ALA": 8429,
      "unsyo": 8430,
      "ĠApril": 8431,
      "Ġvic": 8432,
      "Ġlansang": 8433,
      "Ġsumailalim": 8434,
      "Ġferry": 8435,
      "Ġpoll": 8436,
      "Ġrekomend": 8437,
      "awis": 8438,
      "Ġnatuklasan": 8439,
      "Ġkaturuan": 8440,
      "Ġkabataang": 8441,
      "Ġkarahasan": 8442,
      "Pum": 8443,
      "Ġmode": 8444,
      ":)": 8445,
      "Ġpulutong": 8446,
      "Ġestabl": 8447,
      "diwang": 8448,
      "ĠAlf": 8449,
      "araniwan": 8450,
      "ĠErap": 8451,
      "Ġpila": 8452,
      "Ġusbong": 8453,
      "ahanan": 8454,
      "sin": 8455,
      "apribado": 8456,
      "loc": 8457,
      "Ġsanang": 8458,
      "NPA": 8459,
      "Ġperman": 8460,
      "dinand": 8461,
      "Ġdik": 8462,
      "Ġpaunang": 8463,
      "agitan": 8464,
      "Ġisaalang": 8465,
      "say": 8466,
      "Ġprice": 8467,
      "gusto": 8468,
      "ĠPalawan": 8469,
      "Ġsuliranin": 8470,
      "Ġpangkalahatan": 8471,
      "ĠBitamina": 8472,
      "Ġkarera": 8473,
      "ĠTul": 8474,
      "Ġthree": 8475,
      "Ġpagsusulit": 8476,
      "Ġlalamunan": 8477,
      "osmet": 8478,
      "RE": 8479,
      "rales": 8480,
      "tapos": 8481,
      "Ġoverseas": 8482,
      "ifacio": 8483,
      "ring": 8484,
      "Ġnakam": 8485,
      "ĠPadilla": 8486,
      "Am": 8487,
      "Ġnagw": 8488,
      "Ġkapul": 8489,
      "ĠFrance": 8490,
      "ien": 8491,
      "Ġaaral": 8492,
      "ister": 8493,
      "Ġ2006": 8494,
      "erye": 8495,
      "Ġpool": 8496,
      "Ġgaganapin": 8497,
      "ĠDepEd": 8498,
      "Ġsalarin": 8499,
      "Ġkatagal": 8500,
      "ĠTon": 8501,
      "Ġlalabas": 8502,
      "ĠChristmas": 8503,
      "ĠMary": 8504,
      "ords": 8505,
      "Ġhayaan": 8506,
      "ĠRecto": 8507,
      "Ġhelmint": 8508,
      "Ġpotensyal": 8509,
      "kit": 8510,
      "Ġtani": 8511,
      "uhing": 8512,
      "Ġusa": 8513,
      "ĠLuis": 8514,
      "Ġeksaktong": 8515,
      "Ġterror": 8516,
      "att": 8517,
      "Ġharapin": 8518,
      "mad": 8519,
      "Ġrum": 8520,
      "ĠHall": 8521,
      "Ġsaksi": 8522,
      "Mah": 8523,
      "ĠCup": 8524,
      "anyol": 8525,
      "ĠImm": 8526,
      "esyon": 8527,
      "Ġdalag": 8528,
      "Ġanomang": 8529,
      "Ġdidto": 8530,
      "Ġburat": 8531,
      "ĠHalamang": 8532,
      "Ġordinaryong": 8533,
      "dle": 8534,
      "Ġauto": 8535,
      "Ġnalul": 8536,
      "usunod": 8537,
      "Ġinvestigation": 8538,
      "uthor": 8539,
      "Ġbahagyang": 8540,
      "Ġisagawa": 8541,
      "Ġgiit": 8542,
      "Ġmakinig": 8543,
      "Ġyong": 8544,
      "Ġkaib": 8545,
      "ĠProp": 8546,
      "ĠPay": 8547,
      "Ġlimitasyon": 8548,
      "Ġcaps": 8549,
      "ĠJen": 8550,
      "uho": 8551,
      "Ġpantao": 8552,
      "Ġpandaigdigang": 8553,
      "Ġgul": 8554,
      "Ġmasyado": 8555,
      "agalaw": 8556,
      "tibay": 8557,
      "Ġnegatibong": 8558,
      "LO": 8559,
      "Ġipin": 8560,
      "ĠNe": 8561,
      "ĠTarlac": 8562,
      "Ġpaglal": 8563,
      "Ġugali": 8564,
      "ĠĠĠĠĠĠĠĠ": 8565,
      "ĠMahal": 8566,
      "Ġactress": 8567,
      "Ġlathalaing": 8568,
      "Ġimposible": 8569,
      "Ġtick": 8570,
      "Ġarest": 8571,
      "Ġbany": 8572,
      "Ġkoleksyon": 8573,
      "Ġrebelde": 8574,
      "Ġreally": 8575,
      "dido": 8576,
      "Naging": 8577,
      "Ġkinuk": 8578,
      "trito": 8579,
      "Ġsanaysay": 8580,
      "Ġbalikat": 8581,
      "anggihan": 8582,
      "Ġpaborito": 8583,
      "iam": 8584,
      "Ġbigat": 8585,
      "Ġkaramdaman": 8586,
      "dicine": 8587,
      "indot": 8588,
      "ĠHel": 8589,
      "Ġservices": 8590,
      "Ġnagpas": 8591,
      "Ġmax": 8592,
      "ĠNguni": 8593,
      "Ġsilangan": 8594,
      "ordan": 8595,
      "Ġsangbahayan": 8596,
      "ĠLeyte": 8597,
      "Ġguard": 8598,
      "Ġbilihin": 8599,
      "Ġikinas": 8600,
      "Ġsinak": 8601,
      "igayahan": 8602,
      "ĠSto": 8603,
      "aayos": 8604,
      "ĠGayundin": 8605,
      "ĠBur": 8606,
      "Ġterminal": 8607,
      "usayan": 8608,
      "Ġkitang": 8609,
      "imbak": 8610,
      "Ġsign": 8611,
      "Ġpabrika": 8612,
      "rastr": 8613,
      "ĠJoel": 8614,
      "agn": 8615,
      "arines": 8616,
      "Ġpersonnel": 8617,
      "Ġpagbasa": 8618,
      "Ġ34": 8619,
      "Ġserbisyong": 8620,
      "oroon": 8621,
      "aho": 8622,
      "Ġhul": 8623,
      "dies": 8624,
      "Ġipadala": 8625,
      "Ġiniutos": 8626,
      "ĠNapak": 8627,
      "EO": 8628,
      "ĠICC": 8629,
      "ĠFire": 8630,
      "59": 8631,
      "Ġpaminta": 8632,
      "Ġphys": 8633,
      "Ġmalawakang": 8634,
      "Ġpagbalik": 8635,
      "urrency": 8636,
      "lymp": 8637,
      "amental": 8638,
      "stos": 8639,
      "ĠNograles": 8640,
      "Ġabi": 8641,
      "Ġhay": 8642,
      "Ġbangka": 8643,
      "icide": 8644,
      "Ġrelief": 8645,
      "ĠSr": 8646,
      "asin": 8647,
      "Ġdengue": 8648,
      "Ġtulay": 8649,
      "Ġsumama": 8650,
      "ĠFed": 8651,
      "portable": 8652,
      "Ġbun": 8653,
      "Ġmatit": 8654,
      "Ġlansangan": 8655,
      "ague": 8656,
      "Ġkaal": 8657,
      "Ib": 8658,
      "trato": 8659,
      "ĠiP": 8660,
      "boy": 8661,
      "GO": 8662,
      "ĠTat": 8663,
      "Ġnaib": 8664,
      "Ġbulang": 8665,
      "ikado": 8666,
      "ulation": 8667,
      "Ġconstr": 8668,
      "Ġlat": 8669,
      "Ġpinagk": 8670,
      "ĠUnit": 8671,
      "ayunin": 8672,
      "Ġmagdagdag": 8673,
      "Ġluha": 8674,
      "ufact": 8675,
      "Ġsqu": 8676,
      "Ġhot": 8677,
      "ĠRay": 8678,
      "Ġbirthday": 8679,
      "iod": 8680,
      "omon": 8681,
      "ĠJudio": 8682,
      "Ġmonths": 8683,
      "ĠVietnam": 8684,
      "ĠYah": 8685,
      "Ġsuplemento": 8686,
      "rad": 8687,
      "Ġskin": 8688,
      "Ġtiw": 8689,
      "Ġhuw": 8690,
      "uod": 8691,
      "Ġpaghuh": 8692,
      "Nagp": 8693,
      "Ġtiket": 8694,
      "Ġpm": 8695,
      "abayaan": 8696,
      "Ġtapusin": 8697,
      "Ġpagkakal": 8698,
      "Ġbalbula": 8699,
      "Ġkain": 8700,
      "Ġsasakyang": 8701,
      "Ġsahig": 8702,
      "ikina": 8703,
      "Ġnakasal": 8704,
      "agda": 8705,
      "Ġpropert": 8706,
      "ĠMadalas": 8707,
      "Ġvolunte": 8708,
      "Ġbumisita": 8709,
      "ĠPBA": 8710,
      "ĠSci": 8711,
      "Ġakda": 8712,
      "Ġ39": 8713,
      "Ġproblemang": 8714,
      "Ġbinili": 8715,
      "ĠJob": 8716,
      "Ġstory": 8717,
      "Ġtagalog": 8718,
      "Ġtiy": 8719,
      "Ġganoong": 8720,
      "Ġcollege": 8721,
      "Ġpagpupulong": 8722,
      "ONA": 8723,
      "ĠMILF": 8724,
      "Ġ44": 8725,
      "Ġmatuto": 8726,
      "Ġcur": 8727,
      "ĠMismo": 8728,
      "Ġabala": 8729,
      "Ġkalahating": 8730,
      "adh": 8731,
      "ĠVictor": 8732,
      "Ġopsyon": 8733,
      "Ġmagagawang": 8734,
      "ĠSports": 8735,
      "abangan": 8736,
      "Ġingay": 8737,
      "ĠTour": 8738,
      "Ġnasabi": 8739,
      "Ġmaih": 8740,
      "Ġflo": 8741,
      "ornia": 8742,
      "arihoh": 8743,
      "Ġtana": 8744,
      "Ġnetizen": 8745,
      "clus": 8746,
      "Ġmakasal": 8747,
      "ĠPartido": 8748,
      "Ġstandard": 8749,
      "Ġngiti": 8750,
      "Ġtulog": 8751,
      "Ġnagka": 8752,
      "Ġ196": 8753,
      "Ġanang": 8754,
      "ĠVen": 8755,
      "resulta": 8756,
      "alubong": 8757,
      "Ġkaanak": 8758,
      "Ġderby": 8759,
      "Ġmamaya": 8760,
      "ĠUSA": 8761,
      "ĠRoy": 8762,
      "Ġcastor": 8763,
      "HIN": 8764,
      "Ġprojects": 8765,
      "ĠPaa": 8766,
      "Ġkinakaharap": 8767,
      "ĠSiguro": 8768,
      "orthern": 8769,
      "publish": 8770,
      "ĠSob": 8771,
      "Ġexpl": 8772,
      "Ġarmadong": 8773,
      "ĠTop": 8774,
      "Maaaring": 8775,
      "ihis": 8776,
      "ennis": 8777,
      "sl": 8778,
      "Ġpattern": 8779,
      "hain": 8780,
      "ibat": 8781,
      "kaya": 8782,
      "ahada": 8783,
      "Ġadvan": 8784,
      "ĠPNoy": 8785,
      "Ġyuma": 8786,
      "Ġsery": 8787,
      "ĠHarry": 8788,
      "ĠLeader": 8789,
      "ipikasyon": 8790,
      "inaliwanag": 8791,
      "porter": 8792,
      "Ġyoung": 8793,
      "Ġtiyakin": 8794,
      "LA": 8795,
      "ĠaEUR": 8796,
      "Ġdrive": 8797,
      "Man": 8798,
      "iisang": 8799,
      "Ġrekomendasyon": 8800,
      "Ġpindutin": 8801,
      "Ġdamb": 8802,
      "Ġtubo": 8803,
      "Sino": 8804,
      "Ġspokesman": 8805,
      "Ġpare": 8806,
      "Ġnagsabing": 8807,
      "ĠFerdinand": 8808,
      "Ġfinal": 8809,
      "Ġagham": 8810,
      "ĠMemor": 8811,
      "ustisya": 8812,
      "ĠOriental": 8813,
      "ĠAbr": 8814,
      "Ġjack": 8815,
      "ii": 8816,
      "inl": 8817,
      "Ġduring": 8818,
      "Ġlakad": 8819,
      "ĠTinat": 8820,
      "ulaan": 8821,
      "Ġbigyang": 8822,
      "atic": 8823,
      "Philipp": 8824,
      "Ġtans": 8825,
      "umpara": 8826,
      "Nas": 8827,
      "Ġmikozan": 8828,
      "Ġisinampa": 8829,
      "ĠLalo": 8830,
      "ĠKorean": 8831,
      "Ġkapat": 8832,
      "alleng": 8833,
      "Ġmasasamang": 8834,
      "ĠRol": 8835,
      "Ġgayo": 8836,
      "Kami": 8837,
      "Ġkapas": 8838,
      "Ġsingle": 8839,
      "Ġemployer": 8840,
      "Ġavail": 8841,
      "Ġtrak": 8842,
      "Ġipaliwanag": 8843,
      "Ġtransaksyon": 8844,
      "Gum": 8845,
      "ugi": 8846,
      "car": 8847,
      "Ġspokesperson": 8848,
      "ĠAguirre": 8849,
      "Ġsame": 8850,
      "irmahan": 8851,
      "Ġmurder": 8852,
      "Ġmic": 8853,
      "ekan": 8854,
      "ĠSir": 8855,
      "Ġextension": 8856,
      "inic": 8857,
      "Ġmangag": 8858,
      "cio": 8859,
      "Ġnakukuha": 8860,
      "Ġpagkam": 8861,
      "Ġnagsagawa": 8862,
      "anueva": 8863,
      "Ġanalog": 8864,
      "ĠGame": 8865,
      "ĠLorenz": 8866,
      "Ġball": 8867,
      "ĠDigong": 8868,
      "Ġham": 8869,
      "ĠTON": 8870,
      "Ġkategorya": 8871,
      "ingay": 8872,
      "ified": 8873,
      "duct": 8874,
      "Ġkabuluhan": 8875,
      "ersecretary": 8876,
      "Ġnatutunan": 8877,
      "Ġnabuo": 8878,
      "Ġngayo": 8879,
      "ece": 8880,
      "ĠTuntunin": 8881,
      "Ġkadal": 8882,
      "Ġstudent": 8883,
      "cast": 8884,
      "Ġbent": 8885,
      "âĢĭ": 8886,
      "bu": 8887,
      "ĠVir": 8888,
      "Ġoperator": 8889,
      "Ġimportante": 8890,
      "lingkod": 8891,
      "ĠJordan": 8892,
      "Ġlima": 8893,
      "ĠBlue": 8894,
      "Ġintegr": 8895,
      "igsa": 8896,
      "alifornia": 8897,
      "ĠLitrato": 8898,
      "Ġpinakahuling": 8899,
      "ĠJay": 8900,
      "Ġpinamum": 8901,
      "kuw": 8902,
      "onan": 8903,
      "Ġcross": 8904,
      "Ġsinaunang": 8905,
      "Ġpinagt": 8906,
      "Ġkaliwang": 8907,
      "Ġbaybay": 8908,
      "ugol": 8909,
      "ĠPresyo": 8910,
      "Ġtea": 8911,
      "ĠBonifacio": 8912,
      "ĠDag": 8913,
      "ĠDaan": 8914,
      "ukt": 8915,
      "Ġkarangalan": 8916,
      "ĠNangang": 8917,
      "Ġevac": 8918,
      "Ġmakapal": 8919,
      "ĠConc": 8920,
      "ĠRoma": 8921,
      "IY": 8922,
      "Ġmagsanay": 8923,
      "ĠCamarines": 8924,
      "Ġpuwang": 8925,
      "Halamang": 8926,
      "ĠCord": 8927,
      "Tiniyak": 8928,
      "TE": 8929,
      "Ġnananatiling": 8930,
      "Ġdomestic": 8931,
      "ĠNegros": 8932,
      "Ġrev": 8933,
      "ĠMalinaw": 8934,
      "Ġsinasak": 8935,
      "Ġkonstr": 8936,
      "ĠTONITE": 8937,
      "ĠWelfare": 8938,
      "75": 8939,
      "Ġvideos": 8940,
      "Ġbeach": 8941,
      "Ġmananatili": 8942,
      "mak": 8943,
      "ĠNagp": 8944,
      "ĠEnforcement": 8945,
      "ĠHes": 8946,
      "Ġprotesta": 8947,
      "pero": 8948,
      "Ġebidensiya": 8949,
      "?!": 8950,
      "igasig": 8951,
      "Ġmasa": 8952,
      "Ġtemplo": 8953,
      "ĠOlymp": 8954,
      "Ġnaapektuhan": 8955,
      "apela": 8956,
      "Ġbinabayaran": 8957,
      "Ġnagna": 8958,
      "Ġsumulat": 8959,
      "milyong": 8960,
      "uld": 8961,
      "Ġpamagat": 8962,
      "unayang": 8963,
      "ambag": 8964,
      "ĠPuso": 8965,
      "Ġnamon": 8966,
      "agdaan": 8967,
      "Ġtinamaan": 8968,
      "ĠBenjamin": 8969,
      "Ġpesos": 8970,
      "rasya": 8971,
      "Ġinab": 8972,
      "Ġkana": 8973,
      "ĠKaramihan": 8974,
      "tric": 8975,
      "erries": 8976,
      "Ġkapalaran": 8977,
      "icipal": 8978,
      "Ġminamahal": 8979,
      "Ġiglesya": 8980,
      "itungo": 8981,
      "ĠAndal": 8982,
      "Ġpagmamay": 8983,
      "Ġbotante": 8984,
      "ĠHon": 8985,
      "Ġlarawang": 8986,
      "Ġmartial": 8987,
      "ĠThis": 8988,
      "inigarilyo": 8989,
      "Ġsirkulasyong": 8990,
      "Pinas": 8991,
      "apitan": 8992,
      "Ġsumis": 8993,
      "Ġipinalabas": 8994,
      "iwalat": 8995,
      "orts": 8996,
      "ĠPagp": 8997,
      "anyag": 8998,
      "Ġbintana": 8999,
      "ĠArabia": 9000,
      "Ġsaya": 9001,
      "Ġisyung": 9002,
      "ĠVillanueva": 9003,
      "BO": 9004,
      "MO": 9005,
      "ĠHuman": 9006,
      "Ġcancer": 9007,
      "Ġsadyang": 9008,
      "Ġkonstruk": 9009,
      "Ġbili": 9010,
      "ĠHome": 9011,
      "Ġsagutin": 9012,
      "Ġgym": 9013,
      "Ġupdate": 9014,
      "inungalingan": 9015,
      "Ġann": 9016,
      "Ġcelebr": 9017,
      "ĠBol": 9018,
      "ulugang": 9019,
      "ĠEh": 9020,
      "ĠMakatutulong": 9021,
      "Ġgl": 9022,
      "ĠKapuso": 9023,
      "Ġnasaktan": 9024,
      "Ġalb": 9025,
      "plit": 9026,
      "angon": 9027,
      "Ġresearch": 9028,
      "record": 9029,
      "'.": 9030,
      "Ġhanap": 9031,
      "Ġsalapi": 9032,
      "Ġnaiiba": 9033,
      "just": 9034,
      "pris": 9035,
      "Ġdigital": 9036,
      "ĠMataas": 9037,
      "ĠSarah": 9038,
      "Ġswim": 9039,
      "ĠJacob": 9040,
      "ĠAle": 9041,
      "umpiska": 9042,
      "ĠRub": 9043,
      "Ġnagulat": 9044,
      "ĠDes": 9045,
      "Ġfr": 9046,
      "ibit": 9047,
      "Ġfact": 9048,
      "ĠAlan": 9049,
      "etisyon": 9050,
      "Ġsince": 9051,
      "Ġrehabilit": 9052,
      "Ġnakalagay": 9053,
      "Ġsiguradong": 9054,
      "IK": 9055,
      "Ġbalitang": 9056,
      "Ġmalas": 9057,
      "ĠNAIA": 9058,
      "Ġkahusayan": 9059,
      "ibayan": 9060,
      "Ġregulasyon": 9061,
      "Ġsert": 9062,
      "Ġtumatagal": 9063,
      "tas": 9064,
      "akbay": 9065,
      "xia": 9066,
      "Ġipahayag": 9067,
      "utukan": 9068,
      "inkarihoh": 9069,
      ".'": 9070,
      "Ġsusi": 9071,
      "ulate": 9072,
      "Ġcover": 9073,
      "Ġpagkakaisa": 9074,
      "Ġrepresent": 9075,
      "],": 9076,
      "stitut": 9077,
      "ĠAmerican": 9078,
      "inabangan": 9079,
      "Ġnight": 9080,
      "ayaang": 9081,
      "Ġav": 9082,
      "Ġcases": 9083,
      "hot": 9084,
      "ondon": 9085,
      "Ġpagpapahinga": 9086,
      "ox": 9087,
      "Ġpayagan": 9088,
      "ĠHot": 9089,
      "Ġmala": 9090,
      "Ġnakarating": 9091,
      "Ġtalata": 9092,
      "Ġkel": 9093,
      "Ġlumahok": 9094,
      "Ġmasayang": 9095,
      "Ġnutrisyon": 9096,
      "abawasan": 9097,
      "Ipinag": 9098,
      "ĠKabataan": 9099,
      "ĠCel": 9100,
      "ĠGood": 9101,
      "ĠâĢĿ": 9102,
      "prot": 9103,
      "edyul": 9104,
      "HO": 9105,
      "Ġkusang": 9106,
      "ĠIpina": 9107,
      "file": 9108,
      "Ġmamamatay": 9109,
      "arma": 9110,
      "Ġlock": 9111,
      "itikal": 9112,
      "Ġbuilding": 9113,
      "ĠSection": 9114,
      "ulok": 9115,
      "vince": 9116,
      "Ġkatas": 9117,
      "ĠTok": 9118,
      "Ġbote": 9119,
      "ipunang": 9120,
      "kah": 9121,
      "Ġpagpapanatili": 9122,
      "ĠIS": 9123,
      "kong": 9124,
      "Ġkanino": 9125,
      "ubhasa": 9126,
      "celona": 9127,
      "Ġkabuhayan": 9128,
      "Ġkumikilos": 9129,
      "Ġkakaiba": 9130,
      "ukuyin": 9131,
      "ffer": 9132,
      "usong": 9133,
      "tay": 9134,
      "ĠAbraham": 9135,
      "itional": 9136,
      "bat": 9137,
      "kus": 9138,
      "ĠGlobal": 9139,
      "ĠCla": 9140,
      "ĠTondo": 9141,
      "ĠLTFRB": 9142,
      "Ġnakakaapekto": 9143,
      "enew": 9144,
      "Ġklima": 9145,
      "atingin": 9146,
      "Ġnoo": 9147,
      "oridad": 9148,
      "pekto": 9149,
      "alahanin": 9150,
      "Ġbomb": 9151,
      "Ġmalaya": 9152,
      "Ġmahihina": 9153,
      "Ġkalahok": 9154,
      "ĠSerbisyo": 9155,
      "ulayan": 9156,
      "ĠLab": 9157,
      "Ġpananagutan": 9158,
      "Ġkinok": 9159,
      "ĠOcc": 9160,
      "Ġdemon": 9161,
      "Ġsuk": 9162,
      "Ġnaglalakad": 9163,
      "ĠAngeles": 9164,
      "atu": 9165,
      "Ġgub": 9166,
      "Ġlibu": 9167,
      "Ġpalay": 9168,
      "Ġnahulog": 9169,
      "Ġpagpapagamot": 9170,
      "Ġmatigas": 9171,
      "Ġbinuksan": 9172,
      "Ġitinanggi": 9173,
      "Ġmagsisimula": 9174,
      "iktima": 9175,
      "Ġradyo": 9176,
      "Ġpositibo": 9177,
      "cy": 9178,
      "ercise": 9179,
      "Ġadvanced": 9180,
      "Ġmem": 9181,
      "nes": 9182,
      "ĠVer": 9183,
      "ĠRosario": 9184,
      "Ġassistance": 9185,
      "awanan": 9186,
      "ahim": 9187,
      "Ġapostol": 9188,
      "untang": 9189,
      "Ġnurse": 9190,
      "42": 9191,
      "Ġinsurance": 9192,
      "iles": 9193,
      "ĠNagl": 9194,
      "ĠMer": 9195,
      "Ð¸": 9196,
      "Ġnabuhay": 9197,
      "Ġhandang": 9198,
      "Ġrespond": 9199,
      "Ġpangm": 9200,
      "Ġpilak": 9201,
      "ugasan": 9202,
      "Ġexperience": 9203,
      "Ġnasas": 9204,
      "Ġnahaharap": 9205,
      "Ġmaipag": 9206,
      "Ġnagdudulot": 9207,
      "Ġiwasan": 9208,
      "ĠEduardo": 9209,
      "Ġgumana": 9210,
      "ĠAgric": 9211,
      "import": 9212,
      "Ġestr": 9213,
      "àª": 9214,
      "akatuparan": 9215,
      "Ġpamamaril": 9216,
      "Ġgastusin": 9217,
      "ĠBest": 9218,
      "ĠServices": 9219,
      "pop": 9220,
      "Ġthrough": 9221,
      "ational": 9222,
      "ĠOctober": 9223,
      "Ġdumarating": 9224,
      "ĠPatuloy": 9225,
      "ilosop": 9226,
      "Ġcomplaint": 9227,
      "Ġgutom": 9228,
      "iance": 9229,
      "ences": 9230,
      "Ġbeauty": 9231,
      "apagkat": 9232,
      "resh": 9233,
      "Ġmalayang": 9234,
      "usga": 9235,
      "hangang": 9236,
      "trac": 9237,
      "Ġglobal": 9238,
      "ĠQC": 9239,
      "Un": 9240,
      "Ġsalamin": 9241,
      "acion": 9242,
      "Ġpagbabagong": 9243,
      "rolyo": 9244,
      "apak": 9245,
      "bol": 9246,
      "asco": 9247,
      "agip": 9248,
      "Ġgarant": 9249,
      "unto": 9250,
      "ĠMarikina": 9251,
      "tand": 9252,
      "Ġeconomic": 9253,
      "ĠJimenez": 9254,
      "ees": 9255,
      "Napag": 9256,
      "Ġpundasyon": 9257,
      "Ġnabigyan": 9258,
      "ĠSmart": 9259,
      "ĠGatch": 9260,
      "Ġnaiwan": 9261,
      "41": 9262,
      "ĠIslamic": 9263,
      "Ġpumapasok": 9264,
      "alaya": 9265,
      "ĠPL": 9266,
      "Ġpalip": 9267,
      "ĠPen": 9268,
      "ĠBangk": 9269,
      "ĠSit": 9270,
      "ĠNiyang": 9271,
      "uage": 9272,
      "ĠCompany": 9273,
      "Ġrequire": 9274,
      "usig": 9275,
      "ĠAlamin": 9276,
      "Juan": 9277,
      "weh": 9278,
      "ĠVP": 9279,
      "Ġmekan": 9280,
      "hala": 9281,
      "Ġinstitusyon": 9282,
      "abon": 9283,
      "ĠSem": 9284,
      "ĠCook": 9285,
      "Ġkabayo": 9286,
      "astong": 9287,
      "Ġheart": 9288,
      "ibre": 9289,
      "ĠKons": 9290,
      "Ġdipl": 9291,
      "ĠCalifornia": 9292,
[...]
