{
  "version": "1.0",
  "truncation": {
    "direction": "Right",
    "max_length": 512,
    "strategy": "LongestFirst",
    "stride": 0
  },
  "padding": {
    "strategy": {
      "Fixed": 512
    },
    "direction": "Right",
    "pad_to_multiple_of": null,
    "pad_id": 0,
    "pad_type_id": 0,
    "pad_token": "[PAD]"
  },
  "added_tokens": [
    {
      "id": 0,
      "content": "[PAD]",
      "single_word": false,
      "lstrip": false,
      "rstrip": false,
      "normalized": false,
      "special": true
    },
    {
      "id": 100,
      "content": "[UNK]",
      "single_word": false,
      "lstrip": false,
      "rstrip": false,
      "normalized": false,
      "special": true
    },
    {
      "id": 101,
      "content": "[CLS]",
      "single_word": false,
      "lstrip": false,
      "rstrip": false,
      "normalized": false,
      "special": true
    },
    {
      "id": 102,
      "content": "[SEP]",
      "single_word": false,
      "lstrip": false,
      "rstrip": false,
      "normalized": false,
      "special": true
    },
    {
      "id": 103,
      "content": "[MASK]",
      "single_word": false,
      "lstrip": false,
      "rstrip": false,
      "normalized": false,
      "special": true
    }
  ],
  "normalizer": {
    "type": "BertNormalizer",
    "clean_text": true,
    "handle_chinese_chars": true,
    "strip_accents": null,
    "lowercase": false
  },
  "pre_tokenizer": {
    "type": "BertPreTokenizer"
  },
  "post_processor": {
    "type": "TemplateProcessing",
    "single": [
      {
        "SpecialToken": {
          "id": "[CLS]",
          "type_id": 0
        }
      },
      {
        "Sequence": {
          "id": "A",
          "type_id": 0
        }
      },
      {
        "SpecialToken": {
          "id": "[SEP]",
          "type_id": 0
        }
      }
    ],
    "pair": [
      {
        "SpecialToken": {
          "id": "[CLS]",
          "type_id": 0
        }
      },
      {
        "Sequence": {
          "id": "A",
          "type_id": 0
        }
      },
      {
        "SpecialToken": {
          "id": "[SEP]",
          "type_id": 0
        }
      },
      {
        "Sequence": {
          "id": "B",
          "type_id": 1
        }
      },
      {
        "SpecialToken": {
          "id": "[SEP]",
          "type_id": 1
        }
      }
    ],
    "special_tokens": {
      "[CLS]": {
        "id": "[CLS]",
        "ids": [
          101
        ],
        "tokens": [
          "[CLS]"
        ]
      },
      "[SEP]": {
        "id": "[SEP]",
        "ids": [
          102
        ],
        "tokens": [
          "[SEP]"
        ]
      }
    }
  },
  "decoder": {
    "type": "WordPiece",
    "prefix": "##",
    "cleanup": true
  },
  "model": {
    "type": "WordPiece",
    "unk_token": "[UNK]",
    "continuing_subword_prefix": "##",
    "max_input_chars_per_word": 100,
    "vocab": {
      "[PAD]": 0,
      "[unused1]": 1,
      "[unused2]": 2,
      "[unused3]": 3,
      "[unused4]": 4,
      "[unused5]": 5,
      "[unused6]": 6,
      "[unused7]": 7,
      "[unused8]": 8,
      "[unused9]": 9,
      "[unused10]": 10,
      "[unused11]": 11,
      "[unused12]": 12,
      "[unused13]": 13,
      "[unused14]": 14,
      "[unused15]": 15,
      "[unused16]": 16,
      "[unused17]": 17,
      "[unused18]": 18,
      "[unused19]": 19,
      "[unused20]": 20,
      "[unused21]": 21,
      "[unused22]": 22,
      "[unused23]": 23,
      "[unused24]": 24,
      "[unused25]": 25,
      "[unused26]": 26,
      "[unused27]": 27,
      "[unused28]": 28,
      "[unused29]": 29,
      "[unused30]": 30,
      "[unused31]": 31,
      "[unused32]": 32,
      "[unused33]": 33,
      "[unused34]": 34,
      "[unused35]": 35,
      "[unused36]": 36,
      "[unused37]": 37,
      "[unused38]": 38,
      "[unused39]": 39,
      "[unused40]": 40,
      "[unused41]": 41,
      "[unused42]": 42,
      "[unused43]": 43,
      "[unused44]": 44,
      "[unused45]": 45,
      "[unused46]": 46,
      "[unused47]": 47,
      "[unused48]": 48,
      "[unused49]": 49,
      "[unused50]": 50,
      "[unused51]": 51,
      "[unused52]": 52,
      "[unused53]": 53,
      "[unused54]": 54,
      "[unused55]": 55,
      "[unused56]": 56,
      "[unused57]": 57,
      "[unused58]": 58,
      "[unused59]": 59,
      "[unused60]": 60,
      "[unused61]": 61,
      "[unused62]": 62,
      "[unused63]": 63,
      "[unused64]": 64,
      "[unused65]": 65,
      "[unused66]": 66,
      "[unused67]": 67,
      "[unused68]": 68,
      "[unused69]": 69,
      "[unused70]": 70,
      "[unused71]": 71,
      "[unused72]": 72,
      "[unused73]": 73,
      "[unused74]": 74,
      "[unused75]": 75,
      "[unused76]": 76,
      "[unused77]": 77,
      "[unused78]": 78,
      "[unused79]": 79,
      "[unused80]": 80,
      "[unused81]": 81,
      "[unused82]": 82,
      "[unused83]": 83,
      "[unused84]": 84,
      "[unused85]": 85,
      "[unused86]": 86,
      "[unused87]": 87,
      "[unused88]": 88,
      "[unused89]": 89,
      "[unused90]": 90,
      "[unused91]": 91,
      "[unused92]": 92,
      "[unused93]": 93,
      "[unused94]": 94,
      "[unused95]": 95,
      "[unused96]": 96,
      "[unused97]": 97,
      "[unused98]": 98,
      "[unused99]": 99,
      "[UNK]": 100,
      "[CLS]": 101,
      "[SEP]": 102,
      "[MASK]": 103,
      "ng": 104,
      "ang": 105,
      "na": 106,
      "sa": 107,
      "an": 108,
      "##m": 109,
      "##p": 110,
      "##ng": 111,
      "##na": 112,
      "at": 113,
      "##sa": 114,
      "ga": 115,
      "la": 116,
      "ka": 117,
      "ay": 118,
      "ag": 119,
      "##i": 120,
      "##,": 121,
      "##mga": 122,
      "##ang": 123,
      "li": 124,
      "in": 125,
      "si": 126,
      "on": 127,
      "ong": 128,
      "ar": 129,
      "##ay": 130,
      "##b": 131,
      "it": 132,
      "##t": 133,
      "##k": 134,
      "##ka": 135,
      "##at": 136,
      "##A": 137,
      "##pag": 138,
      "am": 139,
      "##n": 140,
      "al": 141,
      "er": 142,
      "ina": 143,
      "ing": 144,
      "##d": 145,
      "ya": 146,
      "il": 147,
      "##@": 148,
      "-@": 149,
      "##@-@": 150,
      "to": 151,
      "##S": 152,
      "sang": 153,
      "##h": 154,
      "##ma": 155,
      "um": 156,
      "ba": 157,
      "un": 158,
      "##o": 159,
      "##P": 160,
      "en": 161,
      "##si": 162,
      "ala": 163,
      "##M": 164,
      "##Ang": 165,
      "st": 166,
      "##isang": 167,
      "ul": 168,
      "ap": 169,
      "ah": 170,
      "ro": 171,
      "as": 172,
      "##I": 173,
      "ri": 174,
      "##(": 175,
      "##)": 176,
      "es": 177,
      "##K": 178,
      "##s": 179,
      "di": 180,
      "ula": 181,
      "##nag": 182,
      "##B": 183,
      "os": 184,
      "ilang": 185,
      "##*": 186,
      "yon": 187,
      "##ni": 188,
      "##pang": 189,
      "##1": 190,
      "ik": 191,
      "ana": 192,
      "or": 193,
      "ak": 194,
      "ig": 195,
      "ad": 196,
      "aw": 197,
      "##\"": 198,
      "##N": 199,
      "##H": 200,
      "is": 201,
      "##T": 202,
      "lo": 203,
      "us": 204,
      "ung": 205,
      "yang": 206,
      "##la": 207,
      "hi": 208,
      "##=": 209,
      "re": 210,
      "##C": 211,
      "ali": 212,
      "##ito": 213,
      "om": 214,
      "##kan": 215,
      "ut": 216,
      "yo": 217,
      "ur": 218,
      "##g": 219,
      "le": 220,
      "##D": 221,
      "##ta": 222,
      "##E": 223,
      "bi": 224,
      "uk": 225,
      "##L": 226,
      "##may": 227,
      "ti": 228,
      "##e": 229,
      "##pam": 230,
      "wa": 231,
      "up": 232,
      "##par": 233,
      "##G": 234,
      "ila": 235,
      "ug": 236,
      "oong": 237,
      "ta": 238,
      "##kat": 239,
      "od": 240,
      "##R": 241,
      "ub": 242,
      "##l": 243,
      "el": 244,
      "##:": 245,
      "indi": 246,
      "##2": 247,
      "han": 248,
      "##mag": 249,
      "ra": 250,
      "ili": 251,
      "im": 252,
      "##bilang": 253,
      "ito": 254,
      "##pina": 255,
      "una": 256,
      "and": 257,
      "ol": 258,
      "em": 259,
      "ab": 260,
      "kat": 261,
      "##hindi": 262,
      "##in": 263,
      "ot": 264,
      "ari": 265,
      "yan": 266,
      "man": 267,
      "##ga": 268,
      "##noong": 269,
      "ek": 270,
      "##Sa": 271,
      "aga": 272,
      "yong": 273,
      "et": 274,
      "##r": 275,
      "pag": 276,
      "uw": 277,
      "op": 278,
      "ma": 279,
      "ati": 280,
      "##pagka": 281,
      "ran": 282,
      "##19": 283,
      "wang": 284,
      "mit": 285,
      "##para": 286,
      "uh": 287,
      "lang": 288,
      "ent": 289,
      "ok": 290,
      "##mula": 291,
      "##w": 292,
      "pap": 293,
      "##li": 294,
      "bang": 295,
      "##a": 296,
      "##'": 297,
      "id": 298,
      "syon": 299,
      "##kasa": 300,
      "##naka": 301,
      "ob": 302,
      "itan": 303,
      "##pa": 304,
      "san": 305,
      "alang": 306,
      "##mat": 307,
      "mp": 308,
      "##J": 309,
      "mang": 310,
      "##re": 311,
      "gang": 312,
      "ant": 313,
      "uli": 314,
      "##pana": 315,
      "ib": 316,
      "pina": 317,
      "##U": 318,
      "ir": 319,
      "##kung": 320,
      "kal": 321,
      "##nito": 322,
      "lak": 323,
      "inat": 324,
      "##kap": 325,
      "00": 326,
      "lik": 327,
      "ed": 328,
      "##up": 329,
      "##c": 330,
      "ano": 331,
      "##nang": 332,
      "##tao": 333,
      "##di": 334,
      "ahil": 335,
      "##iba": 336,
      "ha": 337,
      "he": 338,
      "##it": 339,
      "unang": 340,
      "##pan": 341,
      "uan": 342,
      "do": 343,
      "##upang": 344,
      "##O": 345,
      "ic": 346,
      "og": 347,
      "oy": 348,
      "##F": 349,
      "##kanyang": 350,
      "da": 351,
      "ip": 352,
      "iko": 353,
      "##).": 354,
      "aring": 355,
      "iya": 356,
      "##siya": 357,
      "##ar": 358,
      "ayan": 359,
      "ep": 360,
      "mo": 361,
      "eg": 362,
      "dad": 363,
      "##pro": 364,
      "##V": 365,
      "##ban": 366,
      "ata": 367,
      "ini": 368,
      "##kar": 369,
      "awan": 370,
      "eo": 371,
      "kas": 372,
      "uri": 373,
      "lit": 374,
      "ino": 375,
      "les": 376,
      "##pamam": 377,
      "##mas": 378,
      "tat": 379,
      "##bah": 380,
      "##W": 381,
      "##hang": 382,
      "ulad": 383,
      "awag": 384,
      "##tum": 385,
      "aba": 386,
      "##Pili": 387,
      "##mala": 388,
      "##dahil": 389,
      "##gina": 390,
      "aram": 391,
      "##maa": 392,
      "##kay": 393,
      "hang": 394,
      "##May": 395,
      "ud": 396,
      "##isa": 397,
      "##an": 398,
      "##rin": 399,
      "##nasa": 400,
      "hat": 401,
      "gamit": 402,
      "##Ing": 403,
      "##sina": 404,
      "##ibang": 405,
      "##pinaka": 406,
      "ter": 407,
      "iyang": 408,
      "ilala": 409,
      "##kanilang": 410,
      "siya": 411,
      "##lo": 412,
      "pan": 413,
      "##maka": 414,
      "alan": 415,
      "##kab": 416,
      "lala": 417,
      "##Si": 418,
      "ia": 419,
      "##ika": 420,
      "atay": 421,
      "pa": 422,
      "ika": 423,
      "##din": 424,
      "ling": 425,
      "##;": 426,
      "ago": 427,
      "uro": 428,
      "ita": 429,
      "ban": 430,
      "##3": 431,
      "gay": 432,
      "ulat": 433,
      "bo": 434,
      "##lamang": 435,
      "##dala": 436,
      "##pagpap": 437,
      "##sum": 438,
      "##lum": 439,
      "##ak": 440,
      "nan": 441,
      "te": 442,
      "so": 443,
      "roon": 444,
      "und": 445,
      "asyon": 446,
      "agi": 447,
      "##panah": 448,
      "##Un": 449,
      "sasa": 450,
      "##Ingles": 451,
      "bas": 452,
      "ero": 453,
      "##kah": 454,
      "##maaaring": 455,
      "asa": 456,
      "##San": 457,
      "##kala": 458,
      "ch": 459,
      "uhay": 460,
      "pinas": 461,
      "unit": 462,
      "##In": 463,
      "ulo": 464,
      "##tinat": 465,
      "uo": 466,
      "##niya": 467,
      "agitan": 468,
      "ko": 469,
      "str": 470,
      "##f": 471,
      "##um": 472,
      "inang": 473,
      "anak": 474,
      "mula": 475,
      "##Pilipinas": 476,
      "eng": 477,
      "sod": 478,
      "siyon": 479,
      "##pamamagitan": 480,
      "##kon": 481,
      "ulang": 482,
      "apat": 483,
      "unan": 484,
      "anda": 485,
      "apos": 486,
      "mba": 487,
      "usa": 488,
      "isi": 489,
      "sta": 490,
      "ungsod": 491,
      "res": 492,
      "lan": 493,
      "lat": 494,
      "##pagkaka": 495,
      "##hanggang": 496,
      "wala": 497,
      "##ilang": 498,
      "stad": 499,
      "##kaniyang": 500,
      "po": 501,
      "##po": 502,
      "##Ito": 503,
      "ho": 504,
      "lim": 505,
      "yos": 506,
      "hing": 507,
      "ura": 508,
      "lohi": 509,
      "gawa": 510,
      "##Nag": 511,
      "isa": 512,
      "ahala": 513,
      "eks": 514,
      "ugna": 515,
      "##bahagi": 516,
      "ismo": 517,
      "##de": 518,
      "##man": 519,
      "yal": 520,
      "agong": 521,
      "##naging": 522,
      "##Mar": 523,
      "##bansa": 524,
      "##unang": 525,
      "##ek": 526,
      "##or": 527,
      "##maram": 528,
      "bay": 529,
      "##200": 530,
      "##taong": 531,
      "##saan": 532,
      "law": 533,
      "ato": 534,
      "##mah": 535,
      "##kina": 536,
      "##taga": 537,
      "##Ma": 538,
      "##pak": 539,
      "bing": 540,
      "##al": 541,
      "rani": 542,
      "ikang": 543,
      "uga": 544,
      "unod": 545,
      "##panahon": 546,
      "baba": 547,
      "##Noong": 548,
      "lip": 549,
      "sina": 550,
      "ilangan": 551,
      "sis": 552,
      "##baba": 553,
      "##baga": 554,
      "gan": 555,
      "##pagt": 556,
      "ulong": 557,
      "##dalawang": 558,
      "##sin": 559,
      "ating": 560,
      "lin": 561,
      "##lahat": 562,
      "##loob": 563,
      "uno": 564,
      "##is": 565,
      "ahan": 566,
      "angga": 567,
      "##18": 568,
      "ast": 569,
      "log": 570,
      "##nat": 571,
      "##bu": 572,
      "##walang": 573,
      "io": 574,
      "##ngunit": 575,
      "##kum": 576,
      "##tinatawag": 577,
      "##/": 578,
      "hah": 579,
      "##Rom": 580,
      "##20": 581,
      "ulug": 582,
      "ihan": 583,
      "sti": 584,
      "pi": 585,
      "##4": 586,
      "##Pag": 587,
      "ento": 588,
      "##naman": 589,
      "##pinag": 590,
      "##Y": 591,
      "asi": 592,
      "##of": 593,
      "se": 594,
      "##kom": 595,
      "iging": 596,
      "##ipina": 597,
      "abang": 598,
      "##pangka": 599,
      "##bin": 600,
      "bong": 601,
      "atag": 602,
      "long": 603,
      "##pinakam": 604,
      "##gum": 605,
      "##uri": 606,
      "##bat": 607,
      "eb": 608,
      "##nak": 609,
      "##magka": 610,
      "ama": 611,
      "##pat": 612,
      "##Di": 613,
      "igan": 614,
      "##pin": 615,
      "ikong": 616,
      "##taon": 617,
      "##katulad": 618,
      "tor": 619,
      "per": 620,
      "nap": 621,
      "##da": 622,
      "mer": 623,
      "uwal": 624,
      "aman": 625,
      "ukoy": 626,
      "ian": 627,
      "##imp": 628,
      "anan": 629,
      "##5": 630,
      "##maraming": 631,
      "hin": 632,
      "##sari": 633,
      "alaga": 634,
      "go": 635,
      "##itong": 636,
      "itong": 637,
      "##sila": 638,
      "ac": 639,
      "emb": 640,
      "##panana": 641,
      "aka": 642,
      "pat": 643,
      "bigay": 644,
      "ysa": 645,
      "##Is": 646,
      "rap": 647,
      "##karani": 648,
      "##the": 649,
      "pe": 650,
      "nal": 651,
      "##Es": 652,
      "##ginagamit": 653,
      "##Kri": 654,
      "##lalak": 655,
      "##y": 656,
      "uling": 657,
      "alik": 658,
      "bis": 659,
      "pit": 660,
      "alak": 661,
      "##mali": 662,
      "ayag": 663,
      "##nila": 664,
      "##nagpap": 665,
      "unahing": 666,
      "uc": 667,
      "ara": 668,
      "de": 669,
      "agat": 670,
      "stem": 671,
      "##Ayon": 672,
      "##\".": 673,
      "pang": 674,
      "##araw": 675,
      "ene": 676,
      "##mak": 677,
      "onom": 678,
      "##sak": 679,
      "##kam": 680,
      "##Ar": 681,
      "sak": 682,
      "##Hes": 683,
      "##lungsod": 684,
      "ungk": 685,
      "sik": 686,
      "ue": 687,
      "ust": 688,
      "ine": 689,
      "##hali": 690,
      "##pagitan": 691,
      "no": 692,
      "lita": 693,
      "##kasama": 694,
      "uhan": 695,
      "##nam": 696,
      "##pangunahing": 697,
      "##ina": 698,
      "ham": 699,
      "uring": 700,
      "##Pang": 701,
      "##tat": 702,
      "iki": 703,
      "bar": 704,
      "roong": 705,
      "eh": 706,
      "orm": 707,
      "rang": 708,
      "##buhay": 709,
      "##Kap": 710,
      "dala": 711,
      "##anak": 712,
      "ult": 713,
      "yano": 714,
      "unt": 715,
      "dig": 716,
      "ce": 717,
      "##hum": 718,
      "wan": 719,
      "##bum": 720,
      "##pagtat": 721,
      "##dito": 722,
      "uto": 723,
      "##pala": 724,
      "era": 725,
      "ort": 726,
      "##katawan": 727,
      "apon": 728,
      "##es": 729,
      "##pap": 730,
      "##Euro": 731,
      "##An": 732,
      "imog": 733,
      "##buong": 734,
      "lur": 735,
      "##Al": 736,
      "uku": 737,
      "katapos": 738,
      "##Hesus": 739,
      "ensiya": 740,
      "ubuo": 741,
      "##kaya": 742,
      "puan": 743,
      "igit": 744,
      "wal": 745,
      "##ib": 746,
      "undo": 747,
      "##As": 748,
      "aral": 749,
      "##Estad": 750,
      "##gawa": 751,
      "yemb": 752,
      "##6": 753,
      "##Kristi": 754,
      "yari": 755,
      "##babae": 756,
      "ular": 757,
      "uba": 758,
      "##san": 759,
      "##karaniwang": 760,
      "##Z": 761,
      "##Amer": 762,
      "lam": 763,
      "mbawa": 764,
      "lohiya": 765,
      "ci": 766,
      "lika": 767,
      "##karam": 768,
      "##sistem": 769,
      "##Ale": 770,
      "inut": 771,
      "upa": 772,
      "##It": 773,
      "##bagay": 774,
      "##bansang": 775,
      "bol": 776,
      "##:.": 777,
      "eksuwal": 778,
      "rawan": 779,
      "##pags": 780,
      "##pagsasa": 781,
      "litang": 782,
      "awa": 783,
      "ore": 784,
      "sip": 785,
      "hiyon": 786,
      "bab": 787,
      "ver": 788,
      "umang": 789,
      "##pop": 790,
      "laking": 791,
      "##sang": 792,
      "ron": 793,
      "##bayan": 794,
      "##Unid": 795,
      "dag": 796,
      "##Mga": 797,
      "##maging": 798,
      "##mam": 799,
      "##mang": 800,
      "##Ch": 801,
      "##siyang": 802,
      "co": 803,
      "##kasal": 804,
      "##salitang": 805,
      "uka": 806,
      "lek": 807,
      "tong": 808,
      "##wikang": 809,
      "##Hapon": 810,
      "awat": 811,
      "##Mat": 812,
      "##silang": 813,
      "##pangkat": 814,
      "ve": 815,
      "##15": 816,
      "ump": 817,
      "ses": 818,
      "las": 819,
      "ulasyon": 820,
      "##Mari": 821,
      "##pagiging": 822,
      "##Estados": 823,
      "##Unidos": 824,
      "##Ab": 825,
      "##%": 826,
      "tik": 827,
      "##aaral": 828,
      "##pagp": 829,
      "##tulad": 830,
      "ilos": 831,
      "##Sim": 832,
      "alo": 833,
      "ulugan": 834,
      "yembre": 835,
      "##kilala": 836,
      "##kas": 837,
      "##201": 838,
      "ard": 839,
      "##gaya": 840,
      "##mayroong": 841,
      "##ayon": 842,
      "##tungk": 843,
      "##habang": 844,
      "wak": 845,
      "##ser": 846,
      "anggap": 847,
      "ation": 848,
      "est": 849,
      "##ag": 850,
      "bili": 851,
      "##ip": 852,
      "##op": 853,
      "ulan": 854,
      "ist": 855,
      "int": 856,
      "lad": 857,
      "##II": 858,
      "##7": 859,
      "ente": 860,
      "ugnay": 861,
      "dis": 862,
      "qu": 863,
      "bib": 864,
      "inal": 865,
      "##ila": 866,
      "alit": 867,
      "uha": 868,
      "atagpuan": 869,
      "##nakat": 870,
      "##12": 871,
      "##v": 872,
      "aran": 873,
      "ener": 874,
      "##Br": 875,
      "iniwala": 876,
      "##kabilang": 877,
      "liko": 878,
      "##bawat": 879,
      "##sig": 880,
      "ahalaan": 881,
      "igma": 882,
      "ate": 883,
      "000": 884,
      "##Isa": 885,
      "##pum": 886,
      "ikipag": 887,
      "angk": 888,
      "gi": 889,
      "ubalit": 890,
      "##199": 891,
      "dong": 892,
      "ec": 893,
      "##mundo": 894,
      "##nagsi": 895,
      "##estad": 896,
      "##tra": 897,
      "uloy": 898,
      "mper": 899,
      "ungan": 900,
      "wana": 901,
      "##tub": 902,
      "##mil": 903,
      "iba": 904,
      "anong": 905,
      "##Pran": 906,
      "ye": 907,
      "##Ibar": 908,
      "##Mo": 909,
      "##un": 910,
      "##lalaki": 911,
      "##bagong": 912,
      "##dum": 913,
      "##mo": 914,
      "mb": 915,
      "##bago": 916,
      "arian": 917,
      "##Ibarra": 918,
      "lar": 919,
      "##organ": 920,
      "nila": 921,
      "mot": 922,
      "##Ap": 923,
      "##batas": 924,
      "uang": 925,
      "##le": 926,
      "##nagka": 927,
      "##Con": 928,
      "her": 929,
      "##kasaluku": 930,
      "##Pam": 931,
      "ugar": 932,
      "aling": 933,
      "ensi": 934,
      "ilit": 935,
      "##tumut": 936,
      "##kapag": 937,
      "##lalaw": 938,
      "ria": 939,
      "usyon": 940,
      "##gumaga": 941,
      "usi": 942,
      "##isina": 943,
      "igdig": 944,
      "##pangalan": 945,
      "bid": 946,
      "##lugar": 947,
      "##Q": 948,
      "##mata": 949,
      "##Maynila": 950,
      "##pangang": 951,
      "##reli": 952,
      "aya": 953,
      "##Rep": 954,
      "##Maria": 955,
      "ord": 956,
      "ris": 957,
      "duk": 958,
      "lem": 959,
      "onya": 960,
      "##tatlong": 961,
      "##te": 962,
      "rin": 963,
      "##Kast": 964,
      "##Kan": 965,
      "##lalawigan": 966,
      "riya": 967,
      "##inter": 968,
      "tika": 969,
      "##as": 970,
      "##198": 971,
      "##Lungsod": 972,
      "##8": 973,
      "##dam": 974,
      "##esp": 975,
      "##populasyon": 976,
      "##Mon": 977,
      "iti": 978,
      "##ring": 979,
      "atid": 980,
      "##Dahil": 981,
      "bibigay": 982,
      "ugnayan": 983,
      "##and": 984,
      "alam": 985,
      "alya": 986,
      "##ekonom": 987,
      "ayon": 988,
      "##9": 989,
      "##pamp": 990,
      "av": 991,
      "##sarili": 992,
      "##malaking": 993,
      "ego": 994,
      "##lupa": 995,
      "##The": 996,
      "##pagkatapos": 997,
      "##diyos": 998,
      "##bar": 999,
      "ber": 1000,
      "##per": 1001,
      "wanag": 1002,
      "ey": 1003,
      "##Gri": 1004,
      "##ter": 1005,
      "##pagb": 1006,
      "##kapang": 1007,
      "##min": 1008,
      "##nan": 1009,
      "ganap": 1010,
      "##tagapag": 1011,
      "##kaka": 1012,
      "ao": 1013,
      "edi": 1014,
      "##bak": 1015,
      "##aklat": 1016,
      "ulot": 1017,
      "ble": 1018,
      "##Espan": 1019,
      "ysayan": 1020,
      "##16": 1021,
      "##nangang": 1022,
      "iz": 1023,
      "##Kab": 1024,
      "##Diyos": 1025,
      "##bina": 1026,
      "##kin": 1027,
      "##pagla": 1028,
      "##siglo": 1029,
      "ungo": 1030,
      "##naglala": 1031,
      "##tala": 1032,
      "##seksuwal": 1033,
      "##ilalim": 1034,
      "##Hud": 1035,
      "rian": 1036,
      "ehong": 1037,
      "##mab": 1038,
      "apa": 1039,
      "akita": 1040,
      ",000": 1041,
      "##nagp": 1042,
      "##estado": 1043,
      "##Pina": 1044,
      "pek": 1045,
      "##nagsasa": 1046,
      "##mar": 1047,
      "##ap": 1048,
      "nati": 1049,
      "##kal": 1050,
      "andang": 1051,
      "##ding": 1052,
      "##hala": 1053,
      "pino": 1054,
      "iber": 1055,
      "##karamihan": 1056,
      "##kont": 1057,
      "##nab": 1058,
      "##pun": 1059,
      "##laban": 1060,
      "##Europa": 1061,
      "##nakaka": 1062,
      "##sinasa": 1063,
      "##nap": 1064,
      "th": 1065,
      "##10": 1066,
      "yay": 1067,
      "##17": 1068,
      "##Repub": 1069,
      "ayo": 1070,
      "##pamahalaan": 1071,
      "##katang": 1072,
      "git": 1073,
      "ilangang": 1074,
      "uti": 1075,
      "##Sina": 1076,
      "kay": 1077,
      "##Kato": 1078,
      "luran": 1079,
      "##Griy": 1080,
      "##Simba": 1081,
      "##gan": 1082,
      "isyal": 1083,
      "ilagang": 1084,
      "##matatagpuan": 1085,
      "##halimbawa": 1086,
      "mam": 1087,
      "##paggamit": 1088,
      "##ko": 1089,
      "ind": 1090,
      "##bi": 1091,
      "anta": 1092,
      "one": 1093,
      "##pakikipag": 1094,
      "ern": 1095,
      "dam": 1096,
      "##mod": 1097,
      "ram": 1098,
      "##Ag": 1099,
      "##partik": 1100,
      "lig": 1101,
      "utan": 1102,
      "land": 1103,
      "##asa": 1104,
      "kop": 1105,
      "likha": 1106,
      "##Par": 1107,
      "ilan": 1108,
      "##dis": 1109,
      "##Romano": 1110,
      "##res": 1111,
      "hel": 1112,
      "ikal": 1113,
      "##paraan": 1114,
      "##Kastila": 1115,
      "pin": 1116,
      "##sapag": 1117,
      "##wika": 1118,
      "##St": 1119,
      "##Siya": 1120,
      "ca": 1121,
      "ataas": 1122,
      "##Hindi": 1123,
      "ilya": 1124,
      "##pagk": 1125,
      "##14": 1126,
      "ado": 1127,
      "##sakit": 1128,
      "yag": 1129,
      "uz": 1130,
      "##niyang": 1131,
      "##Co": 1132,
      "alat": 1133,
      "##teo": 1134,
      "##Kah": 1135,
      "##197": 1136,
      "##ini": 1137,
      "oto": 1138,
      "ukat": 1139,
      "ulay": 1140,
      "asyong": 1141,
      "##sapagkat": 1142,
      "uso": 1143,
      "##Her": 1144,
      "##Timog": 1145,
      "hirap": 1146,
      "##En": 1147,
      "##hay": 1148,
      "ibli": 1149,
      "##parehong": 1150,
      "##Aleman": 1151,
      "##paghah": 1152,
      "##am": 1153,
      "usan": 1154,
      "ly": 1155,
      "alidad": 1156,
      "enti": 1157,
      "##Ka": 1158,
      "##ant": 1159,
      "hen": 1160,
      "##sumus": 1161,
      "sin": 1162,
      "##Ne": 1163,
      "##gamit": 1164,
      "ador": 1165,
      "##nagt": 1166,
      "him": 1167,
      "##pagkakaroon": 1168,
      "##apat": 1169,
      "##Jo": 1170,
      "sia": 1171,
      "arap": 1172,
      "walay": 1173,
      "end": 1174,
      "##hom": 1175,
      "##panahong": 1176,
      "##Gay": 1177,
      "##tina": 1178,
      "agdag": 1179,
      "inuturing": 1180,
      "ayang": 1181,
      "stant": 1182,
      "nang": 1183,
      "##kasaysayan": 1184,
      "##bata": 1185,
      "##Kristiyano": 1186,
      "##Sam": 1187,
      "##Le": 1188,
      "anging": 1189,
      "##hayop": 1190,
      "##Pab": 1191,
      "##deg": 1192,
      "lahat": 1193,
      "##komp": 1194,
      "##sup": 1195,
      "##est": 1196,
      "isang": 1197,
      "##ab": 1198,
      "ck": 1199,
      "##Isang": 1200,
      "ne": 1201,
      "##tubig": 1202,
      "mong": 1203,
      "ena": 1204,
      "##tungkol": 1205,
      "##anyo": 1206,
      "##194": 1207,
      "##hal": 1208,
      "agang": 1209,
      "##Juan": 1210,
      "ugo": 1211,
      "##dapat": 1212,
      "##Jos": 1213,
      "##agham": 1214,
      "lawang": 1215,
      "##binubuo": 1216,
      "##posi": 1217,
      "##Pablo": 1218,
      "ahayag": 1219,
      "##u": 1220,
      "##pagd": 1221,
      "##So": 1222,
      "lay": 1223,
      "##pagbab": 1224,
      "##higit": 1225,
      "ilosop": 1226,
      "##kapangyari": 1227,
      "##CE": 1228,
      "##Asya": 1229,
      "mant": 1230,
      "##opisyal": 1231,
      "##kahulugan": 1232,
      "ry": 1233,
      "##map": 1234,
      "##lang": 1235,
      "##rep": 1236,
      "##Kat": 1237,
      "ea": 1238,
      "##dating": 1239,
      "asok": 1240,
      "##Na": 1241,
      "yonal": 1242,
      "0.": 1243,
      "##Kabilang": 1244,
      "##kuw": 1245,
      "sil": 1246,
      "##Ak": 1247,
      "atas": 1248,
      "##com": 1249,
      "##sistemang": 1250,
      "rol": 1251,
      "cos": 1252,
      "ton": 1253,
      "alis": 1254,
      "##nina": 1255,
      "paka": 1256,
      "ril": 1257,
      "##Or": 1258,
      "##partikular": 1259,
      "##pagsa": 1260,
      "ser": 1261,
      "##Espanya": 1262,
      "##sinaunang": 1263,
      "##paglala": 1264,
      "##At": 1265,
      "ulugang": 1266,
      "##pant": 1267,
      "##sala": 1268,
      "vi": 1269,
      "##mataas": 1270,
      "##La": 1271,
      "sing": 1272,
      "esa": 1273,
      "##Nang": 1274,
      "##muling": 1275,
      "##subalit": 1276,
      "ei": 1277,
      "##masa": 1278,
      "##nakapag": 1279,
      "ral": 1280,
      "bibilangan": 1281,
      "##Per": 1282,
      "##produk": 1283,
      "unay": 1284,
      "inig": 1285,
      "##nagtat": 1286,
      "##Car": 1287,
      "anah": 1288,
      "##Man": 1289,
      "wi": 1290,
      "##11": 1291,
      "##Bibli": 1292,
      "##Ro": 1293,
      "##kadala": 1294,
      "##Mala": 1295,
      "##Pro": 1296,
      "osto": 1297,
      "##hina": 1298,
      "itik": 1299,
      "##pagkakat": 1300,
      "##Lat": 1301,
      "##malawak": 1302,
      "ultura": 1303,
      "anap": 1304,
      "bah": 1305,
      "son": 1306,
      "##13": 1307,
      "##Val": 1308,
      "##im": 1309,
      "aralan": 1310,
      "##kinabibilangan": 1311,
      "##kahit": 1312,
      "kan": 1313,
      "etro": 1314,
      "##X": 1315,
      "##Mag": 1316,
      "ingg": 1317,
      "##anumang": 1318,
      "ure": 1319,
      "bansang": 1320,
      "##Pilipino": 1321,
      "nana": 1322,
      "##huling": 1323,
      "##Amerik": 1324,
      "unta": 1325,
      "ipan": 1326,
      "sid": 1327,
      "##Indi": 1328,
      "kap": 1329,
      "##dep": 1330,
      "##Katoliko": 1331,
      "adre": 1332,
      "hip": 1333,
      "##pamum": 1334,
      "##ngayon": 1335,
      "ens": 1336,
      "##sumusunod": 1337,
      "##tag": 1338,
      "##siy": 1339,
      "rom": 1340,
      "##kaw": 1341,
      "##pali": 1342,
      "##pisi": 1343,
      "##sel": 1344,
      "unlad": 1345,
      "kt": 1346,
      "##Tsina": 1347,
      "alaking": 1348,
      "unin": 1349,
      "##Gayun": 1350,
      "##Kung": 1351,
      "##pook": 1352,
      "##Re": 1353,
      "zo": 1354,
      "##Kristiyan": 1355,
      "ulta": 1356,
      "##maliit": 1357,
      "alin": 1358,
      "hiya": 1359,
      "laki": 1360,
      "##lip": 1361,
      "##kasapi": 1362,
      "##Isra": 1363,
      "mum": 1364,
      "yayari": 1365,
      "iral": 1366,
      "ikita": 1367,
      "##ipinang": 1368,
      "##no": 1369,
      "##gr": 1370,
      "##kasalukuyang": 1371,
      "aso": 1372,
      "##maga": 1373,
      "urang": 1374,
      "##sek": 1375,
      "##Taga": 1376,
      "##anim": 1377,
      "##bahay": 1378,
      "##buw": 1379,
      "##lin": 1380,
      "lis": 1381,
      "##pangkalahat": 1382,
      "ct": 1383,
      "##Kore": 1384,
      "gal": 1385,
      "rim": 1386,
      "##Griyego": 1387,
      "##BC": 1388,
      "isip": 1389,
      "##tumutukoy": 1390,
      "##una": 1391,
      "stan": 1392,
      "yer": 1393,
      "##itinat": 1394,
      "##196": 1395,
      "sal": 1396,
      "inggil": 1397,
      "lic": 1398,
      "##indi": 1399,
      "##to": 1400,
      "##st": 1401,
      "rik": 1402,
      "##natat": 1403,
      "##Papa": 1404,
      "loob": 1405,
      "##puw": 1406,
      "##Tinat": 1407,
      "atayan": 1408,
      "##itinuturing": 1409,
      "##isin": 1410,
      "uman": 1411,
      "##pilosop": 1412,
      "hala": 1413,
      "##simba": 1414,
      "##Maa": 1415,
      "##nana": 1416,
      "##uma": 1417,
      "ural": 1418,
      "##pagli": 1419,
      "##Imper": 1420,
      "imp": 1421,
      "##}": 1422,
      "awit": 1423,
      "##pagkain": 1424,
      "dang": 1425,
      "ysay": 1426,
      "##nitong": 1427,
      "##Rus": 1428,
      "##katangian": 1429,
      "##Bo": 1430,
      "ilaga": 1431,
      "##timog": 1432,
      "##Ika": 1433,
      "dor": 1434,
      "##big": 1435,
      "##eks": 1436,
      "##pas": 1437,
      "##halos": 1438,
      "##kapangyarihan": 1439,
      "##larang": 1440,
      "##sistema": 1441,
      "ugan": 1442,
      "luw": 1443,
      "litika": 1444,
      "##Bibliya": 1445,
      "##Italya": 1446,
      "ungka": 1447,
      "##Ta": 1448,
      "##{": 1449,
      "bal": 1450,
      "##ama": 1451,
      "##Pransiya": 1452,
      "##Marcos": 1453,
      "banghel": 1454,
      "umbas": 1455,
      "kaka": 1456,
      "##Kon": 1457,
      "simula": 1458,
      "paman": 1459,
      "##De": 1460,
      "inam": 1461,
      "##bagaman": 1462,
      "##ori": 1463,
      "##itina": 1464,
      "##Padre": 1465,
      "mantalang": 1466,
      "disyon": 1467,
      "##pe": 1468,
      "##sanhi": 1469,
      "##bang": 1470,
      "##maba": 1471,
      "nar": 1472,
      "ster": 1473,
      "ahang": 1474,
      "agal": 1475,
      "##tuw": 1476,
      "ugali": 1477,
      "##Po": 1478,
      "##Bagong": 1479,
      "##kapatid": 1480,
      "##Bilang": 1481,
      "##ginamit": 1482,
      "ibig": 1483,
      "##Baga": 1484,
      "##mad": 1485,
      "elo": 1486,
      "##malapit": 1487,
      "##digma": 1488,
      "rit": 1489,
      "isyon": 1490,
      "lipas": 1491,
      "##proses": 1492,
      "##tran": 1493,
      "##Tipan": 1494,
      "rika": 1495,
      "##Hudyo": 1496,
      "##Mus": 1497,
      "##iyon": 1498,
      "##se": 1499,
      "##pinuno": 1500,
      "##makapag": 1501,
      "##kakaya": 1502,
      "##nagmula": 1503,
      "ikilala": 1504,
      "##Kasa": 1505,
      "##gawain": 1506,
      "##wala": 1507,
      "win": 1508,
      "##kamatayan": 1509,
      "##umi": 1510,
      "##pangalang": 1511,
      "##simula": 1512,
      "entong": 1513,
      "antaon": 1514,
      "##Da": 1515,
      "##pre": 1516,
      "ormal": 1517,
      "ork": 1518,
      "siyong": 1519,
      "##sub": 1520,
      "gamot": 1521,
      "pon": 1522,
      "##Ara": 1523,
      "ge": 1524,
      "##Simbahang": 1525,
      "hinal": 1526,
      "##pagsus": 1527,
      "##ebol": 1528,
      "##Bar": 1529,
      "irang": 1530,
      "##ana": 1531,
      "##kag": 1532,
      "##maaari": 1533,
      "raan": 1534,
      "##Pala": 1535,
      "##relihiyon": 1536,
      "##Sal": 1537,
      "##Kom": 1538,
      "##dugo": 1539,
      "##mayroon": 1540,
      "##Digma": 1541,
      "##kil": 1542,
      "##kabu": 1543,
      "ada": 1544,
      "##nangangah": 1545,
      "rong": 1546,
      "way": 1547,
      "uyo": 1548,
      "ismong": 1549,
      "nak": 1550,
      "itnang": 1551,
      "va": 1552,
      "tas": 1553,
      "tom": 1554,
      "bel": 1555,
      "##tem": 1556,
      "banghelyo": 1557,
      "##espes": 1558,
      "##ganitong": 1559,
      "uda": 1560,
      "##tunay": 1561,
      "##Hali": 1562,
      "##Constant": 1563,
      "##Gu": 1564,
      "##kali": 1565,
      "omo": 1566,
      "ulungan": 1567,
      "upo": 1568,
      "##Gayunpaman": 1569,
      "##pres": 1570,
      "uni": 1571,
      "baw": 1572,
      "ros": 1573,
      "##kadalasang": 1574,
      "##ind": 1575,
      "##hin": 1576,
      "lohikal": 1577,
      "syong": 1578,
      "##Dis": 1579,
      "tos": 1580,
      "##milyong": 1581,
      "irahan": 1582,
      "##put": 1583,
      "##pinang": 1584,
      "ental": 1585,
      "##indibid": 1586,
      "bag": 1587,
      "##kaugnayan": 1588,
      "gol": 1589,
      "stit": 1590,
      "##ilan": 1591,
      "##nagsa": 1592,
      "##.": 1593,
      "tili": 1594,
      "##rehiyon": 1595,
      "##Nor": 1596,
      "##salita": 1597,
      "##pagbabago": 1598,
      "sidad": 1599,
      "ht": 1600,
      "rat": 1601,
      "lurang": 1602,
      "uter": 1603,
      "##daigdig": 1604,
      "##ed": 1605,
      "##\\": 1606,
      "bisyon": 1607,
      "##hinggil": 1608,
      "wag": 1609,
      "NA": 1610,
      "art": 1611,
      "tion": 1612,
      "eneral": 1613,
      "##kanluran": 1614,
      "##kaysa": 1615,
      "##Mas": 1616,
      "mon": 1617,
      "##mai": 1618,
      "alagang": 1619,
      "##Lo": 1620,
      "##Naka": 1621,
      "adala": 1622,
      "utub": 1623,
      "ugat": 1624,
      "iling": 1625,
      "baho": 1626,
      "##Hilagang": 1627,
      "##kulay": 1628,
      "##lay": 1629,
      "##Cam": 1630,
      "##halip": 1631,
      "unong": 1632,
      "##tin": 1633,
      "##del": 1634,
      "hiwalay": 1635,
      "oryo": 1636,
      "ote": 1637,
      "##mal": 1638,
      "##magkaka": 1639,
      "anal": 1640,
      "amang": 1641,
      "##makab": 1642,
      "##kons": 1643,
      "##he": 1644,
      "##pamilya": 1645,
      "##195": 1646,
      "##dal": 1647,
      "##antas": 1648,
      "fer": 1649,
      "##ipinanganak": 1650,
      "ty": 1651,
      "##orihinal": 1652,
      "##mamam": 1653,
      "##ad": 1654,
      "usap": 1655,
      "ilitar": 1656,
      "##BCE": 1657,
      "##epek": 1658,
      "labas": 1659,
      "are": 1660,
      "alatay": 1661,
      "##pinakamalaking": 1662,
      "##Islam": 1663,
      "##Maram": 1664,
      "##larangan": 1665,
      "##kla": 1666,
      "##sumasa": 1667,
      "##Jose": 1668,
      "lipunan": 1669,
      "ulit": 1670,
      "##namatay": 1671,
      "kolar": 1672,
      "##pr": 1673,
      "##Luc": 1674,
      "##Halimbawa": 1675,
      "##nagbibigay": 1676,
      "##Roma": 1677,
      "##Amerika": 1678,
      "umpay": 1679,
      "ulin": 1680,
      "##Kaharian": 1681,
      "gas": 1682,
      "##Ehip": 1683,
      "##193": 1684,
      "tura": 1685,
      "ler": 1686,
      "ukod": 1687,
      "##ber": 1688,
      "utas": 1689,
      "iyak": 1690,
      "##Li": 1691,
      "##New": 1692,
      "##asawa": 1693,
      "##pati": 1694,
      "##ekonomiya": 1695,
      "##mapag": 1696,
      "hal": 1697,
      "ase": 1698,
      "##pand": 1699,
      "##ut": 1700,
      "##tek": 1701,
      "kad": 1702,
      "undin": 1703,
      "eta": 1704,
      "##dina": 1705,
      "##nagkaroon": 1706,
      "anib": 1707,
      "mpalatay": 1708,
      "##ibig": 1709,
      "##sukat": 1710,
      "##samantalang": 1711,
      "##lik": 1712,
      "##Fran": 1713,
      "bak": 1714,
      "##homos": 1715,
      "ilalang": 1716,
      "ida": 1717,
      "##marami": 1718,
      "##Mayo": 1719,
      "piko": 1720,
      "##neg": 1721,
      "lekt": 1722,
      "##gawaing": 1723,
      "abot": 1724,
      "##silangan": 1725,
      "##ba": 1726,
      "##Pagkatapos": 1727,
      "taas": 1728,
      "uhang": 1729,
      "udi": 1730,
      "##Silangang": 1731,
      "##pinan": 1732,
      "##Kar": 1733,
      "##25": 1734,
      "##Britan": 1735,
      "##gay": 1736,
      "##gumagamit": 1737,
      "##Nob": 1738,
      "##manlala": 1739,
      "##Eli": 1740,
      "wer": 1741,
      "bin": 1742,
      "##Mateo": 1743,
      "##Ng": 1744,
      "##naga": 1745,
      "##tele": 1746,
      "##huk": 1747,
      "iy": 1748,
      "lohiyang": 1749,
      "hiyong": 1750,
      "##pamamara": 1751,
      "##simbahan": 1752,
      "usang": 1753,
      "##pagh": 1754,
      "##nagd": 1755,
      "##Latin": 1756,
      "##kanila": 1757,
      "##magp": 1758,
      "##bay": 1759,
      "hn": 1760,
      "##tawag": 1761,
      "ela": 1762,
      "ont": 1763,
      "ailangan": 1764,
      "##Ipina": 1765,
      "itang": 1766,
      "##pelik": 1767,
      "##pagsi": 1768,
      "lakbay": 1769,
      "##Gina": 1770,
      "##Tinatawag": 1771,
      "##ginawa": 1772,
      "##paaralan": 1773,
      "##ro": 1774,
      "##alam": 1775,
      "ono": 1776,
      "##napaka": 1777,
      "##Com": 1778,
      "angay": 1779,
      "##pangm": 1780,
      "yente": 1781,
      "wat": 1782,
      "##Ko": 1783,
      "liksik": 1784,
      "##Muslim": 1785,
      "hy": 1786,
      "##pampo": 1787,
      "##Dam": 1788,
      "##term": 1789,
      "##Republika": 1790,
      "emon": 1791,
      "##batay": 1792,
      "onal": 1793,
      "##pulo": 1794,
      "##spe": 1795,
      "ukol": 1796,
      "##tan": 1797,
      "##Nap": 1798,
      "ekto": 1799,
      "enc": 1800,
      "emati": 1801,
      "tic": 1802,
      "##30": 1803,
      "asiwa": 1804,
      "une": 1805,
      "##pananaw": 1806,
      "##so": 1807,
      "##Bagaman": 1808,
      "mperador": 1809,
      "##Kristiyanismo": 1810,
      "rus": 1811,
      "ki": 1812,
      "##21": 1813,
      "bia": 1814,
      "ff": 1815,
      "##Hun": 1816,
      "ober": 1817,
      "asya": 1818,
      "##pagbaba": 1819,
      "igil": 1820,
      "##paghi": 1821,
      "ulu": 1822,
      "por": 1823,
      "ernong": 1824,
      "##lipunan": 1825,
      "##Uni": 1826,
      "into": 1827,
      "##lupain": 1828,
      "nay": 1829,
      "akat": 1830,
      "##bahag": 1831,
      "ukas": 1832,
      "nas": 1833,
      "unog": 1834,
      "##naglalaman": 1835,
      "##dire": 1836,
      "anay": 1837,
      "##Pranses": 1838,
      "##Ir": 1839,
      "tim": 1840,
      "##manun": 1841,
      "##Ped": 1842,
      "##Go": 1843,
      "##Marso": 1844,
      "##rito": 1845,
      "##id": 1846,
      "##kaga": 1847,
      "der": 1848,
      "awang": 1849,
      "walang": 1850,
      "##Panda": 1851,
      "##makat": 1852,
      "##Digmaang": 1853,
      "##tri": 1854,
      "##ipinag": 1855,
      "##Abril": 1856,
      "##manlalaro": 1857,
      "ustr": 1858,
      "##imper": 1859,
      "##labas": 1860,
      "##Enero": 1861,
      "##trans": 1862,
      "##itinatag": 1863,
      "##inila": 1864,
      "##pangkalahatang": 1865,
      "##babaeng": 1866,
      "##sariling": 1867,
      "che": 1868,
      "##ne": 1869,
      "##pah": 1870,
      "##digmaan": 1871,
      "uran": 1872,
      "##buwan": 1873,
      "ity": 1874,
      "##Pan": 1875,
      "##gamot": 1876,
      "ubre": 1877,
      "##akda": 1878,
      "##pangk": 1879,
      "##Pa": 1880,
      "alitan": 1881,
      "amp": 1882,
      "tibong": 1883,
      "ulak": 1884,
      "enteng": 1885,
      "##kaniya": 1886,
      "orn": 1887,
      "##ikalawang": 1888,
      "eno": 1889,
      "atang": 1890,
      "##elem": 1891,
      "##Aprika": 1892,
      "ley": 1893,
      "##Set": 1894,
      "ilia": 1895,
      "##Alemanya": 1896,
      "##nai": 1897,
      "##Disyembre": 1898,
      "1.": 1899,
      "##karapat": 1900,
      "##arti": 1901,
      "##mater": 1902,
      "##katumbas": 1903,
      "##He": 1904,
      "##Gre": 1905,
      "can": 1906,
      "ebr": 1907,
      "##Kapitan": 1908,
      "##palabas": 1909,
      "osyo": 1910,
      "##sim": 1911,
      "##Amerikano": 1912,
      "uot": 1913,
      "bilis": 1914,
      "ungkahi": 1915,
      "dok": 1916,
      "##kasalukuyan": 1917,
      "##batang": 1918,
      "ell": 1919,
      "##sent": 1920,
      "##mahalagang": 1921,
      "hati": 1922,
      "##edad": 1923,
      "##|": 1924,
      "##hari": 1925,
      "##j": 1926,
      "tibo": 1927,
      "##Ts": 1928,
      "##katutub": 1929,
      "que": 1930,
      "##..": 1931,
      "##kanya": 1932,
      "##Aklat": 1933,
      "##nahah": 1934,
      "##tah": 1935,
      "##organismo": 1936,
      "bil": 1937,
      "chi": 1938,
      "##Hunyo": 1939,
      "unting": 1940,
      "peo": 1941,
      "kada": 1942,
      "##Hul": 1943,
      "##Subalit": 1944,
      "luwensiya": 1945,
      "##modernong": 1946,
      "ment": 1947,
      "##Israel": 1948,
      "##Sh": 1949,
      "##kababa": 1950,
      "##co": 1951,
      "awak": 1952,
      "##Ngunit": 1953,
      "##sining": 1954,
      "ako": 1955,
      "##Se": 1956,
      "ring": 1957,
      "##er": 1958,
      "##dagat": 1959,
      "##22": 1960,
      "##ener": 1961,
      "##ugnayan": 1962,
      "ista": 1963,
      "##indibidwal": 1964,
      "##katao": 1965,
      "##Te": 1966,
      "ond": 1967,
      "isasyon": 1968,
      "##Santa": 1969,
      "##Mah": 1970,
      "##Tagalog": 1971,
      "##karagdag": 1972,
      "##tak": 1973,
      "ktubre": 1974,
      "##selula": 1975,
      "##tumat": 1976,
      "igdi": 1977,
      "tok": 1978,
      "##halaga": 1979,
      "##Ber": 1980,
      "ataka": 1981,
      "##oras": 1982,
      "sus": 1983,
      "##kump": 1984,
      "##tanging": 1985,
      "##paggawa": 1986,
      "##Ser": 1987,
      "##Oktubre": 1988,
      "##elekt": 1989,
      "##tumukoy": 1990,
      "enta": 1991,
      "alawang": 1992,
      "##Europeo": 1993,
      "##sabi": 1994,
      "##Hulyo": 1995,
      "##dahilan": 1996,
      "##No": 1997,
      "ensiyang": 1998,
      "##Nagkaka": 1999,
      "sala": 2000,
      "##lalo": 2001,
      "uin": 2002,
      "##Silangan": 2003,
      "##kapwa": 2004,
      "##Cor": 2005,
      "wasan": 2006,
      "ite": 2007,
      "landa": 2008,
      "##ark": 2009,
      "##bul": 2010,
      "balik": 2011,
      "##Gal": 2012,
      "##Bin": 2013,
      "##hi": 2014,
      "##John": 2015,
      "##tradis": 2016,
      "##kabis": 2017,
      "##Th": 2018,
      "##Agosto": 2019,
      "##kaugnay": 2020,
      "##tinut": 2021,
      "reo": 2022,
      "alaw": 2023,
      "##III": 2024,
      "##nagb": 2025,
      "##dok": 2026,
      "##likas": 2027,
      "was": 2028,
      "##Ehipto": 2029,
      "##do": 2030,
      "##ling": 2031,
      "##umiiral": 2032,
      "##Setyembre": 2033,
      "##pagkakaiba": 2034,
      "angkin": 2035,
      "##+": 2036,
      "##nin": 2037,
      "##192": 2038,
      "##mi": 2039,
      "stro": 2040,
      "enyo": 2041,
      "##pampolitika": 2042,
      "tang": 2043,
      "ebrero": 2044,
      "lio": 2045,
      "##kasarian": 2046,
      "ging": 2047,
      "matay": 2048,
      "##proseso": 2049,
      "lina": 2050,
      "eksiyon": 2051,
      "ish": 2052,
      "##nilala": 2053,
      "yet": 2054,
      "asal": 2055,
      "##Korea": 2056,
      "ulia": 2057,
      "##kultura": 2058,
      "tr": 2059,
      "ni": 2060,
      "uwalidad": 2061,
      "##isinulat": 2062,
      "##ik": 2063,
      "##hilaga": 2064,
      "##pamb": 2065,
      "tog": 2066,
      "##Sum": 2067,
      "##Pebrero": 2068,
      "##Phi": 2069,
      "##gulang": 2070,
      "resyon": 2071,
      "usugan": 2072,
      "##Austr": 2073,
      "##kur": 2074,
      "eter": 2075,
      "be": 2076,
      "##minsan": 2077,
      "inan": 2078,
      "ugang": 2079,
      "##Pagka": 2080,
      "##sam": 2081,
      "##panda": 2082,
      "##isinasa": 2083,
      "##Tr": 2084,
      "##madala": 2085,
      "##Unang": 2086,
      "##Mal": 2087,
      "##hen": 2088,
      "##Tur": 2089,
      "##kaso": 2090,
      "##medi": 2091,
      "antong": 2092,
      "etiko": 2093,
      "##pagtatalik": 2094,
      "uel": 2095,
      "diri": 2096,
      "ibersidad": 2097,
      "arang": 2098,
      "yuna": 2099,
      "##nagsimula": 2100,
      "##teoriya": 2101,
      "##ari": 2102,
      "##terit": 2103,
      "talik": 2104,
      "##tal": 2105,
      "##kinaka": 2106,
      "##militar": 2107,
      "##magmula": 2108,
      "##pagkat": 2109,
      "##Ind": 2110,
      "mpalataya": 2111,
      "##Nobyembre": 2112,
      "ukan": 2113,
      "dy": 2114,
      "unuan": 2115,
      "##limang": 2116,
      "##24": 2117,
      "itaw": 2118,
      "##Riz": 2119,
      "##hilagang": 2120,
      "iang": 2121,
      "uon": 2122,
      "##balat": 2123,
      "eksuwalidad": 2124,
      "##mababa": 2125,
      "##kamay": 2126,
      "hirapan": 2127,
      "##sand": 2128,
      "##Col": 2129,
      "bit": 2130,
      "pak": 2131,
      "##nagiging": 2132,
      "##pangkarani": 2133,
      "##mababang": 2134,
      "likong": 2135,
      "ryo": 2136,
      "undok": 2137,
      "##Rizal": 2138,
      "##dumating": 2139,
      "##x": 2140,
      "adong": 2141,
      "##madalas": 2142,
      "5.": 2143,
      "##Gitnang": 2144,
      "sangk": 2145,
      "##sumunod": 2146,
      "##pri": 2147,
      "udd": 2148,
      "hasa": 2149,
      "##Cast": 2150,
      "##dib": 2151,
      "##191": 2152,
      "##layunin": 2153,
      "##nar": 2154,
      "##Ban": 2155,
      "##bil": 2156,
      "##hangga": 2157,
      "anas": 2158,
      "##nau": 2159,
      "##bag": 2160,
      "##huli": 2161,
      "##lumala": 2162,
      "ugis": 2163,
      "liit": 2164,
      "##Lucas": 2165,
      "##dalawa": 2166,
      "zon": 2167,
      "##Pedro": 2168,
      "idad": 2169,
      "##kalaga": 2170,
      "##pab": 2171,
      "##ibabaw": 2172,
      "##Fili": 2173,
      "##tr": 2174,
      "ungat": 2175,
      "##papel": 2176,
      "##labis": 2177,
      "yaan": 2178,
      "##panlipunan": 2179,
      "akilang": 2180,
      "##resulta": 2181,
      "##dekada": 2182,
      "##And": 2183,
      "##pagl": 2184,
      "##Elias": 2185,
      "##pari": 2186,
      "ugon": 2187,
      "3.": 2188,
      "##matapos": 2189,
      "##nahahati": 2190,
      "##Kapag": 2191,
      "aryo": 2192,
      "##Mic": 2193,
      "##Ed": 2194,
      "##pambansang": 2195,
      "##bumubuo": 2196,
      "##katawag": 2197,
      "cc": 2198,
      "linang": 2199,
      "##Sin": 2200,
      "##Philip": 2201,
      "##kabi": 2202,
      "alaki": 2203,
      "##pagtut": 2204,
      "##damdam": 2205,
      "##punong": 2206,
      "##matemati": 2207,
      "##sibil": 2208,
      "##bakter": 2209,
      "uwag": 2210,
      "##Huda": 2211,
      "##Ra": 2212,
      "usalem": 2213,
      "##Maraming": 2214,
      "##magkaroon": 2215,
      "ret": 2216,
      "##lalaking": 2217,
      "ess": 2218,
      "##malakas": 2219,
      "##Dagat": 2220,
      "6.": 2221,
      "##paniniwala": 2222,
      "8.": 2223,
      "##be": 2224,
      "##!": 2225,
      "giran": 2226,
      "##liter": 2227,
      "##Don": 2228,
      "gr": 2229,
      "##Mayroon": 2230,
      "##puno": 2231,
      "alaman": 2232,
      "##int": 2233,
      "##ibini": 2234,
      "##met": 2235,
      "##kor": 2236,
      "mulan": 2237,
      "ograp": 2238,
      "##nilang": 2239,
      "ilo": 2240,
      "eksto": 2241,
      "##27": 2242,
      "2.": 2243,
      "aon": 2244,
      "##DNA": 2245,
      "seho": 2246,
      "##Ad": 2247,
      "oly": 2248,
      "##gumawa": 2249,
      "##telebisyon": 2250,
      "##pataka": 2251,
      "##ali": 2252,
      "ikasyon": 2253,
      "upad": 2254,
      "##pisikal": 2255,
      "dik": 2256,
      "##pangyayari": 2257,
      "##proble": 2258,
      "##por": 2259,
      "lano": 2260,
      "tori": 2261,
      "##Basi": 2262,
      "##pagga": 2263,
      "##sangay": 2264,
      "##tuwing": 2265,
      "eral": 2266,
      "za": 2267,
      "##Nagkakaisang": 2268,
      "##Aw": 2269,
      "struk": 2270,
      "##awit": 2271,
      "##ebid": 2272,
      "yat": 2273,
      "##mangga": 2274,
      "##gene": 2275,
      "##muli": 2276,
      "##Bel": 2277,
      "##ex": 2278,
      "##et": 2279,
      "##kailangan": 2280,
      "lasyon": 2281,
      "##kabah": 2282,
      "##tang": 2283,
      "daman": 2284,
      "##manana": 2285,
      "agsak": 2286,
      "##comune": 2287,
      "##Simbahan": 2288,
      "##grupo": 2289,
      "##ide": 2290,
      "ers": 2291,
      "##tungkulin": 2292,
      "##kabisera": 2293,
      "bon": 2294,
      "gar": 2295,
      "sian": 2296,
      "ft": 2297,
      "unti": 2298,
      "##dantaon": 2299,
      "hayag": 2300,
      "ld": 2301,
      "##ulo": 2302,
      "##Bu": 2303,
      "uting": 2304,
      "##pagbibigay": 2305,
      "##pangh": 2306,
      "riyang": 2307,
      "##kawalan": 2308,
      "##makabagong": 2309,
      "likang": 2310,
      "##ob": 2311,
      "yeng": 2312,
      "##Fer": 2313,
      "##barangay": 2314,
      "##pinap": 2315,
      "##Pero": 2316,
      "ibang": 2317,
      "##mamamayan": 2318,
      "ulog": 2319,
      "##Mayroong": 2320,
      "##lokal": 2321,
      "unga": 2322,
      "##Que": 2323,
      "his": 2324,
      "ibigan": 2325,
      "yn": 2326,
      "##his": 2327,
      "sig": 2328,
      "todok": 2329,
      "##karaniwan": 2330,
      "ayos": 2331,
      "orya": 2332,
      "##mahigit": 2333,
      "orta": 2334,
      "bispo": 2335,
      "##Batas": 2336,
      "plo": 2337,
      "##pagpapat": 2338,
      "##kun": 2339,
      "ormasyon": 2340,
      "yu": 2341,
      "ira": 2342,
      "yaw": 2343,
      "sk": 2344,
      "##Kanluran": 2345,
      "##gayundin": 2346,
      "tikal": 2347,
      "##kapanah": 2348,
      "##sapat": 2349,
      "##lumitaw": 2350,
      "##pinaniniwala": 2351,
      "##Me": 2352,
      "ua": 2353,
      "##magulang": 2354,
      "ons": 2355,
      "##Bul": 2356,
      "##kahirapan": 2357,
      "##Am": 2358,
      "##me": 2359,
      "##sen": 2360,
      "ukasyon": 2361,
      "##manunulat": 2362,
      "atibo": 2363,
      "ora": 2364,
      "anatili": 2365,
      "##Wikang": 2366,
      "ipag": 2367,
      "##pagkab": 2368,
      "illa": 2369,
      "##atom": 2370,
      "atibong": 2371,
      "9.": 2372,
      "##Britanya": 2373,
      "##daan": 2374,
      "akbo": 2375,
      "##23": 2376,
      "##bit": 2377,
      "7.": 2378,
      "versi": 2379,
      "mad": 2380,
      "##Herusalem": 2381,
      "##sulat": 2382,
      "##Para": 2383,
      "4.": 2384,
      "##siko": 2385,
      "igdigang": 2386,
      "raang": 2387,
      "##distr": 2388,
      "##anti": 2389,
      "##Hapones": 2390,
      "##kw": 2391,
      "##kim": 2392,
      "##pagmam": 2393,
      "##1.": 2394,
      "cho": 2395,
      "##biyo": 2396,
      "arani": 2397,
      "##ano": 2398,
      "ruz": 2399,
      "ual": 2400,
      "##bal": 2401,
      "##tahanan": 2402,
      "iniwalang": 2403,
      "##Ver": 2404,
      "##ikat": 2405,
      "##Ebanghelyo": 2406,
      "##halaman": 2407,
      "##hangganan": 2408,
      "yunal": 2409,
      "##indust": 2410,
      "latera": 2411,
      "inasyon": 2412,
      "rop": 2413,
      "##nakap": 2414,
      "rip": 2415,
      "usay": 2416,
      "##189": 2417,
      "ake": 2418,
      "##gamitin": 2419,
      "##Inter": 2420,
      "##Nic": 2421,
      "##ch": 2422,
      "##epekto": 2423,
      "##Naging": 2424,
      "##Ikalawang": 2425,
      "ingin": 2426,
      "##namum": 2427,
      "##siyenti": 2428,
      "##mito": 2429,
      "##inilala": 2430,
      "mpan": 2431,
      "stang": 2432,
      "##nagpapakita": 2433,
      "##tiyak": 2434,
      "##Mont": 2435,
      "##salaysay": 2436,
      "bayan": 2437,
      "##Port": 2438,
      "##Karani": 2439,
      "##for": 2440,
      "##musi": 2441,
      "##hangin": 2442,
      "vo": 2443,
      "##patuloy": 2444,
      "##kalakal": 2445,
      "##Gi": 2446,
      "aligiran": 2447,
      "##Budd": 2448,
      "ese": 2449,
      "##maliliit": 2450,
      "##Be": 2451,
      "esto": 2452,
      "natili": 2453,
      "##Ca": 2454,
      "##produkto": 2455,
      "##binig": 2456,
      "watig": 2457,
      "##Ho": 2458,
      "sasyon": 2459,
      "olonya": 2460,
      "##Pin": 2461,
      "ugnayang": 2462,
      "##?": 2463,
      "##Sud": 2464,
      "##kuwento": 2465,
      "##$": 2466,
      "##on": 2467,
      "##ra": 2468,
      "##enerhiya": 2469,
      "##trabaho": 2470,
      "##pamamaraan": 2471,
      "##napag": 2472,
      "hika": 2473,
      "ido": 2474,
      "agumpay": 2475,
      "##wa": 2476,
      "##sinus": 2477,
      "##sinabi": 2478,
      "##noon": 2479,
      "##napap": 2480,
      "##Maaaring": 2481,
      "##kalika": 2482,
      "##Imperyong": 2483,
      "iel": 2484,
      "uyod": 2485,
      "##ala": 2486,
      "bilidad": 2487,
      "ilik": 2488,
      "##Ex": 2489,
      "##Bayan": 2490,
      "##Nat": 2491,
      "ekan": 2492,
      "##nagkaka": 2493,
      "##>": 2494,
      "##Damaso": 2495,
      "##speci": 2496,
      "##sag": 2497,
      "##Alex": 2498,
      "##paano": 2499,
      "aliwanag": 2500,
      "##Pas": 2501,
      "##Qu": 2502,
      "tiko": 2503,
      "usto": 2504,
      "##pul": 2505,
      "rer": 2506,
      "##pelikula": 2507,
      "##alaga": 2508,
      "awid": 2509,
      "##kabuuang": 2510,
      "wn": 2511,
      "ill": 2512,
      "##sing": 2513,
      "##konsep": 2514,
      "##Mac": 2515,
      "##linya": 2516,
      "##parti": 2517,
      "##Do": 2518,
      "diriwang": 2519,
      "##papa": 2520,
      "unawa": 2521,
      "##Kaya": 2522,
      "bot": 2523,
      "agad": 2524,
      "##Rusya": 2525,
      "##28": 2526,
      "##naghah": 2527,
      "ahi": 2528,
      "##teritoryo": 2529,
      "##mon": 2530,
      "iks": 2531,
      "ekt": 2532,
      "itikan": 2533,
      "irus": 2534,
      "##katay": 2535,
      "##To": 2536,
      "##parang": 2537,
      "mi": 2538,
      "##kalagayan": 2539,
      "##<": 2540,
      "##Maaari": 2541,
      "##Pambansang": 2542,
      "##Pre": 2543,
      "init": 2544,
      "kod": 2545,
      "utos": 2546,
      "##Dav": 2547,
      "sangka": 2548,
      "sama": 2549,
      "##pay": 2550,
      "lipat": 2551,
      "##tinawag": 2552,
      "##nangyari": 2553,
      "##pub": 2554,
      "##Lumang": 2555,
      "undan": 2556,
      "mulang": 2557,
      "##VI": 2558,
      "##patungo": 2559,
      "gaw": 2560,
      "##sunod": 2561,
      "##baybay": 2562,
      "##Cent": 2563,
      "banggit": 2564,
      "ence": 2565,
      "banan": 2566,
      "##paksa": 2567,
      "##tinatayang": 2568,
      "kos": 2569,
      "##nais": 2570,
      "##katagang": 2571,
      "##Buddha": 2572,
      "##mekan": 2573,
      "uko": 2574,
      "ilalim": 2575,
      "##Gawa": 2576,
      "##Kanlurang": 2577,
      "##26": 2578,
      "haba": 2579,
      "use": 2580,
      "orld": 2581,
      "##Shi": 2582,
      "##ebolusyon": 2583,
      "ahalaang": 2584,
      "##yug": 2585,
      "##ah": 2586,
      "##prot": 2587,
      "ikha": 2588,
      "##kaba": 2589,
      "##kalaunang": 2590,
      "emok": 2591,
      "##Mula": 2592,
      "##Ortodok": 2593,
      "me": 2594,
      "ahalaga": 2595,
      "##prin": 2596,
      "egong": 2597,
      "utong": 2598,
      "##hugis": 2599,
      "gid": 2600,
      "##naunang": 2601,
      "ubok": 2602,
      "##liwanag": 2603,
      "odo": 2604,
      "##...": 2605,
      "##pagpapa": 2606,
      "ubuhay": 2607,
      "ipon": 2608,
      "##kop": 2609,
      "ras": 2610,
      "ukla": 2611,
      "##edukasyon": 2612,
      "IV": 2613,
      "##Pandaigdig": 2614,
      "##gusa": 2615,
      "##materyal": 2616,
      "ome": 2617,
      "##100": 2618,
      "ataan": 2619,
      "ensiyon": 2620,
      "itna": 2621,
      "aryong": 2622,
      "ante": 2623,
      "##sinasabing": 2624,
      "let": 2625,
      "along": 2626,
      "kita": 2627,
      "##kilalang": 2628,
      "##Aqu": 2629,
      "##Cana": 2630,
      "##bakterya": 2631,
      "##mabilis": 2632,
      "##Int": 2633,
      "##mahi": 2634,
      "##maaring": 2635,
      "##bato": 2636,
      "##pilosopiya": 2637,
      "##Unyong": 2638,
      "##kalikasan": 2639,
      "mat": 2640,
      "##bo": 2641,
      "##Habang": 2642,
      "patuloy": 2643,
      "##Heb": 2644,
      "ich": 2645,
      "##kult": 2646,
      "##Franc": 2647,
      "##ugnayang": 2648,
      "##pinagmulan": 2649,
      "##diwa": 2650,
      "etw": 2651,
      "##literal": 2652,
      "##Sinabi": 2653,
      "##nagbigay": 2654,
      "##Tum": 2655,
      "##katutubong": 2656,
      "##kakayahang": 2657,
      "leng": 2658,
      "##2000": 2659,
      "##ugat": 2660,
      "pes": 2661,
      "ahalagang": 2662,
      "##Mad": 2663,
      "port": 2664,
      "##Pasi": 2665,
      "unduan": 2666,
      "##teksto": 2667,
      "asyo": 2668,
      "lag": 2669,
      "##pangalawang": 2670,
      "##magiging": 2671,
      "##Heneral": 2672,
      "ack": 2673,
      "##Irlanda": 2674,
      "##nilalang": 2675,
      "nat": 2676,
      "##Wil": 2677,
      "##kanon": 2678,
      "##India": 2679,
      "##lakas": 2680,
      "##kilom": 2681,
      "natiling": 2682,
      "##maik": 2683,
      "##malaki": 2684,
      "##mor": 2685,
      "##pinakama": 2686,
      "##panganib": 2687,
      "usyong": 2688,
      "##natatanging": 2689,
      "##namam": 2690,
      "##Panah": 2691,
      "##perso": 2692,
      "##talaan": 2693,
      "##nakab": 2694,
      "##nagmum": 2695,
      "##kaharian": 2696,
      "risto": 2697,
      "##unlad": 2698,
      "##Griyegong": 2699,
      "##iisang": 2700,
      "sisyon": 2701,
      "##Sob": 2702,
      "##pamumuno": 2703,
      "bidad": 2704,
      "##Ge": 2705,
      "##pangulo": 2706,
      "##isip": 2707,
      "hulugan": 2708,
      "dib": 2709,
      "##Ba": 2710,
      "agpuan": 2711,
      "arka": 2712,
      "song": 2713,
      "ze": 2714,
      "men": 2715,
      "##Med": 2716,
      "##km": 2717,
      "##ibinigay": 2718,
      "##Nam": 2719,
      "##skolar": 2720,
      "##damdamin": 2721,
      "##daang": 2722,
      "ary": 2723,
      "dal": 2724,
      "##Hudaismo": 2725,
      "yoso": 2726,
      "##posisyon": 2727,
      "##Santi": 2728,
      "##matat": 2729,
      "##putbol": 2730,
      "pir": 2731,
      "##kapanahunan": 2732,
      "##190": 2733,
      "##Malay": 2734,
      "##direk": 2735,
      "##Kal": 2736,
      "##Pat": 2737,
      "##milyon": 2738,
      "##him": 2739,
      "##Kas": 2740,
      "uluan": 2741,
      "##Ter": 2742,
      "##serbis": 2743,
      "##pumap": 2744,
      "##komun": 2745,
      "##El": 2746,
      "##Pe": 2747,
      "##Lin": 2748,
      "kilala": 2749,
      "##pamant": 2750,
      "##Muh": 2751,
      "##con": 2752,
      "##Hang": 2753,
      "##pakikipagtalik": 2754,
      "##ukol": 2755,
      "##lub": 2756,
      "aksiyon": 2757,
      "hanan": 2758,
      "##mik": 2759,
      "tasan": 2760,
      "##tulong": 2761,
      "##papunta": 2762,
      "##karamdaman": 2763,
      "mos": 2764,
      "##Pangulo": 2765,
      "lor": 2766,
      "ipin": 2767,
      "lant": 2768,
      "##Fe": 2769,
      "stitusyon": 2770,
      "##problema": 2771,
      "##Kong": 2772,
      "has": 2773,
      "oma": 2774,
      "galing": 2775,
      "##kababaihan": 2776,
      "ice": 2777,
      "ukha": 2778,
      "##gas": 2779,
      "##pahayag": 2780,
      "##espesye": 2781,
      "##0": 2782,
      "etwork": 2783,
      "##pinam": 2784,
      "ical": 2785,
      "##titi": 2786,
      "ste": 2787,
      "##Pinag": 2788,
      "ie": 2789,
      "##gabi": 2790,
      "kw": 2791,
      "##pangkasa": 2792,
      "hok": 2793,
      "yuter": 2794,
      "inia": 2795,
      "lia": 2796,
      "##Cla": 2797,
      "old": 2798,
      "50": 2799,
      "##kinat": 2800,
      "ius": 2801,
      "##ilog": 2802,
      "##Huk": 2803,
      "##Muham": 2804,
      "##Pal": 2805,
      "##Universi": 2806,
      "##Cala": 2807,
      "##Lum": 2808,
      "agatang": 2809,
      "##nob": 2810,
      "##titik": 2811,
      "diya": 2812,
      "agsik": 2813,
      "##kakayahan": 2814,
      "##Gres": 2815,
      "rig": 2816,
      "##Karam": 2817,
      "##kundi": 2818,
      "tol": 2819,
      "lingkod": 2820,
      "alia": 2821,
      "##World": 2822,
      "##natural": 2823,
      "##kasangka": 2824,
      "harap": 2825,
      "##matematika": 2826,
      "kin": 2827,
      "ona": 2828,
      "kuk": 2829,
      "amit": 2830,
      "##Vene": 2831,
      "uliran": 2832,
      "##Quezon": 2833,
      "##makikita": 2834,
      "##namang": 2835,
      "if": 2836,
      "##en": 2837,
      "logo": 2838,
      "##nakikilala": 2839,
      "inirahan": 2840,
      "unayan": 2841,
      "##bali": 2842,
      "ept": 2843,
      "##plan": 2844,
      "##ipinaga": 2845,
      "##Muhammad": 2846,
      "##Ginagamit": 2847,
      "daan": 2848,
      "##Ilog": 2849,
      "ith": 2850,
      "##pangkaraniwang": 2851,
      "##katangiang": 2852,
      "anaw": 2853,
      "##silangang": 2854,
      "imugang": 2855,
      "##Gresya": 2856,
      "lisis": 2857,
      "##Turk": 2858,
      "##usa": 2859,
      "inong": 2860,
      "##kailan": 2861,
      "##hanay": 2862,
      "##Sobyet": 2863,
      "utang": 2864,
      "##ginagawa": 2865,
      "##tinang": 2866,
      "##Bab": 2867,
      "##libing": 2868,
      "cal": 2869,
      "kang": 2870,
      "ubhasa": 2871,
      "##Nak": 2872,
      "##nagla": 2873,
      "sisyong": 2874,
      "##saring": 2875,
      "rio": 2876,
      "anao": 2877,
      "##asi": 2878,
      "##katoto": 2879,
      "bento": 2880,
      "##suliran": 2881,
      "##Vic": 2882,
      "##Dina": 2883,
      "##pangangailangan": 2884,
      "##ekw": 2885,
      "##gayon": 2886,
      "##sakop": 2887,
      "utol": 2888,
      "##ninuno": 2889,
      "lanan": 2890,
      "##BK": 2891,
      "##Min": 2892,
      "##ipinaganak": 2893,
      "##liham": 2894,
      "##oper": 2895,
      "##species": 2896,
      "isan": 2897,
      "##sus": 2898,
      "##makaka": 2899,
      "ayanan": 2900,
      "##puso": 2901,
      "##Bal": 2902,
      "inistro": 2903,
      "##pet": 2904,
      "hod": 2905,
      "say": 2906,
      "ide": 2907,
      "##Bat": 2908,
      "##Ben": 2909,
      "urg": 2910,
      "uth": 2911,
      "ja": 2912,
      "##pinat": 2913,
      "##alagad": 2914,
      "##pagkakataon": 2915,
      "##Kali": 2916,
      "##str": 2917,
      "##kaalaman": 2918,
      "##Emperador": 2919,
      "##malalaking": 2920,
      "##nakasa": 2921,
      "##teoriyang": 2922,
      "##impormasyon": 2923,
      "lok": 2924,
      "uwa": 2925,
      "asang": 2926,
      "eph": 2927,
      "##harap": 2928,
      "cia": 2929,
      "uklasan": 2930,
      "##pansa": 2931,
      "ahe": 2932,
      "##pamili": 2933,
      "ingi": 2934,
      "##pampub": 2935,
      "##pagba": 2936,
      "##disp": 2937,
      "tao": 2938,
      "zz": 2939,
      "ambing": 2940,
      "##40": 2941,
      "##Sc": 2942,
      "##buh": 2943,
      "##imperyo": 2944,
      "isyo": 2945,
      "##nga": 2946,
      "yle": 2947,
      "##Ina": 2948,
      "edia": 2949,
      "ones": 2950,
      "##Wik": 2951,
      "##relihi": 2952,
      "##nabubuhay": 2953,
      "##ulit": 2954,
      "##Karamihan": 2955,
      "leksiyon": 2956,
      "##Luz": 2957,
      "##Konseho": 2958,
      "sanhi": 2959,
      "ts": 2960,
      "##Ga": 2961,
      "we": 2962,
      "arami": 2963,
      "angkop": 2964,
      "ile": 2965,
      "##base": 2966,
      "##isi": 2967,
      "##seryeng": 2968,
      "lili": 2969,
      "##elemento": 2970,
      "##Republikang": 2971,
      "##ep": 2972,
      "##ipinap": 2973,
      "##sasak": 2974,
      "##panlabas": 2975,
      "ligtas": 2976,
      "##Ti": 2977,
      "##pagdating": 2978,
      "##tanyag": 2979,
      "##gitna": 2980,
      "akda": 2981,
      "rid": 2982,
      "yol": 2983,
      "##Roman": 2984,
      "##Sulat": 2985,
      "ahiwatig": 2986,
      "laban": 2987,
      "##maliban": 2988,
      "##Santiago": 2989,
      "enida": 2990,
      "##Sur": 2991,
      "##29": 2992,
      "ilitaw": 2993,
      "##Imperyo": 2994,
      "ulaklak": 2995,
      "entino": 2996,
      "##mati": 2997,
      "##nakita": 2998,
      "ire": 2999,
      "ping": 3000,
      "##init": 3001,
      "##tinutukoy": 3002,
      "rato": 3003,
      "##lalake": 3004,
      "tomas": 3005,
      "##samp": 3006,
      "##kalayaan": 3007,
      "##Est": 3008,
      "##pinakamataas": 3009,
      "abas": 3010,
      "inga": 3011,
      "##artista": 3012,
      "##sabihin": 3013,
      "pania": 3014,
      "akan": 3015,
      "##tamang": 3016,
      "siy": 3017,
      "##nagtatag": 3018,
      "net": 3019,
      "##paa": 3020,
      "##sintomas": 3021,
      "ere": 3022,
      "ungang": 3023,
      "##Santo": 3024,
      "##pormal": 3025,
      "##HIV": 3026,
      "inding": 3027,
      "van": 3028,
      "##obispo": 3029,
      "##minsang": 3030,
      "##pagpapaka": 3031,
      "##distrito": 3032,
      "##men": 3033,
      "anana": 3034,
      "amo": 3035,
      "##ikatlong": 3036,
      "lidad": 3037,
      "##arkeo": 3038,
      "##nait": 3039,
      "##ti": 3040,
      "strak": 3041,
      "##kompan": 3042,
      "##Yo": 3043,
      "##Venez": 3044,
      "##dulo": 3045,
      "##kasalanan": 3046,
      "##University": 3047,
      "##paglikha": 3048,
      "##panloob": 3049,
      "nam": 3050,
      "##kada": 3051,
      "##50": 3052,
      "uta": 3053,
      "##industriya": 3054,
      "##kesa": 3055,
      "##lumikha": 3056,
      "lid": 3057,
      "##Bukod": 3058,
      "##pal": 3059,
      "sunod": 3060,
      "tatalik": 3061,
      "jo": 3062,
      "##Af": 3063,
      "##bab": 3064,
      "##Lalaw": 3065,
      "ander": 3066,
      "utusan": 3067,
      "##siyentipiko": 3068,
      "##humantong": 3069,
      "ambak": 3070,
      "uklas": 3071,
      "wiran": 3072,
      "##buto": 3073,
      "##tauhan": 3074,
      "ket": 3075,
      "##Har": 3076,
      "##Unit": 3077,
      "urong": 3078,
      "ubo": 3079,
      "##2010": 3080,
      "##banal": 3081,
      "##Haring": 3082,
      "lu": 3083,
      "ory": 3084,
      "##imb": 3085,
      "aki": 3086,
      "##madaling": 3087,
      "##kak": 3088,
      "antay": 3089,
      "##nah": 3090,
      "ugh": 3091,
      "##diper": 3092,
      "##Tim": 3093,
      "age": 3094,
      "##umu": 3095,
      "##krim": 3096,
      "##senso": 3097,
      "##Kalak": 3098,
      "bum": 3099,
      "##ig": 3100,
      "upan": 3101,
      "##naniniwala": 3102,
      "sad": 3103,
      "##utak": 3104,
      "ondo": 3105,
      "##Prin": 3106,
      "onia": 3107,
      "##Aquino": 3108,
      "##laro": 3109,
      "##dah": 3110,
      "##Hudas": 3111,
      "##kabuuan": 3112,
      "rot": 3113,
      "##pagbub": 3114,
      "##lib": 3115,
      "##gumagawa": 3116,
      "aas": 3117,
      "##Walang": 3118,
      "##pagnana": 3119,
      "##sanggol": 3120,
      "##Castel": 3121,
      "uma": 3122,
      "##sali": 3123,
      "##sik": 3124,
      "emonte": 3125,
      "##Chi": 3126,
      "##itaas": 3127,
      "##magt": 3128,
      "##kumulang": 3129,
      "##Karaniwang": 3130,
      "anasan": 3131,
      "##Kalakhang": 3132,
      "hael": 3133,
      "##sund": 3134,
      "##Banal": 3135,
      "##Cap": 3136,
      "##Zam": 3137,
      "##naganap": 3138,
      "##pananampalataya": 3139,
      "##larawan": 3140,
      "##Espanyol": 3141,
      "##Paman": 3142,
      "##bahaging": 3143,
      "ingnan": 3144,
      "mini": 3145,
      "##sem": 3146,
      "##Lalawigan": 3147,
      "##hy": 3148,
      "##Donya": 3149,
      "eth": 3150,
      "##Tor": 3151,
      "mar": 3152,
      "zio": 3153,
      "##humi": 3154,
      "##halamang": 3155,
      "##aw": 3156,
      "##molek": 3157,
      "uhit": 3158,
      "##pagtatang": 3159,
      "ica": 3160,
      "##Michael": 3161,
      "##2007": 3162,
      "##ebanghelyo": 3163,
      "dan": 3164,
      "mas": 3165,
      "##sir": 3166,
      "##Oli": 3167,
      "##Israe": 3168,
      "bleng": 3169,
      "lungat": 3170,
      "##toto": 3171,
      "##anyong": 3172,
      "##pamahalaang": 3173,
      "##Meh": 3174,
      "pay": 3175,
      "##day": 3176,
      "##puwer": 3177,
      "##kanlurang": 3178,
      "ombar": 3179,
      "##Eskos": 3180,
      "##Sinaunang": 3181,
      "##ebidensiya": 3182,
      "##malala": 3183,
      "##homoseksuwal": 3184,
      "ric": 3185,
      "##alp": 3186,
      "##mahalaga": 3187,
      "##paga": 3188,
      "##lumilitaw": 3189,
      "##Ri": 3190,
      "##tunog": 3191,
      "##inili": 3192,
      "##manga": 3193,
      "##daantaon": 3194,
      "sanib": 3195,
      "##Suw": 3196,
      "##patakaran": 3197,
      "ico": 3198,
      "##damit": 3199,
      "##iisip": 3200,
      "biya": 3201,
      "##Tsino": 3202,
      "##Sy": 3203,
      "##Jer": 3204,
      "ansang": 3205,
      "kasyon": 3206,
      "##Nan": 3207,
      "##nalala": 3208,
      "uruan": 3209,
      "##humah": 3210,
      "##kalusugan": 3211,
      "##ipag": 3212,
      "##kaibigan": 3213,
      "##Amerikanong": 3214,
      "##display": 3215,
      "##Constantine": 3216,
      "##aral": 3217,
      "##katayuan": 3218,
      "##Hebreo": 3219,
      "##Luzon": 3220,
      "##libingan": 3221,
      "##gusali": 3222,
      "##pagpapala": 3223,
      "ibo": 3224,
      "uria": 3225,
      "uhin": 3226,
      "##Francis": 3227,
      "##2008": 3228,
      "##gumamit": 3229,
      "##salin": 3230,
      "##eksper": 3231,
      "rib": 3232,
      "aro": 3233,
      "##mait": 3234,
      "##rek": 3235,
      "##kura": 3236,
      "##paglalakbay": 3237,
      "##lag": 3238,
      "##Mart": 3239,
      "##Naga": 3240,
      "##yugto": 3241,
      "##impeksiyon": 3242,
      "##tila": 3243,
      "##Samant": 3244,
      "##musika": 3245,
      "babago": 3246,
      "##ins": 3247,
      "atan": 3248,
      "style": 3249,
      "pine": 3250,
      "##pangung": 3251,
      "ven": 3252,
      "iemonte": 3253,
      "##impluwensiya": 3254,
      "ekswal": 3255,
      "##gen": 3256,
      "##tungo": 3257,
      "ji": 3258,
      "agna": 3259,
      "##polit": 3260,
      "##labanan": 3261,
      "akit": 3262,
      "istan": 3263,
      "siyang": 3264,
      "eses": 3265,
      "##ideya": 3266,
      "ubog": 3267,
      "##Bir": 3268,
      "##kilometro": 3269,
      "##magkat": 3270,
      "naw": 3271,
      "ilyang": 3272,
      "sy": 3273,
      "rito": 3274,
      "##nangyayari": 3275,
      "##Dr": 3276,
      "##linggo": 3277,
      "ongo": 3278,
      "iso": 3279,
      "##2009": 3280,
      "MA": 3281,
      "ital": 3282,
      "rist": 3283,
      "##dibdib": 3284,
      "##pagkaraan": 3285,
      "##Ital": 3286,
      "ople": 3287,
      "##Isina": 3288,
      "##nilikha": 3289,
      "##disip": 3290,
      "##Manila": 3291,
      "rado": 3292,
      "aha": 3293,
      "lisa": 3294,
      "umento": 3295,
      "pangyari": 3296,
      "ugtong": 3297,
      "##kandi": 3298,
      "##tit": 3299,
      "##maagang": 3300,
      "##elektron": 3301,
      "##natut": 3302,
      "ugal": 3303,
      "basyon": 3304,
      "##tradisyon": 3305,
      "##karagdagan": 3306,
      "##31": 3307,
      "ukuha": 3308,
      "##United": 3309,
      "uki": 3310,
      "garya": 3311,
      "##kasulat": 3312,
      "##mangang": 3313,
      "alian": 3314,
      "##kama": 3315,
      "##Sisa": 3316,
      "ontrol": 3317,
      "##pinaniniwalaang": 3318,
      "##pamamahala": 3319,
      "mumunuan": 3320,
      "##displaystyle": 3321,
      "##temper": 3322,
      "##dami": 3323,
      "##sentro": 3324,
      "##Alto": 3325,
      "##naninirahan": 3326,
      "gram": 3327,
      "omas": 3328,
      "##_": 3329,
      "par": 3330,
      "##sit": 3331,
      "##kapaligiran": 3332,
      "vel": 3333,
      "##Ig": 3334,
      "rabaho": 3335,
      "##masel": 3336,
      "##nagpa": 3337,
      "##186": 3338,
      "##alang": 3339,
      "##pamumuhay": 3340,
      "##Kam": 3341,
      "##limit": 3342,
      "##uniber": 3343,
      "##emperador": 3344,
      "##pagtaas": 3345,
      "##Ha": 3346,
      "##malawakang": 3347,
      "##tim": 3348,
      "##miyemb": 3349,
      "sat": 3350,
      "##Char": 3351,
      "inabang": 3352,
      "ukuyang": 3353,
      "upang": 3354,
      "##Mak": 3355,
      "##Ana": 3356,
      "##IV": 3357,
      "##itin": 3358,
      "##Kasama": 3359,
      "lista": 3360,
      "andaan": 3361,
      "atura": 3362,
      "##reg": 3363,
      "##diin": 3364,
      "##pagsusuri": 3365,
      "##Tag": 3366,
      "grama": 3367,
      "##King": 3368,
      "iram": 3369,
      "papawid": 3370,
      "##pitong": 3371,
      "eso": 3372,
      "eho": 3373,
      "##Anti": 3374,
      "ight": 3375,
      "ule": 3376,
      "##fos": 3377,
      "##naa": 3378,
      "##mahabang": 3379,
      "ende": 3380,
      "##Nasa": 3381,
      "sion": 3382,
      "ensiyal": 3383,
      "nayan": 3384,
      "##Diego": 3385,
      "##ganap": 3386,
      "##normal": 3387,
      "##Sila": 3388,
      "##espir": 3389,
      "##tug": 3390,
      "iolog": 3391,
      "laga": 3392,
      "ect": 3393,
      "org": 3394,
      "##Jam": 3395,
      "##Panahon": 3396,
      "hiyo": 3397,
      "heno": 3398,
      "##galing": 3399,
      "##Ac": 3400,
      "tatag": 3401,
      "sangkutan": 3402,
      "##pund": 3403,
      "##32": 3404,
      "##mahirap": 3405,
      "##kilos": 3406,
      "inag": 3407,
      "icilia": 3408,
      "ational": 3409,
      "SA": 3410,
      "##album": 3411,
      "##patay": 3412,
      "##kabila": 3413,
      "isipan": 3414,
      "##Ur": 3415,
      "ke": 3416,
      "##pangga": 3417,
      "##termino": 3418,
      "ella": 3419,
      "ayong": 3420,
      "yante": 3421,
      "##Cali": 3422,
      "##2.": 3423,
      "angi": 3424,
      "halal": 3425,
      "##mukha": 3426,
      "##konsepto": 3427,
      "##Inglatera": 3428,
      "##Bur": 3429,
      "##pakik": 3430,
      "alili": 3431,
      "lise": 3432,
      "##karapatan": 3433,
      "ode": 3434,
      "##Ao": 3435,
      "ucle": 3436,
      "##hini": 3437,
      "##serye": 3438,
      "##payak": 3439,
      "##isipan": 3440,
      "##pagsasanay": 3441,
      "sulat": 3442,
      "yin": 3443,
      "ministr": 3444,
      "##baka": 3445,
      "##nakik": 3446,
      "##katawagan": 3447,
      "litan": 3448,
      "stong": 3449,
      "##pandaigdigang": 3450,
      "lands": 3451,
      "ardinia": 3452,
      "##katotohanan": 3453,
      "ilid": 3454,
      "##pamayanan": 3455,
      "##pinakamala": 3456,
      "##ha": 3457,
      "##Ingg": 3458,
      "inango": 3459,
      "##Nar": 3460,
      "##karagdagang": 3461,
      "su": 3462,
      "##tekno": 3463,
      "ias": 3464,
      "##pamagat": 3465,
      "##Fre": 3466,
      "##iskolar": 3467,
      "##kata": 3468,
      "##apos": 3469,
      "laseng": 3470,
      "##Kina": 3471,
      "##natagpuan": 3472,
      "##miyembro": 3473,
      "##Anak": 3474,
      "##tatak": 3475,
      "##nagsasaad": 3476,
      "##Kala": 3477,
      "stansiya": 3478,
      "pam": 3479,
      "##aari": 3480,
      "##mabuting": 3481,
      "erc": 3482,
      "##Filipino": 3483,
      "##malamang": 3484,
      "##Mor": 3485,
      "##Vi": 3486,
      "unsad": 3487,
      "##sol": 3488,
      "alip": 3489,
      "##Abruz": 3490,
      "##kabahayan": 3491,
      "##gawin": 3492,
      "dige": 3493,
      "##Rey": 3494,
      "##Eslo": 3495,
      "##Abruzzo": 3496,
      "##nakaraang": 3497,
      "siyahan": 3498,
      "##Babil": 3499,
      "itikang": 3500,
      "##num": 3501,
      "enos": 3502,
      "ayapa": 3503,
      "##nakar": 3504,
      "##Trentino": 3505,
      "impluwensiya": 3506,
      "##Bra": 3507,
      "##ako": 3508,
      "##kabataan": 3509,
      "ute": 3510,
      "kong": 3511,
      "##kompyuter": 3512,
      "##Unibersidad": 3513,
      "anggal": 3514,
      "dia": 3515,
      "rono": 3516,
      "##Adige": 3517,
      "buhay": 3518,
      "##beses": 3519,
      "alala": 3520,
      "##baybayin": 3521,
      "syo": 3522,
      "##prinsip": 3523,
      "##Tang": 3524,
      "##pagpup": 3525,
      "##Sudti": 3526,
      "etong": 3527,
      "##Sudtirol": 3528,
      "yas": 3529,
      "##Bag": 3530,
      "##Lit": 3531,
      "##rad": 3532,
      "##itlog": 3533,
      "##Philippine": 3534,
      "my": 3535,
      "##paggamot": 3536,
      "##rel": 3537,
      "##Brit": 3538,
      "##pangt": 3539,
      "##pinamumunuan": 3540,
      "##kad": 3541,
      "##punto": 3542,
      "##panitikan": 3543,
      "##inhin": 3544,
      "##lebel": 3545,
      "##Venezia": 3546,
      "ilikha": 3547,
      "##Norte": 3548,
      "##sh": 3549,
      "##Bago": 3550,
      "national": 3551,
      "fa": 3552,
      "peto": 3553,
      "siyo": 3554,
      "##kinikilala": 3555,
      "eneto": 3556,
      "##isinasagawa": 3557,
      "##simp": 3558,
      "##pakiki": 3559,
      "##relasyon": 3560,
      "##pamilihan": 3561,
      "##pananaliksik": 3562,
      "kanya": 3563,
      "##fossil": 3564,
      "##Hit": 3565,
      "ombardy": 3566,
      "##Molise": 3567,
      "##pampag": 3568,
      "rasyon": 3569,
      "bria": 3570,
      "##relihiyoso": 3571,
      "##organisasyon": 3572,
      "##ele": 3573,
      "##kaugali": 3574,
      "##kinala": 3575,
      "##nagpapat": 3576,
      "##pangkalahatan": 3577,
      "##York": 3578,
      "ysayang": 3579,
      "##klaseng": 3580,
      "gap": 3581,
      "mbria": 3582,
      "##sy": 3583,
      "##pero": 3584,
      "##ho": 3585,
      "##Max": 3586,
      "indanao": 3587,
      "##188": 3588,
      "riko": 3589,
      "##Araw": 3590,
      "##Indone": 3591,
      "ose": 3592,
      "inea": 3593,
      "##binata": 3594,
      "##Aosta": 3595,
      "##0.": 3596,
      "##iyong": 3597,
      "##bis": 3598,
      "##nagaganap": 3599,
      "utasyon": 3600,
      "##haba": 3601,
      "stiyang": 3602,
      "##Colle": 3603,
      "##qu": 3604,
      "##mismong": 3605,
      "sh": 3606,
      "Mar": 3607,
      "ete": 3608,
      "ican": 3609,
      "##Aust": 3610,
      "##bumaba": 3611,
      "##kinatawan": 3612,
      "##kahulugang": 3613,
      "##Ram": 3614,
      ",1": 3615,
      "gun": 3616,
      "##Mali": 3617,
      "uskanya": 3618,
      "##presyo": 3619,
      "##Ob": 3620,
      "##tip": 3621,
      "##Basilio": 3622,
      "##mikro": 3623,
      "##maip": 3624,
      "##med": 3625,
      "##Matatagpuan": 3626,
      "##pig": 3627,
      "##dulot": 3628,
      "##Gr": 3629,
      "##paglalarawan": 3630,
      "##Lazio": 3631,
      "iwala": 3632,
      "milia": 3633,
      "##alin": 3634,
      "##kauna": 3635,
      "##humigit": 3636,
      "##negosyo": 3637,
      "##bas": 3638,
      "yayaring": 3639,
      "ahal": 3640,
      "##katam": 3641,
      "##Ortodokso": 3642,
      "anga": 3643,
      "##nakilala": 3644,
      "##2005": 3645,
      "##pad": 3646,
      "##187": 3647,
      "##Giulia": 3648,
      "mis": 3649,
      "rac": 3650,
      "intulot": 3651,
      "##Romagna": 3652,
      "##kagamit": 3653,
      "##suliranin": 3654,
      "romos": 3655,
      "##karapatang": 3656,
      "##Ama": 3657,
      "akatawan": 3658,
      "##Calabria": 3659,
      "wing": 3660,
      "##Nort": 3661,
      "##Israelita": 3662,
      "##depresyon": 3663,
      "##Canada": 3664,
      "##pinakamat": 3665,
      "##sinasalita": 3666,
      "ihang": 3667,
      "biyo": 3668,
      "ulok": 3669,
      "asilic": 3670,
      "##parir": 3671,
      "mig": 3672,
      "usk": 3673,
      "##gayong": 3674,
      "##salapi": 3675,
      "##pumasok": 3676,
      "ress": 3677,
      "##anime": 3678,
      "apan": 3679,
      "##pasa": 3680,
      "##Calif": 3681,
      "##kailangang": 3682,
      "riuli": 3683,
      "##pagkakas": 3684,
      "sto": 3685,
      "##kasing": 3686,
      "##Aposto": 3687,
      "gsa": 3688,
      "hay": 3689,
      "heng": 3690,
      "##pananakop": 3691,
      "ikos": 3692,
      "##doktr": 3693,
      "##Kilala": 3694,
      "##Lag": 3695,
      "##Ip": 3696,
      "##mun": 3697,
      "waran": 3698,
      "iguria": 3699,
      "##sangkap": 3700,
      "##Jud": 3701,
      "##Hal": 3702,
      "gasyon": 3703,
      "##artik": 3704,
      "pasa": 3705,
      "##magsa": 3706,
      "atong": 3707,
      "##Dan": 3708,
      "##Californ": 3709,
      "##Bas": 3710,
      "Ap": 3711,
      "esh": 3712,
      "##inilalarawan": 3713,
      "##Tri": 3714,
      "##nasasak": 3715,
      "##Mehiko": 3716,
      "Cam": 3717,
      "chool": 3718,
      "##paligid": 3719,
      "Umbria": 3720,
      "##kumakatawan": 3721,
      "Emilia": 3722,
      "Basilic": 3723,
      "Basilicata": 3724,
      "inoon": 3725,
      "Apulia": 3726,
      "Friuli": 3727,
      "Lambak": 3728,
      "Marche": 3729,
      "Veneto": 3730,
      "Liguria": 3731,
      "Sicilia": 3732,
      "##pagdad": 3733,
      "Campania": 3734,
      "LiguriaL": 3735,
      "Piemonte": 3736,
      "Sardinia": 3737,
      "Tuskanya": 3738,
      "##kasunod": 3739,
      "UmbriaVeneto": 3740,
      "##AostaApulia": 3741,
      "ombardyMarche": 3742,
      "CampaniaEmilia": 3743,
      "##AbruzzoLambak": 3744,
      "##LazioLiguriaL": 3745,
      "##RomagnaFriuli": 3746,
      "SardiniaSicilia": 3747,
      "##MolisePiemonte": 3748,
      "uis": 3749,
      "usyo": 3750,
      "##uniberso": 3751,
      "##California": 3752,
      "##Wikip": 3753,
      "##prosesong": 3754,
      "##serbisyo": 3755,
      "apit": 3756,
      "##metro": 3757,
      "##eksperim": 3758,
      "##nakatuon": 3759,
      "udad": 3760,
      "##Sinasa": 3761,
      "nador": 3762,
      "##gin": 3763,
      "##pansin": 3764,
      "##Han": 3765,
      "##simbo": 3766,
      "##pagm": 3767,
      "hint": 3768,
      "##kontrol": 3769,
      "iwan": 3770,
      "##Ilan": 3771,
      "mitang": 3772,
      "##laman": 3773,
      "##ref": 3774,
      "##Olimp": 3775,
      "##inil": 3776,
      "##etn": 3777,
      "##halalan": 3778,
      "yanong": 3779,
      "##nucle": 3780,
      "##kalinang": 3781,
      "##ac": 3782,
      "ungong": 3783,
      "iter": 3784,
      "eles": 3785,
      "##Bro": 3786,
      "roduk": 3787,
      "##nangangailangan": 3788,
      "min": 3789,
      "kayat": 3790,
      "##estadong": 3791,
      "##nagm": 3792,
      "##Binubuo": 3793,
      "ren": 3794,
      "##Tro": 3795,
      "uch": 3796,
      "##mana": 3797,
      "isag": 3798,
      "##nakapagpap": 3799,
      "##car": 3800,
      "ferrato": 3801,
      "##malayang": 3802,
      "##pantao": 3803,
      "##kamp": 3804,
      "via": 3805,
      "##Monferrato": 3806,
      "had": 3807,
      "sio": 3808,
      "##prope": 3809,
      "##Sak": 3810,
      "##2011": 3811,
      "put": 3812,
      "##alpab": 3813,
      "ayanang": 3814,
      "dom": 3815,
      "landiya": 3816,
      "##isda": 3817,
      "##naw": 3818,
      "##yunit": 3819,
      "##Sept": 3820,
      "liam": 3821,
      "##ist": 3822,
      "##Abenida": 3823,
      "##himp": 3824,
      "##ginto": 3825,
      "##Leo": 3826,
      "##nauugnay": 3827,
      "##narar": 3828,
      "##priba": 3829,
      "##Hen": 3830,
      "##International": 3831,
      "##temperatura": 3832,
      "##Punong": 3833,
      "##partido": 3834,
      "##Tha": 3835,
      "##kondisyon": 3836,
      "igh": 3837,
      "##binibig": 3838,
      "##paraang": 3839,
      "yerno": 3840,
      "##kapuluan": 3841,
      "ksi": 3842,
      "##guro": 3843,
      "##pagkamatay": 3844,
      "##pantay": 3845,
      "##lumip": 3846,
      "##kulturang": 3847,
      "igat": 3848,
      "##Ilo": 3849,
      "##hip": 3850,
      "##Bah": 3851,
      "##City": 3852,
      "##katimugang": 3853,
      "##matagumpay": 3854,
      "##nagsimulang": 3855,
      "##pangyayaring": 3856,
      "##Palaiolog": 3857,
      "##yo": 3858,
      "##pagpili": 3859,
      "pas": 3860,
      "##Tiago": 3861,
      "##West": 3862,
      "##bala": 3863,
      "cion": 3864,
      "bayad": 3865,
      "##sahod": 3866,
      "##relihiyong": 3867,
      "uke": 3868,
      "ortahan": 3869,
      "awi": 3870,
      "elong": 3871,
      "##Intsik": 3872,
      "##gitnang": 3873,
      "##was": 3874,
      "##Dar": 3875,
      "ulasyong": 3876,
      "##Palaiologos": 3877,
      "pad": 3878,
      "gitna": 3879,
      "##hiwalay": 3880,
      "##pisika": 3881,
      "igo": 3882,
      "##kapanganak": 3883,
      "##Kahit": 3884,
      "##butas": 3885,
      "##daanan": 3886,
      "anti": 3887,
      "ello": 3888,
      "##naba": 3889,
      "##nagsisil": 3890,
      "arin": 3891,
      "ph": 3892,
      "##kandid": 3893,
      "##dakilang": 3894,
      "lakihan": 3895,
      "##Samantala": 3896,
      "uluhan": 3897,
      "ariang": 3898,
      "lismo": 3899,
      "##asawang": 3900,
      "##nabuo": 3901,
      "##lansang": 3902,
      "bat": 3903,
      "##sun": 3904,
      "##suso": 3905,
      "dio": 3906,
      "##Er": 3907,
      "##Cat": 3908,
      "##itim": 3909,
      "##but": 3910,
      "ement": 3911,
      "obernador": 3912,
      "uer": 3913,
      "onan": 3914,
      "los": 3915,
      "##Tar": 3916,
      "##2006": 3917,
      "olon": 3918,
      "##bandang": 3919,
      "##lumabas": 3920,
      "##Nagka": 3921,
      "##bunga": 3922,
      "##doon": 3923,
      "likasyon": 3924,
      "##kawalang": 3925,
      "bilang": 3926,
      "##propes": 3927,
      "##pir": 3928,
      "##hukbong": 3929,
      "anang": 3930,
      "##pwer": 3931,
      "##natuklasan": 3932,
      "indu": 3933,
      "##pagtanggap": 3934,
      "stadi": 3935,
      "uporta": 3936,
      "##modelo": 3937,
      "ikano": 3938,
      "##anatom": 3939,
      "##pangangat": 3940,
      "emokrat": 3941,
      "etnam": 3942,
      "##klase": 3943,
      "##produksiyon": 3944,
      "##Ze": 3945,
      "ridad": 3946,
      "##kamaka": 3947,
      "lakal": 3948,
      "ilaw": 3949,
      "##Bay": 3950,
      "##programa": 3951,
      "##National": 3952,
      "##Bang": 3953,
      "##Hari": 3954,
      "##labi": 3955,
      "##estasyon": 3956,
      "##bundok": 3957,
      "##th": 3958,
      "##Cal": 3959,
      "##integ": 3960,
      "##Koreano": 3961,
      "##unibersidad": 3962,
      "##Tat": 3963,
      "##Salvi": 3964,
      "pala": 3965,
      "apekto": 3966,
      "##bibig": 3967,
      "ez": 3968,
      "##dom": 3969,
      "ws": 3970,
      "##kasunduan": 3971,
      "##Estado": 3972,
      "upong": 3973,
      "##super": 3974,
      "##kontro": 3975,
      "##mabuti": 3976,
      "##Arabo": 3977,
      "##mapang": 3978,
      "##maikling": 3979,
      "##kre": 3980,
      "##East": 3981,
      "##Bos": 3982,
      "sangkot": 3983,
      "ins": 3984,
      "##pagbabagong": 3985,
      "##dalubhasa": 3986,
      "ences": 3987,
      "##mapap": 3988,
      "##Homo": 3989,
      "##kalaunan": 3990,
      "sasangkutan": 3991,
      "bor": 3992,
      "pinong": 3993,
      "##Rober": 3994,
      "##karanasan": 3995,
      "enesis": 3996,
      "kit": 3997,
      "##Budis": 3998,
      "##ating": 3999,
      "##proy": 4000,
      "##Tan": 4001,
      ",2": 4002,
      "##My": 4003,
      "elang": 4004,
      "##Indonesia": 4005,
      "utok": 4006,
      "##bumalik": 4007,
      "##Lond": 4008,
      "##sama": 4009,
      "##nakikipag": 4010,
      "##makapangyari": 4011,
      "##3.": 4012,
      "##posibleng": 4013,
      "emo": 4014,
      "##Dep": 4015,
      "##pamamaraang": 4016,
      "##unti": 4017,
      "udulot": 4018,
      "##Pi": 4019,
      "kasan": 4020,
      "##matatag": 4021,
      "##mer": 4022,
      "##pelikulang": 4023,
      "##pangkasarian": 4024,
      "##Hangul": 4025,
      "##munisip": 4026,
      "ting": 4027,
      "##Dom": 4028,
      "aganap": 4029,
      "har": 4030,
      "aguyod": 4031,
      "##gilid": 4032,
      "##naglalarawan": 4033,
      "bansa": 4034,
      "##masasa": 4035,
      "##mid": 4036,
      "##imin": 4037,
      "##huwag": 4038,
      "##talagang": 4039,
      "##Pon": 4040,
      "##ord": 4041,
      "ungga": 4042,
      "##VII": 4043,
      "alangkas": 4044,
      "cha": 4045,
      "reso": 4046,
      "##Him": 4047,
      "##Gales": 4048,
      "##kromos": 4049,
      "##Constantin": 4050,
      "##matinding": 4051,
      "cial": 4052,
      "##nakikita": 4053,
      "##binigyang": 4054,
      "rod": 4055,
      "kalat": 4056,
      "##paglul": 4057,
      "usyonar": 4058,
      "##hap": 4059,
      "##kong": 4060,
      "##unahang": 4061,
      "##Pangulong": 4062,
      "##pen": 4063,
      "atip": 4064,
      "yak": 4065,
      "##Ori": 4066,
      "##kataga": 4067,
      "##Wal": 4068,
      "##dali": 4069,
      "etikong": 4070,
      "hag": 4071,
      "##Guinea": 4072,
      "kahulugan": 4073,
      "uning": 4074,
      "##Cris": 4075,
      "##krit": 4076,
      "##pamilyang": 4077,
      "eder": 4078,
      "kaw": 4079,
      "agatan": 4080,
      "##Polonya": 4081,
      "##katawagang": 4082,
      "baybay": 4083,
      "##nakabatay": 4084,
      "ando": 4085,
      "##taas": 4086,
      "##Paris": 4087,
      "##galaw": 4088,
      "yenteng": 4089,
      "##makipag": 4090,
      "##kompanya": 4091,
      "##politika": 4092,
      "cus": 4093,
      "ebu": 4094,
      "##Sali": 4095,
      "##natit": 4096,
      "##Joseph": 4097,
      "ebol": 4098,
      "val": 4099,
      "##James": 4100,
      "##nuk": 4101,
      "##kole": 4102,
      "##langis": 4103,
      "##siyudad": 4104,
      "hina": 4105,
      "##Cas": 4106,
      "##tumaas": 4107,
      "ele": 4108,
      "##bakit": 4109,
      "ograpiya": 4110,
      "##aawit": 4111,
      "##mahusay": 4112,
      "##tagasunod": 4113,
      "##Pilipinong": 4114,
      "##paniniwalang": 4115,
      "##espirit": 4116,
      "ood": 4117,
      "##tanda": 4118,
      "##labing": 4119,
      "##185": 4120,
      "##administr": 4121,
      "##kapanganakan": 4122,
      "enya": 4123,
      "ises": 4124,
      "##Valley": 4125,
      "bog": 4126,
      "ulangan": 4127,
      "##tig": 4128,
      "##gawi": 4129,
      "last": 4130,
      "##bukas": 4131,
      "##kahoy": 4132,
      "lapi": 4133,
      "sidente": 4134,
      "gen": 4135,
      "usob": 4136,
      "##usapan": 4137,
      "##His": 4138,
      "siko": 4139,
      "ios": 4140,
      "##Eb": 4141,
      "dagdag": 4142,
      "uluwa": 4143,
      "##38": 4144,
      "tot": 4145,
      "##Ruso": 4146,
      "ations": 4147,
      "uris": 4148,
      "##Pangka": 4149,
      "tab": 4150,
      "inian": 4151,
      "##nagrer": 4152,
      "ulis": 4153,
      "##bisi": 4154,
      "##angkop": 4155,
      "##Ek": 4156,
      "##matanda": 4157,
      "omet": 4158,
      "ves": 4159,
      "##mu": 4160,
      "##malinaw": 4161,
      "tibidad": 4162,
      "alakal": 4163,
      "asiwaan": 4164,
      "gong": 4165,
      "##araling": 4166,
      "##kamag": 4167,
      "##rehiyong": 4168,
      "##pampublikong": 4169,
      "##Afri": 4170,
      "##Francisco": 4171,
      "##60": 4172,
      "##aasal": 4173,
      "##Air": 4174,
      "iland": 4175,
      "##tula": 4176,
      "ligt": 4177,
      "##malaman": 4178,
      "##pinakamah": 4179,
      "##Jes": 4180,
      "##Bundok": 4181,
      "mal": 4182,
      "##Cav": 4183,
      "##Cebu": 4184,
      "##nakakat": 4185,
      ",5": 4186,
      "ade": 4187,
      "##ph": 4188,
      "##terminong": 4189,
      "##rate": 4190,
      "##kontin": 4191,
      "##panitikang": 4192,
      "gin": 4193,
      "##Prote": 4194,
      "##kli": 4195,
      "##likod": 4196,
      "##nangung": 4197,
      "##Cer": 4198,
      "##William": 4199,
      "##Aug": 4200,
      "##Tina": 4201,
      "##mahahalagang": 4202,
      "##Zo": 4203,
      "##kahalaga": 4204,
      "##akt": 4205,
      "##ugali": 4206,
      "car": 4207,
      "##Eskosya": 4208,
      "##seleksiyon": 4209,
      "babaw": 4210,
      "lop": 4211,
      "gtas": 4212,
      "urch": 4213,
      "struktura": 4214,
      "soci": 4215,
      "landes": 4216,
      "##pagbagsak": 4217,
      "##Hi": 4218,
      "##Matapos": 4219,
      "##matagal": 4220,
      "##Republic": 4221,
      "hong": 4222,
      "unawaan": 4223,
      "##Constantino": 4224,
      "##sikat": 4225,
      "##personal": 4226,
      "##pagtit": 4227,
      "##legal": 4228,
      "##aangkin": 4229,
      "##sinasabi": 4230,
      "gunian": 4231,
      "##pagdiriwang": 4232,
      "##US": 4233,
      "kar": 4234,
      "##det": 4235,
      "##inaasa": 4236,
      "apang": 4237,
      "vil": 4238,
      "uwid": 4239,
      "##Kristo": 4240,
      "opo": 4241,
      "##alak": 4242,
      "alakay": 4243,
      "##makita": 4244,
      "ungkahing": 4245,
      "##pagkaing": 4246,
      "##&": 4247,
      "##35": 4248,
      "pret": 4249,
      "##kinasasangkutan": 4250,
      "##tanggap": 4251,
      "##pagsubok": 4252,
      "##tro": 4253,
      "##balak": 4254,
      "igpit": 4255,
      "peres": 4256,
      "cio": 4257,
      "yero": 4258,
      "limbag": 4259,
      "##tangga": 4260,
      "##Sw": 4261,
      "##program": 4262,
      "##Dum": 4263,
      "##Kadala": 4264,
      "##nagmumula": 4265,
      "##internas": 4266,
      "sira": 4267,
      "##bituin": 4268,
      "##nagpapahiwatig": 4269,
      "##apostol": 4270,
      "##kapangyarihang": 4271,
      "lawak": 4272,
      "usahan": 4273,
      "##makap": 4274,
      "##nagawa": 4275,
      "##respon": 4276,
      "oso": 4277,
      "yum": 4278,
      "##seg": 4279,
      "##kalakalan": 4280,
      "ahin": 4281,
      "##Upang": 4282,
      "##hanggan": 4283,
      "##presyon": 4284,
      "##Ung": 4285,
      "##Portugal": 4286,
      "hana": 4287,
      "##Moises": 4288,
      "its": 4289,
      "rili": 4290,
      "##pariralang": 4291,
      "##atomo": 4292,
      "ain": 4293,
      "ayapaan": 4294,
      "lon": 4295,
      "##bio": 4296,
      "athala": 4297,
      "ux": 4298,
      "##Teo": 4299,
      "##ca": 4300,
      "##teknolohiya": 4301,
      "ami": 4302,
      "##War": 4303,
      "##sob": 4304,
      "unahan": 4305,
      "##kasulatan": 4306,
      "##Neg": 4307,
      "looban": 4308,
      "aralang": 4309,
      "##Hitler": 4310,
      "##paglago": 4311,
      "##Dakilang": 4312,
      "##kakulangan": 4313,
      "oko": 4314,
      "##pi": 4315,
      "##Fernan": 4316,
      "##organisa": 4317,
      "##Gam": 4318,
      "##sundalo": 4319,
      "ield": 4320,
      "ani": 4321,
      "##American": 4322,
      "##pagtuturo": 4323,
      "##kalahati": 4324,
      "##lahi": 4325,
      "##ikala": 4326,
      "##David": 4327,
      "##kahaba": 4328,
      "##Malaysia": 4329,
      "##rebol": 4330,
      "##aspeto": 4331,
      "##Hum": 4332,
      "##kem": 4333,
      "ree": 4334,
      "##Dito": 4335,
      "##nasabing": 4336,
      "##1990": 4337,
      "umentong": 4338,
      "##santo": 4339,
      "##NK": 4340,
      "##metal": 4341,
      "risti": 4342,
      "antasan": 4343,
      "uhat": 4344,
      "hanap": 4345,
      "enn": 4346,
      "erba": 4347,
      "##Sena": 4348,
      "##rec": 4349,
      "ktang": 4350,
      "##Sing": 4351,
      "##hukbo": 4352,
      "##ibon": 4353,
      "##Ali": 4354,
      "##naniniwalang": 4355,
      "##Em": 4356,
      "digma": 4357,
      "gawang": 4358,
      "##sosyo": 4359,
      "##Karagatang": 4360,
      "##krus": 4361,
      "##ray": 4362,
      "##magpap": 4363,
      "##Pasipiko": 4364,
      "##estim": 4365,
      "##samahan": 4366,
      "kadem": 4367,
      "##nagbaba": 4368,
      "kl": 4369,
      "atos": 4370,
      "##Pulo": 4371,
      "##Bansa": 4372,
      "stein": 4373,
      "##baboy": 4374,
      "##uring": 4375,
      "##aking": 4376,
      "pital": 4377,
      "uluang": 4378,
      "##ginawang": 4379,
      "##sampung": 4380,
      "##pamantayan": 4381,
      "yar": 4382,
      "bibig": 4383,
      "##Hel": 4384,
      "hiyang": 4385,
      "##pampang": 4386,
      "enda": 4387,
      "##bulaklak": 4388,
      "sius": 4389,
      "langin": 4390,
      "##kinakailangan": 4391,
      "##bili": 4392,
      "##panan": 4393,
      "##bumuo": 4394,
      "##siyam": 4395,
      "entasyon": 4396,
      "##33": 4397,
      "ema": 4398,
      "wil": 4399,
      "ism": 4400,
      "##tam": 4401,
      "##by": 4402,
      "##Ilang": 4403,
      "##suma": 4404,
      "##Et": 4405,
      "##Parti": 4406,
      "##bibli": 4407,
      "arating": 4408,
      "zzo": 4409,
      "dro": 4410,
      "pong": 4411,
      "ilahok": 4412,
      "##anong": 4413,
      "antum": 4414,
      "##publiko": 4415,
      "##saklaw": 4416,
      "##palaging": 4417,
      "DP": 4418,
      "insan": 4419,
      "##Sup": 4420,
      "omp": 4421,
      "##patungong": 4422,
      "kalde": 4423,
      "##inhinyer": 4424,
      "##kalagitna": 4425,
      "##paghahari": 4426,
      "##gra": 4427,
      "##Mindanao": 4428,
      "lot": 4429,
      "##atake": 4430,
      "##Os": 4431,
      "sikong": 4432,
      "##lumang": 4433,
      "napan": 4434,
      "##lar": 4435,
      "##Ebreo": 4436,
      "##pot": 4437,
      "##kimikal": 4438,
      "mu": 4439,
      "onomiya": 4440,
      "##bukod": 4441,
      "##interpret": 4442,
      "##[": 4443,
      "kuha": 4444,
      "uparan": 4445,
      "lul": 4446,
      "lathala": 4447,
      "##mainit": 4448,
      "utin": 4449,
      "turang": 4450,
      "ick": 4451,
      "##dalaga": 4452,
      "##alperes": 4453,
      "##kandidato": 4454,
      "akwil": 4455,
      "##mismo": 4456,
      "##Europe": 4457,
      "##kaagad": 4458,
      "##ngipin": 4459,
      "urian": 4460,
      "##Kanyang": 4461,
      "##nabanggit": 4462,
      "rea": 4463,
      "##CB": 4464,
      "linis": 4465,
      "##College": 4466,
      "##histori": 4467,
      "##Jack": 4468,
      "##School": 4469,
      "##pasyente": 4470,
      "unduk": 4471,
      "alanan": 4472,
      "zi": 4473,
      "ulto": 4474,
      "##GMA": 4475,
      "##nakali": 4476,
      "##dahon": 4477,
      "##tradisyong": 4478,
      "##Sib": 4479,
      "##Bon": 4480,
      "##disk": 4481,
      "##Aprik": 4482,
      "##nakuha": 4483,
      "##kaunting": 4484,
      "uwi": 4485,
      "yagan": 4486,
      "##Marami": 4487,
      "##Je": 4488,
      "##estadi": 4489,
      "wakan": 4490,
      "##Pr": 4491,
      "##panig": 4492,
      "lom": 4493,
      "##Mona": 4494,
      "##dr": 4495,
      "bisa": 4496,
      "##buhok": 4497,
      "##Nagkaroon": 4498,
      "##kahabaan": 4499,
      "##tinatanggap": 4500,
      "##hid": 4501,
      "##labin": 4502,
      "##Ipinang": 4503,
      "##kilusang": 4504,
      "##Italyano": 4505,
      "agan": 4506,
      "##Leon": 4507,
      "ederal": 4508,
      "riling": 4509,
      "##nagsasalita": 4510,
      "eneg": 4511,
      "##Nah": 4512,
      "##tuloy": 4513,
      "tug": 4514,
      "lakay": 4515,
      "##walong": 4516,
      "##tagumpay": 4517,
      "anggi": 4518,
      "##diyo": 4519,
      "##nagdulot": 4520,
      "##Bl": 4521,
      "isyong": 4522,
      "##ministro": 4523,
      "##pagpapahalaga": 4524,
      "cle": 4525,
      "basan": 4526,
      "##repub": 4527,
      "##nakala": 4528,
      "##direktang": 4529,
      "##Nagsimula": 4530,
      "##Mig": 4531,
      "##Sar": 4532,
      "##her": 4533,
      "##ekonomiko": 4534,
      "##apar": 4535,
      "##kaisipan": 4536,
      "##ben": 4537,
      "##kasanayan": 4538,
      "uyong": 4539,
      "hirang": 4540,
      "alint": 4541,
      "ordinat": 4542,
      "##magkap": 4543,
      "##katutubo": 4544,
      "##pagkilala": 4545,
      "##Lang": 4546,
      "##tradisyonal": 4547,
      "##panla": 4548,
      "yam": 4549,
      "##Associ": 4550,
      "##36": 4551,
      "ropo": 4552,
      "##North": 4553,
      "inanggit": 4554,
      "##mahihirap": 4555,
      "amba": 4556,
      "##ten": 4557,
      "lamin": 4558,
      "sag": 4559,
      "##bersiyon": 4560,
      "uther": 4561,
      "##auto": 4562,
      "##Hindu": 4563,
      "inar": 4564,
      "##Stat": 4565,
      "##Network": 4566,
      "endi": 4567,
      "##Robert": 4568,
      "uksan": 4569,
      "##sitw": 4570,
      "##ya": 4571,
      "hann": 4572,
      "##palat": 4573,
      "ale": 4574,
      "##Bina": 4575,
      "##Kristiyanong": 4576,
      "##Bac": 4577,
      "igkas": 4578,
      "##natin": 4579,
      "kukunan": 4580,
      "##libong": 4581,
      "ipili": 4582,
      "##manggagamot": 4583,
      "##lumilikha": 4584,
      "##Sta": 4585,
      "##grap": 4586,
      "##takot": 4587,
      "##kalagitnaan": 4588,
      "##Turkiya": 4589,
      "ild": 4590,
      "##selulang": 4591,
      "##lansangan": 4592,
      "##nagbabago": 4593,
      "##Nab": 4594,
      "akter": 4595,
      "##out": 4596,
      "##Daang": 4597,
      "##katuruan": 4598,
      "##langit": 4599,
      "##ur": 4600,
      "##dim": 4601,
      "##magb": 4602,
      "##plat": 4603,
      "##kautusan": 4604,
      "##pangs": 4605,
      "ater": 4606,
      "##Isabel": 4607,
      "sakit": 4608,
      "##dalaw": 4609,
      "##saligang": 4610,
      "##Apostol": 4611,
      "##Ari": 4612,
      "##sap": 4613,
      "##Lab": 4614,
      "##reproduk": 4615,
      "##sc": 4616,
      "##nakipag": 4617,
      "##magkatulad": 4618,
      "##pamayanang": 4619,
      "##birus": 4620,
      "##hinango": 4621,
      "##Panginoon": 4622,
      "aan": 4623,
      "##kinuha": 4624,
      "##totoo": 4625,
      "##emp": 4626,
      "##gaanong": 4627,
      "fic": 4628,
      "##seksuwalidad": 4629,
      "##Som": 4630,
      "##Protestant": 4631,
      "##karne": 4632,
      "##nawala": 4633,
      "##yari": 4634,
      "samang": 4635,
      "###": 4636,
      "##Bula": 4637,
      "##Japan": 4638,
      "##Pap": 4639,
      "##Charles": 4640,
      "##chi": 4641,
      "bur": 4642,
      "##tekn": 4643,
      "##umalis": 4644,
      "away": 4645,
      "##analisis": 4646,
      "eda": 4647,
      "##nagdad": 4648,
      "##tumungo": 4649,
      "##kadalasan": 4650,
      "kam": 4651,
      "##Kaga": 4652,
      "ise": 4653,
      "##himpilan": 4654,
      "##Mer": 4655,
      "laysay": 4656,
      "##kopya": 4657,
      "##Just": 4658,
      "istang": 4659,
      "iles": 4660,
      "unas": 4661,
      "##batong": 4662,
      "##istrak": 4663,
      "##pangkasal": 4664,
      "akot": 4665,
      "##espesyal": 4666,
      "##kagand": 4667,
      "##Dinam": 4668,
      "##tuwirang": 4669,
      "dian": 4670,
      "##Samar": 4671,
      "tle": 4672,
      "istiko": 4673,
      "##manusk": 4674,
      "##refer": 4675,
      "ungkulan": 4676,
      "##alitan": 4677,
      "ugtog": 4678,
      "kis": 4679,
      "##suporta": 4680,
      "tan": 4681,
      "atiko": 4682,
      "##ibina": 4683,
      "##digmaang": 4684,
      "##Pagkaraan": 4685,
      "##2004": 4686,
      "##ulat": 4687,
      "ungkol": 4688,
      "wika": 4689,
      "##nakatira": 4690,
      "##magandang": 4691,
      "##institusyon": 4692,
      "##Ant": 4693,
      "##Dinastiyang": 4694,
      "ner": 4695,
      "##katalik": 4696,
      "##pamamaga": 4697,
      "##z": 4698,
      "imo": 4699,
      "##Fa": 4700,
      "etang": 4701,
      "siyal": 4702,
      "##simpleng": 4703,
      "##Anton": 4704,
      "##simbahang": 4705,
      "ction": 4706,
      "##Tanak": 4707,
      "adaan": 4708,
      "##bilyong": 4709,
      "##banda": 4710,
      "##Armen": 4711,
      "##tanong": 4712,
      "##Katulad": 4713,
      "##Uk": 4714,
      "##sumulat": 4715,
      "##sabay": 4716,
      "##Alexand": 4717,
      "##tis": 4718,
      "##sekswal": 4719,
      "##modelong": 4720,
      "emokratikong": 4721,
      "##kasangkapang": 4722,
      "##nararapat": 4723,
      "##heter": 4724,
      "##Tanakh": 4725,
      "##ebolb": 4726,
      "##sp": 4727,
      "apag": 4728,
      "##Las": 4729,
      "ubunduk": 4730,
      "uong": 4731,
      "##nanana": 4732,
      "##Ib": 4733,
      "##Ini": 4734,
      "awig": 4735,
      "##Miguel": 4736,
      "##abo": 4737,
      "unaw": 4738,
      "##nas": 4739,
      "aloob": 4740,
      "stiko": 4741,
      "rona": 4742,
      "ark": 4743,
      "##Nue": 4744,
      ",3": 4745,
      "##bakal": 4746,
      "##kaganapan": 4747,
      "uho": 4748,
      "##70": 4749,
      "eria": 4750,
      "##kapan": 4751,
      "##Constan": 4752,
      "##Kapulungan": 4753,
      "##pagdi": 4754,
      "##munisipalidad": 4755,
      "##Juli": 4756,
      "##kasamang": 4757,
      "##AB": 4758,
      "ustong": 4759,
      "##musik": 4760,
      "##Nin": 4761,
      "##kuwentong": 4762,
      "##natatangi": 4763,
      "##Kin": 4764,
      "##Mediter": 4765,
      "##magbigay": 4766,
      "##pagnanais": 4767,
      "##tulu": 4768,
      "##puting": 4769,
      "##Ger": 4770,
      "omba": 4771,
      "##eher": 4772,
      "##bigkas": 4773,
      "##krimen": 4774,
      "##patakarang": 4775,
      "##Nagmula": 4776,
      "##paglipas": 4777,
      "##apoy": 4778,
      "##heneral": 4779,
      "##Dinamarka": 4780,
      "##Tiy": 4781,
      "##katinig": 4782,
      "reli": 4783,
      "##maliwanag": 4784,
      ",6": 4785,
      "##instr": 4786,
      "##pagkakak": 4787,
      ",7": 4788,
      "stika": 4789,
      "##Tala": 4790,
      "##prim": 4791,
      "##kolonya": 4792,
      "##parte": 4793,
      "##Australia": 4794,
      "##Lah": 4795,
      "##kumbento": 4796,
      "##Wikipedia": 4797,
      "##iral": 4798,
      ",4": 4799,
      "vin": 4800,
      "##Eng": 4801,
      "mahan": 4802,
      "##politiko": 4803,
      "##panun": 4804,
      "##pagsasagawa": 4805,
      "ulti": 4806,
      "##pagkap": 4807,
      "yp": 4808,
      "##rit": 4809,
      "rinig": 4810,
      "##Clara": 4811,
      "##pangungusap": 4812,
      "hahambing": 4813,
      "##pagpapakamatay": 4814,
      "##obser": 4815,
      "##pangg": 4816,
      "##paghahanap": 4817,
      "##tingnan": 4818,
      "ordinates": 4819,
      "osi": 4820,
      "##pagkuk": 4821,
      "##henetiko": 4822,
      "orge": 4823,
      "##kabihas": 4824,
      "##Um": 4825,
      "##homo": 4826,
      "##ibaba": 4827,
      "##bangkay": 4828,
      "ember": 4829,
      "##comp": 4830,
      "##monar": 4831,
      "ony": 4832,
      "##80": 4833,
      "angkang": 4834,
      "##daloy": 4835,
      "logy": 4836,
      "wasak": 4837,
      "##Brun": 4838,
      "##kasangkapan": 4839,
      "##Rec": 4840,
      "##poli": 4841,
      "katawan": 4842,
      "##Sun": 4843,
      "wasang": 4844,
      "##Union": 4845,
      "##katan": 4846,
      "##binuo": 4847,
      "##Portug": 4848,
      "##negatibong": 4849,
      "##sagisag": 4850,
      "angalan": 4851,
      "##Mis": 4852,
      "##that": 4853,
      "##banggit": 4854,
      "##39": 4855,
      "##Kum": 4856,
      "ukuyin": 4857,
      "##agrik": 4858,
      "Al": 4859,
      "##South": 4860,
      "dote": 4861,
      "##makasa": 4862,
      "lingan": 4863,
      "siyasat": 4864,
      "##Mased": 4865,
      "##Gum": 4866,
      "##TV": 4867,
      "##matandang": 4868,
      "##pera": 4869,
      "anim": 4870,
      "##Kastilang": 4871,
      "##karagatan": 4872,
      "##ekonomika": 4873,
      "##pamantasan": 4874,
      "orte": 4875,
      "akbang": 4876,
      "utukoy": 4877,
      "##kalalakihan": 4878,
      "uag": 4879,
      "##Zambo": 4880,
      "##mamatay": 4881,
      "##pangkal": 4882,
      "uyan": 4883,
      "##lubos": 4884,
      "unduang": 4885,
      "##1980": 4886,
      "##grupong": 4887,
      "##lawak": 4888,
      "##Daigdig": 4889,
      "##programang": 4890,
      "##umabot": 4891,
      "##Austria": 4892,
      "##kaluluwa": 4893,
      "ors": 4894,
      "##lawa": 4895,
      "##utos": 4896,
      "ef": 4897,
      "##interes": 4898,
      "##Maka": 4899,
      "##binigyan": 4900,
      "##disiplina": 4901,
      "##mitolohiyang": 4902,
      ",9": 4903,
      "##kahalagahan": 4904,
      "ason": 4905,
      "##kapar": 4906,
      "##piling": 4907,
      "##inilabas": 4908,
      "##nilalaman": 4909,
      "##Ot": 4910,
      "limang": 4911,
      "##silid": 4912,
      "umo": 4913,
      "##kita": 4914,
      "##Liber": 4915,
      "##sirk": 4916,
      "aham": 4917,
      "##Jac": 4918,
      "##umaabot": 4919,
      "##2013": 4920,
      "pisyal": 4921,
      "##Award": 4922,
      "##Pak": 4923,
      "##usap": 4924,
      "##Maling": 4925,
      "zar": 4926,
      "##Central": 4927,
      "##Ph": 4928,
      "##sino": 4929,
      "##Coordinates": 4930,
      "##not": 4931,
      "##2001": 4932,
      "posisyon": 4933,
      "untis": 4934,
      "##unting": 4935,
      "##Jackson": 4936,
      "##isinagawa": 4937,
      "##produktong": 4938,
      "ee": 4939,
      "alabas": 4940,
      "disyong": 4941,
      "##Rod": 4942,
      "##Tin": 4943,
      "##Laba": 4944,
      "##hener": 4945,
      "##kalam": 4946,
      "##sugat": 4947,
      "##For": 4948,
      "##Tre": 4949,
      "##bakuna": 4950,
      "##balangkas": 4951,
      "##muna": 4952,
      "##inilarawan": 4953,
      "##pilosopiyang": 4954,
      "gyan": 4955,
      "##puwesto": 4956,
      "##dist": 4957,
      "eto": 4958,
      "##magsasa": 4959,
      "##kemikal": 4960,
      "##area": 4961,
      "nalidad": 4962,
      "dalawang": 4963,
      "##gam": 4964,
      "##Birhen": 4965,
      "uportahan": 4966,
      "##Olimpiko": 4967,
      "##tugon": 4968,
      "gam": 4969,
      "##ganito": 4970,
      "##esk": 4971,
      "##GDP": 4972,
      "##Budismo": 4973,
      "##pangkatawan": 4974,
      "##Sen": 4975,
      "##nil": 4976,
      "##kamala": 4977,
      "himpapawid": 4978,
      "##Ah": 4979,
      "##malub": 4980,
      "##batayan": 4981,
      "##pinakamatandang": 4982,
      "digo": 4983,
      "##organismong": 4984,
      "ics": 4985,
      "##August": 4986,
      "ikot": 4987,
      "##asido": 4988,
      "##maling": 4989,
      "lah": 4990,
      "##Jesus": 4991,
      "##naghi": 4992,
      "##larong": 4993,
      "##nanalo": 4994,
      "##hinaharap": 4995,
      "tur": 4996,
      "##layuning": 4997,
      "orma": 4998,
      "itis": 4999,
      "##doktrina": 5000,
      "##ner": 5001,
      "##pila": 5002,
      "alintulad": 5003,
      "ion": 5004,
      "yok": 5005,
      "istahan": 5006,
      "##nagtut": 5007,
      "##pagtukoy": 5008,
      "##Alban": 5009,
      "##Awit": 5010,
      "##simbolo": 5011,
      "##Zamboanga": 5012,
      "##nananatiling": 5013,
      "##UE": 5014,
      "lish": 5015,
      "##ipinat": 5016,
      "##Kaugnay": 5017,
      "##Budi": 5018,
      "##sekw": 5019,
      "##karakter": 5020,
      "##gob": 5021,
      "ated": 5022,
      "atoryo": 5023,
      "##nasus": 5024,
      "##Mundo": 5025,
      "##mainam": 5026,
      "king": 5027,
      "##kalapit": 5028,
      "##hula": 5029,
      "##saka": 5030,
      "##NA": 5031,
      "unla": 5032,
      "##Hom": 5033,
      "##lut": 5034,
      "##45": 5035,
      "##alt": 5036,
      "##tukuyin": 5037,
      "ede": 5038,
      "##Fo": 5039,
      "##Gar": 5040,
      "##Pagpap": 5041,
      "##astr": 5042,
      "##pagkawala": 5043,
      "ukd": 5044,
      "##Iran": 5045,
      "imulan": 5046,
      "##artikulo": 5047,
      "##tinanggap": 5048,
      "usin": 5049,
      "##timbang": 5050,
      "nia": 5051,
      "##Oriental": 5052,
      "##masamang": 5053,
      "##medisina": 5054,
      "##prinsipyo": 5055,
      "cto": 5056,
      "ial": 5057,
      "##imah": 5058,
      "##Indiya": 5059,
      "##histor": 5060,
      "##Pamantasan": 5061,
      "uwe": 5062,
      "##Jr": 5063,
      "##network": 5064,
      "hek": 5065,
      "##Tok": 5066,
      "akilala": 5067,
      "##Ipinag": 5068,
      "##probin": 5069,
      "##Masedonya": 5070,
      "ym": 5071,
      "lilikha": 5072,
      "##porsiy": 5073,
      "##sasakyang": 5074,
      "rusa": 5075,
      "##inf": 5076,
      "oph": 5077,
      "rain": 5078,
      "##kumaka": 5079,
      "iano": 5080,
      "akip": 5081,
      "##Monte": 5082,
      "##trono": 5083,
      "##kolon": 5084,
      "##Hukbong": 5085,
      "##paglaki": 5086,
      "##Mong": 5087,
      "##mensa": 5088,
      "##dinala": 5089,
      "##Ste": 5090,
      "##ing": 5091,
      "##Rich": 5092,
      "##akadem": 5093,
      "##disenyo": 5094,
      "##Pangunahing": 5095,
      "##Nagt": 5096,
      "rans": 5097,
      "##Bene": 5098,
      "##Sang": 5099,
      "alismo": 5100,
      "##haring": 5101,
      "##kayarian": 5102,
      "##184": 5103,
      "##kaay": 5104,
      "##Gab": 5105,
      "##nanatili": 5106,
      "##Manuel": 5107,
      "##aaralan": 5108,
      "##Id": 5109,
      "##templo": 5110,
      "adal": 5111,
      "##Sah": 5112,
      "##kos": 5113,
      "##eksp": 5114,
      "##land": 5115,
      "##hati": 5116,
      "agon": 5117,
      "##ikina": 5118,
      "##popular": 5119,
      "hand": 5120,
      "##Yah": 5121,
      "##Pasig": 5122,
      "##elect": 5123,
      "##liber": 5124,
      "ukasyong": 5125,
      "83": 5126,
      "ilag": 5127,
      "##ham": 5128,
      "?]": 5129,
      "##utang": 5130,
      "##espasyo": 5131,
      "##inu": 5132,
      "##nagsil": 5133,
      "##operasyon": 5134,
      "##kateg": 5135,
      "##pagsisi": 5136,
      "akitang": 5137,
      "akila": 5138,
      "##Mang": 5139,
      "##Rosa": 5140,
      "sim": 5141,
      "##Thailand": 5142,
      "esya": 5143,
      "##Church": 5144,
      "##kapayapaan": 5145,
      "bio": 5146,
      "##bot": 5147,
      "hayan": 5148,
      "relihiyon": 5149,
      "##Ingglatera": 5150,
      "##gaga": 5151,
      "##populasyong": 5152,
      "umi": 5153,
      "##manggagawa": 5154,
      "##sayaw": 5155,
      "##gastos": 5156,
      "line": 5157,
      "amental": 5158,
      "##Organ": 5159,
      "##Center": 5160,
      "##kaunti": 5161,
      "hu": 5162,
      "arya": 5163,
      "##Sch": 5164,
      "##propeta": 5165,
      "##Constantinople": 5166,
      "##tugtug": 5167,
      "klaw": 5168,
      "##Lib": 5169,
      "##nakaugali": 5170,
      "##pil": 5171,
      "##pampa": 5172,
      "##tagapagtatag": 5173,
      "##pinaniniwalaan": 5174,
      "##Belhika": 5175,
      "##diplo": 5176,
      "angking": 5177,
      "##pinunong": 5178,
      "##paliwanag": 5179,
      "bri": 5180,
      "ugong": 5181,
      "undong": 5182,
      "##molekula": 5183,
      "##pagbabalik": 5184,
      "##Tiyago": 5185,
      "##kabana": 5186,
      "##alkalde": 5187,
      "##Pac": 5188,
      "##paghahanda": 5189,
      "##Rafa": 5190,
      "##Victor": 5191,
      "kim": 5192,
      "##Katip": 5193,
      "##Batang": 5194,
      "ny": 5195,
      "edo": 5196,
      "ekla": 5197,
      "ward": 5198,
      "dena": 5199,
      "lamig": 5200,
      "##pangkaraniwan": 5201,
      "##Sult": 5202,
      "##barko": 5203,
      "guni": 5204,
      "##Olanda": 5205,
      "##porsiyento": 5206,
      "##Pandaigdigang": 5207,
      "imik": 5208,
      "##Persian": 5209,
      "##katap": 5210,
      "##Ele": 5211,
      "kasyong": 5212,
      "##Santos": 5213,
      "##sex": 5214,
      "##Rafael": 5215,
      "ustan": 5216,
      "##estud": 5217,
      "ning": 5218,
      "##Association": 5219,
      "andog": 5220,
      "##panin": 5221,
      "##Bi": 5222,
      "##Moro": 5223,
      "usig": 5224,
      "##test": 5225,
      "##madi": 5226,
      "##kaugalian": 5227,
      "##kawal": 5228,
      "##Mc": 5229,
      "##Glo": 5230,
      "##Unggarya": 5231,
      "##ibin": 5232,
      "##akdang": 5233,
      "##mamalya": 5234,
      "ahintulot": 5235,
      "##kahi": 5236,
      "##katamt": 5237,
      "##Kongreso": 5238,
      "##mahigpit": 5239,
      "##Mes": 5240,
      "##Grego": 5241,
      "##Alf": 5242,
      "ls": 5243,
      "##panggagamot": 5244,
      ".5": 5245,
      "##virus": 5246,
      "##kapitan": 5247,
      "liano": 5248,
      "##On": 5249,
      "litaw": 5250,
      "##Darwin": 5251,
      "##Itinat": 5252,
      "##nagsasagawa": 5253,
      "ukaw": 5254,
      "##XI": 5255,
      "nais": 5256,
      "##Biy": 5257,
      "##1992": 5258,
      "##references": 5259,
      "bos": 5260,
      "##Tsek": 5261,
      "lav": 5262,
      "red": 5263,
      "das": 5264,
      "##tirahan": 5265,
      "##kagamitan": 5266,
      "siyas": 5267,
      "diksiyon": 5268,
      "##iisa": 5269,
      "imbento": 5270,
      "##pagpatay": 5271,
      "##bumagsak": 5272,
      "bad": 5273,
      "ubong": 5274,
      "##umuunlad": 5275,
      "##ED": 5276,
      "##pista": 5277,
      "##Caga": 5278,
      "##nobela": 5279,
      "butan": 5280,
      "unista": 5281,
      "ety": 5282,
      "##syn": 5283,
      "##korte": 5284,
      "##klasikong": 5285,
      "acio": 5286,
      "##tagapagt": 5287,
      "fe": 5288,
      "hinga": 5289,
      "hol": 5290,
      "hari": 5291,
      "##posisyong": 5292,
      "##pamantayang": 5293,
      "##gro": 5294,
      "##tama": 5295,
      "##itinayo": 5296,
      "kus": 5297,
      "##repres": 5298,
      "##sur": 5299,
      "##milya": 5300,
      "##Cagayan": 5301,
      "##nagreres": 5302,
      "##nagkakaroon": 5303,
      "##Sp": 5304,
      "##300": 5305,
      "atikong": 5306,
      "##Fernando": 5307,
      "ky": 5308,
      "##Hong": 5309,
      "hintay": 5310,
      "##dagdag": 5311,
      "##dati": 5312,
      "unungan": 5313,
      "alitang": 5314,
      "lian": 5315,
      "unahin": 5316,
      "##Kapuluang": 5317,
      "##pribadong": 5318,
      "akas": 5319,
      "##neut": 5320,
      "resulta": 5321,
      "##Labanan": 5322,
      "##malaya": 5323,
      "##panging": 5324,
      "##ipinakilala": 5325,
      "##90": 5326,
      "##Gor": 5327,
      "##Lim": 5328,
      "imili": 5329,
      "##indep": 5330,
      "##pagpasok": 5331,
      "inom": 5332,
      "##Dating": 5333,
      "##Corinto": 5334,
      "reng": 5335,
      "teb": 5336,
      "##Congo": 5337,
      "##Martin": 5338,
      "##Batay": 5339,
      "##heteros": 5340,
      "##nagdudulot": 5341,
      "ru": 5342,
      "##tuk": 5343,
      "##Lina": 5344,
      "##bik": 5345,
      "##tradisyunal": 5346,
      "##British": 5347,
      "##binanggit": 5348,
      "##napat": 5349,
      "##lalong": 5350,
      "##kalooban": 5351,
      "##kalinangan": 5352,
      "elt": 5353,
      "##dayuhan": 5354,
      "##umunlad": 5355,
      "##Portuges": 5356,
      "##pampagtatalik": 5357,
      "##aso": 5358,
      "##lumipat": 5359,
      "##Tao": 5360,
      "atagan": 5361,
      "##sektang": 5362,
      "##tatlo": 5363,
      "##aal": 5364,
      "agaling": 5365,
      "lakalan": 5366,
      "##Arabe": 5367,
      "lesia": 5368,
      "##plano": 5369,
      "##Saligang": 5370,
      "awad": 5371,
      "##Nig": 5372,
      "##pagpapahayag": 5373,
      "67": 5374,
      "##Pol": 5375,
      "inisi": 5376,
      "##radi": 5377,
      "edon": 5378,
      "##tinag": 5379,
      "##Taiwan": 5380,
      "##sanggunian": 5381,
      "##pagsasaliksik": 5382,
      "bert": 5383,
      "##2012": 5384,
      "##Saint": 5385,
      "##gawing": 5386,
      "##EDSA": 5387,
      "##Laguna": 5388,
      "##imperyong": 5389,
      "##nagpatuloy": 5390,
      "##nagsisilbing": 5391,
      "ces": 5392,
      "hem": 5393,
      "alagay": 5394,
      "##piraso": 5395,
      "17": 5396,
      "ath": 5397,
      "##bir": 5398,
      "##panl": 5399,
      "##hawak": 5400,
      "##pagsulat": 5401,
      "aong": 5402,
      "hawa": 5403,
      "##Pri": 5404,
      "##1991": 5405,
      "oryang": 5406,
      "yosong": 5407,
      "##Pinan": 5408,
      "##saser": 5409,
      "19": 5410,
      "omang": 5411,
      "##isyu": 5412,
      "##pasi": 5413,
      "amanan": 5414,
      "##Lahat": 5415,
      "cy": 5416,
      "##us": 5417,
      "##kast": 5418,
      "gaya": 5419,
      "##pakikipagt": 5420,
      "sakop": 5421,
      "pansin": 5422,
      "##puwersa": 5423,
      "##puwersang": 5424,
      "tibay": 5425,
      "angat": 5426,
      "##Vir": 5427,
      "lino": 5428,
      "##pagg": 5429,
      "##Digmaan": 5430,
      "##pagsasalin": 5431,
      "uriang": 5432,
      "##tanggapan": 5433,
      "##kasiyahan": 5434,
      "diko": 5435,
      "isis": 5436,
      "##buwis": 5437,
      "##natitirang": 5438,
      "##paghihiwalay": 5439,
      "##linyang": 5440,
      "##Cruz": 5441,
      "##kalaban": 5442,
      "##konseho": 5443,
      "igyan": 5444,
      "ising": 5445,
      "##Kaba": 5446,
      "ID": 5447,
      "tima": 5448,
      "##Cab": 5449,
      "alawa": 5450,
      "##pula": 5451,
      "limuot": 5452,
      "##aralan": 5453,
      "akay": 5454,
      "buka": 5455,
      "##buk": 5456,
      "##mutasyon": 5457,
      "##kalimitang": 5458,
      "##Can": 5459,
      "##bangka": 5460,
      "alth": 5461,
      "##Ling": 5462,
      "##nagsisimula": 5463,
      "##1960": 5464,
      "tasang": 5465,
      "##sinundan": 5466,
      "mpasi": 5467,
      "##tagapang": 5468,
      "hit": 5469,
      "##arkit": 5470,
      "##Atlant": 5471,
      "##nagk": 5472,
      "##Hilaga": 5473,
      "##sumali": 5474,
      "##paminsan": 5475,
      "##nasasakupan": 5476,
      "ear": 5477,
      "tra": 5478,
      "##dag": 5479,
      "lac": 5480,
      "##Men": 5481,
      "##buo": 5482,
      "uagint": 5483,
      "##Septuagint": 5484,
      "loh": 5485,
      "##Tib": 5486,
      "##talamp": 5487,
      "dinan": 5488,
      "##pangkalusugan": 5489,
      "##kalak": 5490,
      "##supling": 5491,
      "##tawagin": 5492,
      "##proyekto": 5493,
      "adalas": 5494,
      "rianismo": 5495,
      "##punt": 5496,
      "##Ministro": 5497,
      "##1986": 5498,
      "##pagsusulat": 5499,
      "ekta": 5500,
      "##Reyna": 5501,
      "andar": 5502,
      "##Star": 5503,
      "##sitwasyon": 5504,
      "##petsa": 5505,
      "##hakbang": 5506,
      "##Gala": 5507,
      "##partikulo": 5508,
      "##nakalilipas": 5509,
      "nayang": 5510,
      "##isla": 5511,
      "##iminungkahi": 5512,
      "##Brunei": 5513,
      "##binago": 5514,
      "##medikal": 5515,
      "##Su": 5516,
      "##Distr": 5517,
      "bibilang": 5518,
      "20": 5519,
      "guw": 5520,
      "##paring": 5521,
      "##lokasyon": 5522,
      "##malalim": 5523,
      "##pananag": 5524,
      "iro": 5525,
      "irap": 5526,
      "##bigat": 5527,
      "cht": 5528,
      "tis": 5529,
      "##120": 5530,
      "##Iba": 5531,
      "##Taong": 5532,
      "##nawaw": 5533,
      "##ipinahayag": 5534,
      "hating": 5535,
      "##nabuhay": 5536,
      "##Isin": 5537,
      "##sumapit": 5538,
      "##gobyerno": 5539,
      "##edukasyong": 5540,
      "##Cro": 5541,
      "##Henry": 5542,
      "##Nakat": 5543,
      "atic": 5544,
      "##pampan": 5545,
      "##set": 5546,
      "##bari": 5547,
      "uhayan": 5548,
      "##bilis": 5549,
      "sen": 5550,
      "igang": 5551,
      "##datos": 5552,
      "##pagbuo": 5553,
      "##sobrang": 5554,
      "##ilarawan": 5555,
      "##nakatanggap": 5556,
      "##halagang": 5557,
      "##tumanggap": 5558,
      "##panrelihiyon": 5559,
      "##susunod": 5560,
      "##pareho": 5561,
      "##nagmam": 5562,
      "##pangangalaga": 5563,
      "##bisa": 5564,
      "##estudyante": 5565,
      "##pagpapaunlad": 5566,
      "##500": 5567,
      "rial": 5568,
      "pines": 5569,
      "##layo": 5570,
      "##mong": 5571,
      "##gampan": 5572,
      "##Angeles": 5573,
      "##pananalita": 5574,
      "##guhit": 5575,
      "##sekta": 5576,
      "##rekord": 5577,
      "##Gali": 5578,
      "##pagdur": 5579,
      "##interpretasyon": 5580,
      "##wakas": 5581,
      "##pagkilos": 5582,
      "##Kh": 5583,
      "##Yahw": 5584,
      "ektong": 5585,
      "##tinig": 5586,
      "##makina": 5587,
      "##manuskrito": 5588,
      "##Sala": 5589,
      "##naip": 5590,
      "otesis": 5591,
      "##pangpag": 5592,
      "tagal": 5593,
      "##Ferdinan": 5594,
      "##pagpapanatili": 5595,
      "bakya": 5596,
      "uturing": 5597,
      "sipikong": 5598,
      "##post": 5599,
      "##Davao": 5600,
      "##isk": 5601,
      "##umiral": 5602,
      "katuparan": 5603,
      ",0": 5604,
      "##34": 5605,
      "dulot": 5606,
      "##1989": 5607,
      "##pinalitan": 5608,
      "##ABS": 5609,
      "stiya": 5610,
      "vic": 5611,
      "batas": 5612,
      "##balita": 5613,
      "##kapara": 5614,
      "80": 5615,
      "##Estr": 5616,
      "##Teoriya": 5617,
      "##etniko": 5618,
      "##pagkakakilan": 5619,
      "##Philippines": 5620,
      "ister": 5621,
      "##2003": 5622,
      "##kaiba": 5623,
      "##paksang": 5624,
      "hid": 5625,
      "lasyong": 5626,
      "inin": 5627,
      "##Cha": 5628,
      "##Louis": 5629,
      "##kasuot": 5630,
      "##Ferdinand": 5631,
      "gio": 5632,
      "##CBN": 5633,
      "##bun": 5634,
      "aliit": 5635,
      "##Hina": 5636,
      "##mapa": 5637,
      "##pagkaba": 5638,
      "ding": 5639,
      "onang": 5640,
      "##inang": 5641,
      "##mabili": 5642,
      "mpalatayang": 5643,
      "##kontinente": 5644,
      "##indibiduwal": 5645,
      "uros": 5646,
      "##Win": 5647,
      "##Medi": 5648,
      "##trib": 5649,
      "##ambag": 5650,
      "##sustan": 5651,
      "##anatomiya": 5652,
      "##kalawakan": 5653,
      "##tumatanggap": 5654,
      "yaya": 5655,
      "##pumapayag": 5656,
      "##1945": 5657,
      "pos": 5658,
      "##Sent": 5659,
      "##nala": 5660,
      "tir": 5661,
      "edya": 5662,
      "##Una": 5663,
      "##ulan": 5664,
      "##pwersa": 5665,
      "ukay": 5666,
      "uwang": 5667,
      "##alamat": 5668,
      "##Linares": 5669,
      "##kinik": 5670,
      "##nangangahulugan": 5671,
      "##masi": 5672,
      "##Itina": 5673,
      "##nagsasabing": 5674,
      "##pundamental": 5675,
      "apo": 5676,
      "lum": 5677,
      "basa": 5678,
      "##anghel": 5679,
      "##likido": 5680,
      "##pagganap": 5681,
      "##alon": 5682,
      "##punsiyon": 5683,
      "##mananaliksik": 5684,
      "10": 5685,
      "##Bis": 5686,
      "ulaan": 5687,
      "##oksi": 5688,
      "umpa": 5689,
      "##Islands": 5690,
      "##pilosopo": 5691,
      "##Atlantiko": 5692,
      "fo": 5693,
      "osya": 5694,
      "sehong": 5695,
      "##diwang": 5696,
      "##magagamit": 5697,
      "kh": 5698,
      "##God": 5699,
      "##Los": 5700,
      "##Tinawag": 5701,
      "##pangangasiwa": 5702,
      "right": 5703,
      "##pagsamba": 5704,
      "dog": 5705,
      "ney": 5706,
      "##dik": 5707,
      "##agad": 5708,
      "oth": 5709,
      "##abs": 5710,
      "##37": 5711,
      "##biyolohiya": 5712,
      "##komunikasyon": 5713,
      "##komunidad": 5714,
      "atiran": 5715,
      "##Carlos": 5716,
      "##with": 5717,
      "ium": 5718,
      "ogo": 5719,
      "damang": 5720,
      "##tiyan": 5721,
      "##Russia": 5722,
      "atayo": 5723,
      "##manip": 5724,
      "entaryo": 5725,
      "##direksiyon": 5726,
      "##Az": 5727,
      "##Hip": 5728,
      "##George": 5729,
      "##paghuh": 5730,
      "##protina": 5731,
      "erra": 5732,
      "##Red": 5733,
      "##from": 5734,
      "##sasa": 5735,
      "##Monteneg": 5736,
      "rata": 5737,
      "dyang": 5738,
      "##moral": 5739,
      "##perman": 5740,
      "uing": 5741,
      "##Sir": 5742,
      "rasya": 5743,
      "##iwas": 5744,
      "##list": 5745,
      "##Agu": 5746,
      "##Por": 5747,
      "mpanan": 5748,
      "##kasong": 5749,
      "##elementong": 5750,
      "##Rob": 5751,
      "##kabuo": 5752,
      "pektura": 5753,
      "##tekstong": 5754,
      "##nakalipas": 5755,
      "rep": 5756,
      "ingat": 5757,
      "##tren": 5758,
      "sipe": 5759,
      "ranas": 5760,
      "##Ilocos": 5761,
      "ford": 5762,
      "##Gil": 5763,
      "##unit": 5764,
      "##Ipinanganak": 5765,
      "##Katipunan": 5766,
      "##kontrober": 5767,
      "otiko": 5768,
      "##hika": 5769,
      "rusada": 5770,
      "##tut": 5771,
      "##Tomas": 5772,
      "ukal": 5773,
      "##Kre": 5774,
      "##pabalik": 5775,
      "##saserdote": 5776,
      "##1970": 5777,
      "##payo": 5778,
      "##lohika": 5779,
      "##Vil": 5780,
      "##demon": 5781,
      "##katawang": 5782,
      "##Kanluranin": 5783,
      "##Flor": 5784,
      "##Eslobakya": 5785,
      "##paaralang": 5786,
      "##Mi": 5787,
      "##komb": 5788,
      "##planeta": 5789,
      "##umaayon": 5790,
      "##makinang": 5791,
      "##Tele": 5792,
      "##pahina": 5793,
      "##agrikultura": 5794,
      "Alba": 5795,
      "awal": 5796,
      "alsik": 5797,
      "##Arab": 5798,
      "##galit": 5799,
      "bukasan": 5800,
      "erno": 5801,
      "litis": 5802,
      "uhunan": 5803,
      "##antropo": 5804,
      "##Katumbas": 5805,
      "##paanong": 5806,
      "##Gayundin": 5807,
      "##Demokratikong": 5808,
      "dikit": 5809,
      "##umaga": 5810,
      "##namuno": 5811,
      "himagsik": 5812,
      "##Zoro": 5813,
      "##inum": 5814,
      "lalay": 5815,
      "##panuka": 5816,
      "uy": 5817,
      "##ikaapat": 5818,
      "##Dal": 5819,
      "##Les": 5820,
      "##mangyari": 5821,
      "##paningin": 5822,
      "##Sho": 5823,
      "##itinak": 5824,
      "##Pop": 5825,
      "##Nagsi": 5826,
      "##historikal": 5827,
      "##Tem": 5828,
      "umpisa": 5829,
      "##Ruman": 5830,
      "##UK": 5831,
      "##Lan": 5832,
      "##Sudan": 5833,
      "##paglili": 5834,
      "##desisyon": 5835,
      "##mahah": 5836,
      "##Protestante": 5837,
      "order": 5838,
      "##Odis": 5839,
      "##taba": 5840,
      "##tubo": 5841,
      "##Senado": 5842,
      "xt": 5843,
      "lack": 5844,
      "##2002": 5845,
      "tad": 5846,
      "alas": 5847,
      "##hab": 5848,
      "##kumalat": 5849,
      "##kayamanan": 5850,
      "##daw": 5851,
      "##Sumer": 5852,
      "##Montenegro": 5853,
      "##Art": 5854,
      "##Pil": 5855,
      "##Tsip": 5856,
      "##imahe": 5857,
      "##Tangway": 5858,
      "##inilagay": 5859,
      "##les": 5860,
      "##Tsipre": 5861,
      "##itinut": 5862,
      "##aksiyon": 5863,
      "##biktima": 5864,
      "##sentral": 5865,
      "non": 5866,
      "##huw": 5867,
      "##pol": 5868,
      "lie": 5869,
      "##Asi": 5870,
      "##Suwesya": 5871,
      "##kaayusan": 5872,
      "ampok": 5873,
      "##epis": 5874,
      "##daliri": 5875,
      "##Pinaniniwala": 5876,
      "##Ni": 5877,
      "abuti": 5878,
      "ining": 5879,
      "##nahi": 5880,
      "uridad": 5881,
      "##eksperimento": 5882,
      "mita": 5883,
      "##bol": 5884,
      "entil": 5885,
      "sigla": 5886,
      "##rebel": 5887,
      "##Yahweh": 5888,
      "##nababa": 5889,
      "##pinsala": 5890,
      "##Kole": 5891,
      "##alter": 5892,
      "ahanggang": 5893,
      "##nagreresulta": 5894,
      "cel": 5895,
      "##prak": 5896,
      "##pinamunuan": 5897,
      "##Bulacan": 5898,
      "##ekst": 5899,
      "##yelo": 5900,
      "##ebolusyonar": 5901,
      "##pares": 5902,
      "##katunayan": 5903,
      "##talaga": 5904,
      "gana": 5905,
      "##Komn": 5906,
      "##kapalit": 5907,
      "##solusyon": 5908,
      "##pangkultura": 5909,
      "ach": 5910,
      "sas": 5911,
      "##Nav": 5912,
      "##basi": 5913,
      "##unawa": 5914,
      "##gobernador": 5915,
      "##Sem": 5916,
      "##makamit": 5917,
      "##ung": 5918,
      "##sil": 5919,
      "##erop": 5920,
      "##pulang": 5921,
      "ingibabaw": 5922,
      "omen": 5923,
      "##1978": 5924,
      "##puwit": 5925,
      "##palitan": 5926,
      "##AD": 5927,
      "##il": 5928,
      "##Mil": 5929,
      "##tulay": 5930,
      "##Zoroast": 5931,
      "able": 5932,
      "##sho": 5933,
      "mpasigan": 5934,
      "##sinumang": 5935,
      "##laki": 5936,
      "##Sultan": 5937,
      "ligtaran": 5938,
      "leto": 5939,
      "##Big": 5940,
      "##[?]": 5941,
      "toman": 5942,
      "##pagbi": 5943,
      "##paglalagay": 5944,
      "##matematikal": 5945,
      "##end": 5946,
      "berg": 5947,
      "##Bata": 5948,
      "##Obispo": 5949,
      "wagi": 5950,
      "##pagsasama": 5951,
      "##Tra": 5952,
      "##Maur": 5953,
      "##pagkatao": 5954,
      "##Villa": 5955,
      "##sakup": 5956,
      "##makuha": 5957,
      "##bababa": 5958,
      "araan": 5959,
      "angalang": 5960,
      "yor": 5961,
      "##lup": 5962,
      "##puti": 5963,
      "##Felip": 5964,
      "bate": 5965,
      "##napa": 5966,
      "eklara": 5967,
      "uck": 5968,
      "##Bot": 5969,
      "galang": 5970,
      "##lehis": 5971,
      "##panghi": 5972,
      "##Odiseo": 5973,
      "##Hudyong": 5974,
      "kulo": 5975,
      "##Pen": 5976,
      "##kapit": 5977,
      "##labor": 5978,
      "##Felipe": 5979,
      "eon": 5980,
      "##Budista": 5981,
      "##gub": 5982,
      "##Antonio": 5983,
      "##depende": 5984,
      "##sasakyan": 5985,
      "##kamakailang": 5986,
      "##Tad": 5987,
      "##mesiyas": 5988,
      "esti": 5989,
      "##Pampang": 5990,
      "##katapusan": 5991,
      "##magpahanggang": 5992,
      "con": 5993,
      "##Exp": 5994,
      "##heomet": 5995,
      "##Komnenos": 5996,
      "##yaman": 5997,
      "##pangmat": 5998,
      "struksiyon": 5999,
      "##Sinasabing": 6000,
      "##proba": 6001,
      "arungan": 6002,
      "##mahina": 6003,
      "##Estrada": 6004,
      "kata": 6005,
      "##pus": 6006,
      "##pandaigdig": 6007,
      "##46": 6008,
      "##kagust": 6009,
      "##tinapay": 6010,
      "##pangunahin": 6011,
      "sist": 6012,
      "hinto": 6013,
      "araming": 6014,
      "##patong": 6015,
      "##Pamantasang": 6016,
      "##pinamagatang": 6017,
      "##Im": 6018,
      "##pw": 6019,
      "##Bei": 6020,
      "##ebidensiyang": 6021,
      "ved": 6022,
      "##paulit": 6023,
      "ayuhan": 6024,
      "##misyon": 6025,
      "likadong": 6026,
      "##RNA": 6027,
      "##Vietnam": 6028,
      "##musikang": 6029,
      "RT": 6030,
      "vie": 6031,
      "angkilik": 6032,
      "pikong": 6033,
      "##teorya": 6034,
      "##prote": 6035,
      "##Tumutukoy": 6036,
      "##yum": 6037,
      "anteng": 6038,
      "##neuro": 6039,
      "by": 6040,
      "##Gol": 6041,
      "##kabayo": 6042,
      "##partidong": 6043,
      "rikal": 6044,
      "##gulay": 6045,
      "intahan": 6046,
      "##had": 6047,
      "ulutan": 6048,
      "##Tondo": 6049,
      "##gusto": 6050,
      "##angkin": 6051,
      "##isdang": 6052,
      "##hango": 6053,
      "ott": 6054,
      "##hene": 6055,
      "##lumili": 6056,
      "##pananakit": 6057,
      "##Pinlandiya": 6058,
      "##Mel": 6059,
      "oryong": 6060,
      "##Litwan": 6061,
      "form": 6062,
      "##Ros": 6063,
      "##system": 6064,
      "##materya": 6065,
      "##Ke": 6066,
      "##go": 6067,
      "bok": 6068,
      "##1981": 6069,
      "##Lupa": 6070,
      "##dako": 6071,
      "##pinili": 6072,
      "##maiwasan": 6073,
      "nae": 6074,
      "##we": 6075,
      "tius": 6076,
      "wirang": 6077,
      "##sanga": 6078,
      "##kasabay": 6079,
      "kala": 6080,
      "##Kim": 6081,
      "##kalidad": 6082,
      "anghal": 6083,
      "##Albanya": 6084,
      "##Crispin": 6085,
      "##pagpapalit": 6086,
      "##Madalas": 6087,
      "##uugnay": 6088,
      "##Richard": 6089,
      "gsahan": 6090,
      "##Kasal": 6091,
      "##Gro": 6092,
      "##Antio": 6093,
      "##Yule": 6094,
      "##bigyan": 6095,
      "##kaaway": 6096,
      "##humiwalay": 6097,
      "##pagbigkas": 6098,
      "##aga": 6099,
      "##mekaniks": 6100,
      "##paglitaw": 6101,
      "igi": 6102,
      "wad": 6103,
      "##art": 6104,
      "##Thomas": 6105,
      "##Linyang": 6106,
      "##kagandahan": 6107,
      "##kapistahan": 6108,
      "##kaguluhan": 6109,
      "##Hol": 6110,
      "##kulang": 6111,
      "ily": 6112,
      "impluwensiyahan": 6113,
      "ku": 6114,
      "burg": 6115,
      "ahagi": 6116,
      "##Simula": 6117,
      "##dalawamp": 6118,
      "ans": 6119,
      "##Kingdom": 6120,
      "##pambata": 6121,
      "angal": 6122,
      "##aktibong": 6123,
      "lab": 6124,
      "##amp": 6125,
      "##Malta": 6126,
      "##Palest": 6127,
      "##pambaba": 6128,
      "##org": 6129,
      "##pinakat": 6130,
      "##Naniniwala": 6131,
      "sic": 6132,
      "mbag": 6133,
      "ilarawan": 6134,
      "##kalipunan": 6135,
      "##pangangatawan": 6136,
      "aria": 6137,
      "##Misa": 6138,
      "##klima": 6139,
      "liwanag": 6140,
      "##Singap": 6141,
      "##koponan": 6142,
      "##gatas": 6143,
      "sob": 6144,
      "##meta": 6145,
      "##Arabia": 6146,
      "##pananalapi": 6147,
      "##183": 6148,
      "aragdag": 6149,
      "##alternati": 6150,
      "##nalalaman": 6151,
      "##tsa": 6152,
      "##idin": 6153,
      "##pagsasanib": 6154,
      "##suplay": 6155,
      "##Ham": 6156,
      "olyar": 6157,
      "##akit": 6158,
      "##Persa": 6159,
      "##pandama": 6160,
      "##Vol": 6161,
      "##marahil": 6162,
      "##pandagat": 6163,
      "##interaksiyon": 6164,
      "cter": 6165,
      "##nanatiling": 6166,
      "##eng": 6167,
      "##kuryente": 6168,
      "erang": 6169,
      "##Rumanya": 6170,
      "##pinakamalaki": 6171,
      "cip": 6172,
      "##positibong": 6173,
      "##Act": 6174,
      "##hita": 6175,
      "##sapi": 6176,
      "##pagpapakita": 6177,
      "uela": 6178,
      "##espe": 6179,
      "##pabor": 6180,
      "jing": 6181,
      "benya": 6182,
      "##Trin": 6183,
      "##tribo": 6184,
      "##ritwal": 6185,
      "##nagmungkahi": 6186,
      "##wat": 6187,
      "##gumagalaw": 6188,
      "##Cop": 6189,
      "aging": 6190,
      "illes": 6191,
      "uerto": 6192,
      "##pagkuha": 6193,
      "ligtasan": 6194,
      "##mabilisang": 6195,
      "##kinakailangang": 6196,
      "bahay": 6197,
      "omb": 6198,
      "sel": 6199,
      "##ot": 6200,
      "ensis": 6201,
      "inaldo": 6202,
      "##kanser": 6203,
      "##tumagal": 6204,
      "##mangangalakal": 6205,
      "##43": 6206,
      "##prop": 6207,
      "##Himagsik": 6208,
      "##ginagamitan": 6209,
      "##sana": 6210,
      "##bayag": 6211,
      "##ligtas": 6212,
      "##kultural": 6213,
      "##kinalaman": 6214,
      "##henerasyon": 6215,
      "##pagsisimula": 6216,
      "ensa": 6217,
      "pirit": 6218,
      "##Sistem": 6219,
      "##larangang": 6220,
      "ugma": 6221,
      "##bek": 6222,
      "##den": 6223,
      "letto": 6224,
      "##boto": 6225,
      "##pagkakatuklas": 6226,
      "top": 6227,
      "##os": 6228,
      "##Barangay": 6229,
      "##Islamiko": 6230,
      "ies": 6231,
      "##Pum": 6232,
      "logong": 6233,
      "##inaasahang": 6234,
      "##katauhan": 6235,
      "##des": 6236,
      "posi": 6237,
      "anapbuhay": 6238,
      "##Bonif": 6239,
      "85": 6240,
      "##paghahati": 6241,
      "##Av": 6242,
      "##tumpak": 6243,
      "##br": 6244,
      "itira": 6245,
      "untunin": 6246,
      "##demok": 6247,
      "##pagtatayo": 6248,
      "##binabaybay": 6249,
      "##karunungan": 6250,
      "kot": 6251,
      "cean": 6252,
      "tive": 6253,
      "##masama": 6254,
      "##Yam": 6255,
      "##mono": 6256,
      "##isinama": 6257,
      "##sumasaklaw": 6258,
      "##Wat": 6259,
      "##dro": 6260,
      "##Bosnia": 6261,
      "##paktor": 6262,
      "##lumalabas": 6263,
      "##TB": 6264,
      "silbi": 6265,
      "ution": 6266,
      "atibay": 6267,
      "##Bulgarya": 6268,
      "##moralidad": 6269,
      "lori": 6270,
      "hingi": 6271,
      "urulot": 6272,
      "##pulis": 6273,
      "##Soci": 6274,
      "##pader": 6275,
      "##har": 6276,
      "##matut": 6277,
      "##bantog": 6278,
      "##sinulat": 6279,
      "langan": 6280,
      "##nagsus": 6281,
      "##relati": 6282,
      "25": 6283,
      "##1998": 6284,
      "aksiyong": 6285,
      "##Bonifacio": 6286,
      "##pinangalan": 6287,
      "##pagpupulong": 6288,
      "##4.": 6289,
      "##maunlad": 6290,
      "zan": 6291,
      "##We": 6292,
      "vol": 6293,
      "##Reg": 6294,
      "##natapos": 6295,
      "##ple": 6296,
      "##Galacia": 6297,
      "##pampubliko": 6298,
      "low": 6299,
      "##lat": 6300,
      "romag": 6301,
      "##Tasyo": 6302,
      "##nukley": 6303,
      "ugos": 6304,
      "##Romanong": 6305,
      "antad": 6306,
      "higan": 6307,
      "##Pali": 6308,
      "##awiting": 6309,
      "##Kagawaran": 6310,
      "ima": 6311,
      "tain": 6312,
      "utbol": 6313,
      "##kapital": 6314,
      "##Mahal": 6315,
      "##sober": 6316,
      "kina": 6317,
      "kuwa": 6318,
      "ulus": 6319,
      "hikayat": 6320,
      "##Batikano": 6321,
      "##sinag": 6322,
      "##real": 6323,
      "##malamig": 6324,
      "##tenyente": 6325,
      "##cy": 6326,
      "intang": 6327,
      "##etika": 6328,
      "##tinit": 6329,
      "##sandat": 6330,
      "##pinakaunang": 6331,
      "cast": 6332,
      "##Theodo": 6333,
      "##Partido": 6334,
      "##nakasulat": 6335,
      "##konseptong": 6336,
      "hero": 6337,
      "##Camb": 6338,
      "##gayun": 6339,
      "##kapare": 6340,
      "##Mand": 6341,
      "##emos": 6342,
      "##kwantum": 6343,
      "ys": 6344,
      "mana": 6345,
      "33": 6346,
      "##can": 6347,
      "##bersyon": 6348,
      "##Bank": 6349,
      "##bangko": 6350,
      "##bantay": 6351,
      "##serbisyong": 6352,
      "idae": 6353,
      "##Cre": 6354,
      "##Sant": 6355,
      "##sumasakop": 6356,
      "##Sel": 6357,
      "##5.": 6358,
      "##tapat": 6359,
      "##Kadalasang": 6360,
      "##Ef": 6361,
      "##Christ": 6362,
      "##tagapam": 6363,
      "wit": 6364,
      "rano": 6365,
      "##responsa": 6366,
      "##Nov": 6367,
      "##gland": 6368,
      "eolohiya": 6369,
      "##paghahambing": 6370,
      "12": 6371,
      "hr": 6372,
      "uya": 6373,
      "##Pasko": 6374,
      "eri": 6375,
      "##tema": 6376,
      "##radyo": 6377,
      "##General": 6378,
      "##pumunta": 6379,
      "##lipunang": 6380,
      "##magkapatid": 6381,
      "ilin": 6382,
      "##prutas": 6383,
      "##Biz": 6384,
      "##multi": 6385,
      "udo": 6386,
      "ates": 6387,
      "rek": 6388,
      "endaryong": 6389,
      "##direktor": 6390,
      "entina": 6391,
      "ui": 6392,
      "bano": 6393,
      "##nakamit": 6394,
      "##kumakain": 6395,
      "##nangungunang": 6396,
      "dae": 6397,
      "ilong": 6398,
      "##Mediteran": 6399,
      "##malubhang": 6400,
      "riano": 6401,
      "##baha": 6402,
      "##bilog": 6403,
      "##Singapore": 6404,
      "##Halos": 6405,
      "##inihah": 6406,
      "##kimika": 6407,
      "daka": 6408,
      "entum": 6409,
      "ubatan": 6410,
      "##isinaad": 6411,
      "##sabihing": 6412,
      "89": 6413,
      "cca": 6414,
      "##kahalili": 6415,
      "inta": 6416,
      "##Nga": 6417,
      "##Paul": 6418,
      "##proton": 6419,
      "##Herod": 6420,
      "##Hukuman": 6421,
      "##Lig": 6422,
      "tidad": 6423,
      "##Pana": 6424,
      "##Shia": 6425,
      "ramento": 6426,
      "##ri": 6427,
      "##150": 6428,
      "rinlan": 6429,
      "##Deuter": 6430,
      "##paglipat": 6431,
      "akanan": 6432,
      "ayaman": 6433,
      "##pilak": 6434,
      "##edisyon": 6435,
      "##pagsulong": 6436,
      "##alpabetong": 6437,
      "ple": 6438,
      "ubi": 6439,
      "##alle": 6440,
      "roskop": 6441,
      "PA": 6442,
      "xas": 6443,
      "sismo": 6444,
      "##Sulu": 6445,
      "##pampanana": 6446,
      "##Karaniwan": 6447,
      "##bahagyang": 6448,
      "##dalampasigan": 6449,
      "urt": 6450,
      "letong": 6451,
      "##Alehand": 6452,
      "##bibliya": 6453,
      "portasyon": 6454,
      "##Eslobenya": 6455,
      "ugad": 6456,
      "##makapangyarihan": 6457,
      "##Quir": 6458,
      "kalang": 6459,
      "##magla": 6460,
      "##kontra": 6461,
      "##Pamahalaan": 6462,
      "##Ep": 6463,
      "##nad": 6464,
      "##phy": 6465,
      "##puwang": 6466,
      "##totoong": 6467,
      "##Aprikano": 6468,
      "##patungkol": 6469,
      "##karamdamang": 6470,
      "nin": 6471,
      "##aba": 6472,
      "##High": 6473,
      "isenyo": 6474,
      "base": 6475,
      "##hem": 6476,
      "lea": 6477,
      "agpo": 6478,
      "##magpaka": 6479,
      "com": 6480,
      "##Bor": 6481,
      "##arg": 6482,
      "cer": 6483,
      "##domest": 6484,
      "##ekwasyong": 6485,
      "##pagkabuhay": 6486,
      "##hard": 6487,
      "##market": 6488,
      "##asidong": 6489,
      "##Cun": 6490,
      "##Domin": 6491,
      "##manok": 6492,
      "##Cavite": 6493,
      "##pahayagan": 6494,
      "##hangganang": 6495,
      "##bus": 6496,
      "ayagan": 6497,
      "##ver": 6498,
      "##Estonya": 6499,
      "##itinuring": 6500,
      "##obserbasyon": 6501,
      "##Britaniko": 6502,
      "ugot": 6503,
      "agham": 6504,
      "enter": 6505,
      "##nati": 6506,
      "##kumuha": 6507,
      "ukang": 6508,
      "##dolyar": 6509,
      "##tagapagp": 6510,
      "##Instit": 6511,
      "##talata": 6512,
      "##pederal": 6513,
      "##kapakanan": 6514,
      "sit": 6515,
      "##fo": 6516,
      "##Latbiya": 6517,
      "##Arg": 6518,
      "##sinabing": 6519,
      "##nanirahan": 6520,
      "sap": 6521,
      "##gl": 6522,
      "##Kalye": 6523,
      "##kabihasnan": 6524,
      "##1984": 6525,
      "##Tokyo": 6526,
      "##Noruwe": 6527,
      "##tisyu": 6528,
      "##kategorya": 6529,
      "##sena": 6530,
      "sagawa": 6531,
      "mali": 6532,
      "##Kro": 6533,
      "##Arro": 6534,
      "hannel": 6535,
      "toria": 6536,
      "##hentil": 6537,
      "ormasyong": 6538,
      "amento": 6539,
      "##Itinuturing": 6540,
      "mun": 6541,
      "ensya": 6542,
      "##1995": 6543,
      "##Obando": 6544,
      "##suntok": 6545,
      "##distritong": 6546,
      "ole": 6547,
      "atian": 6548,
      "##Zeus": 6549,
      "##ibay": 6550,
      "ilitang": 6551,
      "##paggalaw": 6552,
      "##enerhiyang": 6553,
      "ness": 6554,
      "##pagsunod": 6555,
      "##simulang": 6556,
      "##aangkop": 6557,
      "idd": 6558,
      "##pray": 6559,
      "babawal": 6560,
      "##awitin": 6561,
      "##pagkakaisa": 6562,
      "##Pahayag": 6563,
      "##Africa": 6564,
      "##Makati": 6565,
      "##Noruwega": 6566,
      "##Alexandria": 6567,
      "##Benedi": 6568,
      "##pangmilitar": 6569,
      "##kaasa": 6570,
      "##Tsekya": 6571,
      "##haligi": 6572,
      "##lagnat": 6573,
      "##pakikit": 6574,
      "##Tiya": 6575,
      "rating": 6576,
      "##kasalan": 6577,
      "##kasi": 6578,
      "##alipin": 6579,
      "##paggalang": 6580,
      "##problemang": 6581,
      "fi": 6582,
      "##kri": 6583,
      "##amang": 6584,
      "katauhan": 6585,
      "##kabahagi": 6586,
      "##Katolisis": 6587,
      "##aktibidad": 6588,
      "lona": 6589,
      "pero": 6590,
      "sisyo": 6591,
      "##nagsagawa": 6592,
      "##sar": 6593,
      "akdang": 6594,
      "##Christi": 6595,
      "##mensahe": 6596,
      "##internasyonal": 6597,
      "oton": 6598,
      "ribusyon": 6599,
      "##proteksiyon": 6600,
      "cil": 6601,
      "##nobelang": 6602,
      "##pagsapit": 6603,
      "##Op": 6604,
      "##glo": 6605,
      "##Park": 6606,
      "##Beijing": 6607,
      "##matataas": 6608,
      "sobis": 6609,
      "##tali": 6610,
      "entidad": 6611,
      "akatuwid": 6612,
      "##kinilala": 6613,
      "##panlaban": 6614,
      "emonya": 6615,
      "etsa": 6616,
      "kikita": 6617,
      "##mahar": 6618,
      "##pansamantalang": 6619,
      "##By": 6620,
      "##Gin": 6621,
      "listang": 6622,
      "##mahaba": 6623,
      "##Sil": 6624,
      "adrado": 6625,
      "##palad": 6626,
      "entasyong": 6627,
      "##pagkakakilanlan": 6628,
      "65": 6629,
      "ition": 6630,
      "ville": 6631,
      "apresyon": 6632,
      "##kumpara": 6633,
      "##ngayong": 6634,
      "##magsasaka": 6635,
      "##sinimulan": 6636,
      "##Nagp": 6637,
      "ii": 6638,
      "15": 6639,
      "##pinala": 6640,
      "ubundukin": 6641,
      "##Aguinaldo": 6642,
      "SR": 6643,
      "anyag": 6644,
      "asan": 6645,
      "##Blg": 6646,
      "linaw": 6647,
      "##rang": 6648,
      "igdigan": 6649,
      "ramuros": 6650,
      "##personalidad": 6651,
      "##179": 6652,
      "ipigil": 6653,
      "##imahen": 6654,
      "##uugali": 6655,
      "akinabang": 6656,
      "semb": 6657,
      "##pangat": 6658,
      "##raw": 6659,
      "##human": 6660,
      "##Itinatag": 6661,
      "##Jan": 6662,
      "pikal": 6663,
      "##record": 6664,
      "##independi": 6665,
      "##Katolikong": 6666,
      "salita": 6667,
      "##nakas": 6668,
      "##Londres": 6669,
      "##Mec": 6670,
      "##Mex": 6671,
      "##Tadeo": 6672,
      "##maisa": 6673,
      "##titulong": 6674,
      "##gumaganap": 6675,
      "edeng": 6676,
      "mamas": 6677,
      "##gaano": 6678,
      "##Pilosop": 6679,
      "##kasunduang": 6680,
      "lito": 6681,
      "##Bre": 6682,
      "##von": 6683,
      "##1997": 6684,
      "##bilanggo": 6685,
      "##karangalan": 6686,
      "kaso": 6687,
      "##Kor": 6688,
      "ization": 6689,
      "##pumayag": 6690,
      "unggali": 6691,
      "heb": 6692,
      "uig": 6693,
      "ubos": 6694,
      "rikong": 6695,
      "##Verde": 6696,
      "##sinakop": 6697,
      "##natalo": 6698,
      "##Lap": 6699,
      "ughaw": 6700,
      "##nagng": 6701,
      "##sagot": 6702,
      "etisyon": 6703,
      "##altapresyon": 6704,
      "##Pho": 6705,
      "##liberal": 6706,
      "##substansiya": 6707,
      "gulo": 6708,
      "##Del": 6709,
      "##Pio": 6710,
      "##Patri": 6711,
      "##Sol": 6712,
      "ahinga": 6713,
      "##Great": 6714,
      "##nagba": 6715,
      "sobispo": 6716,
      "##Komisyon": 6717,
      "##damdaming": 6718,
      "ctor": 6719,
      "##Caesa": 6720,
      "##Sat": 6721,
      "##web": 6722,
      "##1993": 6723,
      "##Rebol": 6724,
      "##ginaga": 6725,
      "##Gayunman": 6726,
      "##tul": 6727,
      "##bini": 6728,
      "ahasan": 6729,
      "##Nakita": 6730,
      "##bayani": 6731,
      "##mayaman": 6732,
      "##paglawak": 6733,
      "##kromosoma": 6734,
      "##makaagham": 6735,
      "alay": 6736,
      "##apo": 6737,
      "ative": 6738,
      "ardinal": 6739,
      "##tubong": 6740,
      "##katamtamang": 6741,
      "##Sand": 6742,
      "##Batangas": 6743,
      "##Fu": 6744,
      "##leeg": 6745,
      "##Newton": 6746,
      "##pulong": 6747,
      "##Intramuros": 6748,
      "11": 6749,
      "salang": 6750,
      "##kampan": 6751,
      "##kapulungan": 6752,
      "##nakakalipas": 6753,
      "agas": 6754,
      "bian": 6755,
      "lado": 6756,
      "upit": 6757,
      "##Suwisa": 6758,
      "##saling": 6759,
      "##matibay": 6760,
      "##nauukol": 6761,
      "##palibot": 6762,
      "##sumailalim": 6763,
      "##kr": 6764,
      "##mus": 6765,
      "##pagbabawas": 6766,
      "##diperensiya": 6767,
      "##You": 6768,
      "##field": 6769,
      "##marunong": 6770,
      "##artipisyal": 6771,
      "hain": 6772,
      "##pla": 6773,
      "##Metro": 6774,
      "umbalik": 6775,
      "opro": 6776,
      "##Count": 6777,
      "tanggol": 6778,
      "##sektor": 6779,
      "tograp": 6780,
      "##Mongo": 6781,
      "##Ehipsiyo": 6782,
      "##ipinadala": 6783,
      "##tinuturing": 6784,
      "stikal": 6785,
      "##Inggles": 6786,
      "##allele": 6787,
      "##humahantong": 6788,
      "##Georg": 6789,
      "##bakla": 6790,
      "##barya": 6791,
      "##Alexios": 6792,
      "##Gan": 6793,
      "puang": 6794,
      "##Yugos": 6795,
      "##Puerto": 6796,
      "##Naglala": 6797,
      "ace": 6798,
      "akyat": 6799,
      "wakas": 6800,
      "latura": 6801,
      "##kritiko": 6802,
      "##gampanin": 6803,
      "##nagsasanhi": 6804,
      "##galak": 6805,
      "##Linggo": 6806,
      "##mamamayang": 6807,
      "##tabi": 6808,
      "lahatang": 6809,
      "##palatandaan": 6810,
      "##pangangaral": 6811,
      "mbah": 6812,
      "##1973": 6813,
      "##aktuwal": 6814,
      "umen": 6815,
      "ikling": 6816,
      "##pagkam": 6817,
      "##inihayag": 6818,
      "##ibinibigay": 6819,
      "IDS": 6820,
      "ilm": 6821,
      "##Lev": 6822,
      "##Mos": 6823,
      "##Prepektura": 6824,
      "##bagkus": 6825,
      "##bayang": 6826,
      "hon": 6827,
      "##dig": 6828,
      "##magsi": 6829,
      "##taasang": 6830,
      "##istruktura": 6831,
      "##kasaysayang": 6832,
      "orp": 6833,
      "yung": 6834,
      "##Bum": 6835,
      "##Occ": 6836,
      "ababa": 6837,
      "##lalam": 6838,
      "##kapala": 6839,
      "##Belar": 6840,
      "disenyo": 6841,
      "##pagbib": 6842,
      "##propor": 6843,
      "##nagsasabi": 6844,
      "alatang": 6845,
      "##probinsiya": 6846,
      "##1987": 6847,
      "##Wala": 6848,
      "##UN": 6849,
      "likula": 6850,
      "##Maxim": 6851,
      "##katulong": 6852,
      "isda": 6853,
      "##Babilonia": 6854,
      "##responsable": 6855,
      "##1950": 6856,
      "##paris": 6857,
      "##pagtingin": 6858,
      "ogn": 6859,
      "##lumaon": 6860,
      "ody": 6861,
      "gado": 6862,
      "ontin": 6863,
      "ential": 6864,
      "##ipinangalan": 6865,
      "##ipakita": 6866,
      "##pinamam": 6867,
      "##diperensiyal": 6868,
      "ision": 6869,
      "yadong": 6870,
      "##nagli": 6871,
      "alisa": 6872,
      "##bigla": 6873,
      "##lumaki": 6874,
      "##kabuoan": 6875,
      "##paghinga": 6876,
      "##tumataas": 6877,
      "##sikolohiya": 6878,
      "atia": 6879,
      "krip": 6880,
      "##nagpakita": 6881,
      "##makagawa": 6882,
      "##Constantius": 6883,
      "undukan": 6884,
      "##nagbub": 6885,
      "##organo": 6886,
      "BA": 6887,
      "oda": 6888,
      "tana": 6889,
      "hanga": 6890,
      "##milag": 6891,
      "##ikalawa": 6892,
      "reen": 6893,
      "##Pla": 6894,
      "##Sha": 6895,
      "##Was": 6896,
      "##Iber": 6897,
      "##mekanismo": 6898,
      "isismo": 6899,
      "##Mondo": 6900,
      "##Palarong": 6901,
      "##kalahating": 6902,
      "##Katolisismo": 6903,
      "##kababaihang": 6904,
      "##Ug": 6905,
      "bana": 6906,
      "##London": 6907,
      "##Indiyano": 6908,
      "##kahariang": 6909,
      "##Kolehiyo": 6910,
      "##magkakap": 6911,
      "amin": 6912,
      "nard": 6913,
      "##1979": 6914,
      "##Pent": 6915,
      "##kani": 6916,
      "##Mondovi": 6917,
      "##paglusob": 6918,
      "timp": 6919,
      "##kumik": 6920,
      "##Mataas": 6921,
      "##bahagdan": 6922,
      "##kailanman": 6923,
      "ype": 6924,
      "nate": 6925,
      "idong": 6926,
      "##Peter": 6927,
      "##isinus": 6928,
      "##42": 6929,
      "##gumanap": 6930,
      "##teolohiya": 6931,
      "hira": 6932,
      "##pagw": 6933,
      "##Turko": 6934,
      "##Bizant": 6935,
      "##lupaing": 6936,
      "##maituturing": 6937,
      "chel": 6938,
      "##Ley": 6939,
      "##Nueva": 6940,
      "erasyon": 6941,
      "##praktikal": 6942,
      "##talampakan": 6943,
      "here": 6944,
      "##nahalal": 6945,
      "##aparatong": 6946,
      "guan": 6947,
      "##sangkatauhan": 6948,
      "agno": 6949,
      "##180": 6950,
      "matiko": 6951,
      "patupad": 6952,
      "##doktor": 6953,
      "##pagtatapos": 6954,
      "##Ocean": 6955,
      "##Saudi": 6956,
      "##espesya": 6957,
      "tal": 6958,
      "##Apo": 6959,
      "##hukuman": 6960,
      "enz": 6961,
      "##47": 6962,
      "welt": 6963,
      "##Fin": 6964,
      "##mom": 6965,
      "##und": 6966,
      "ibong": 6967,
      "##bawal": 6968,
      "##Andron": 6969,
      "##ginanap": 6970,
      "lub": 6971,
      "lamat": 6972,
      "alaganap": 6973,
      "##katayuang": 6974,
      "##nagresulta": 6975,
      "##siyentipikong": 6976,
      "##tulang": 6977,
      "eksiyong": 6978,
      "##regular": 6979,
      "etto": 6980,
      "ender": 6981,
      "onwelt": 6982,
      "##konkl": 6983,
      "##lihim": 6984,
      "##output": 6985,
      "##nagsisi": 6986,
      "##pagkakab": 6987,
      "##Andronikos": 6988,
      "##Mediteraneo": 6989,
      "jor": 6990,
      "##der": 6991,
      "akong": 6992,
      "##nagtapos": 6993,
      "##nakaraan": 6994,
      "##aktor": 6995,
      "##ekonomiyang": 6996,
      "yd": 6997,
      "##my": 6998,
      "arawan": 6999,
      "mantala": 7000,
      "##nagdadala": 7001,
      "##nakaugaliang": 7002,
      "asid": 7003,
      "litiko": 7004,
      "##Nangang": 7005,
      "##mabuhay": 7006,
      "##kaligtasan": 7007,
      "##nakasalalay": 7008,
      "ball": 7009,
      "##col": 7010,
      "##Ikat": 7011,
      "##gubat": 7012,
      "##Valent": 7013,
      "##dilaw": 7014,
      "##mabigat": 7015,
      "##Hep": 7016,
      "rismo": 7017,
      "inagdag": 7018,
      "##eroplano": 7019,
      "##nanggaling": 7020,
      "alop": 7021,
      "ulag": 7022,
      "yado": 7023,
      "##pinakab": 7024,
      "##Kanluraning": 7025,
      "uhod": 7026,
      "##Luther": 7027,
      "##kaunla": 7028,
      "##sandata": 7029,
      "##biyolohikal": 7030,
      "##probabilidad": 7031,
      "87": 7032,
      "##nasi": 7033,
      "mpanze": 7034,
      "##Russian": 7035,
      "duc": 7036,
      "##los": 7037,
      "conom": 7038,
      "##AIDS": 7039,
      "aban": 7040,
      "serb": 7041,
      "sauro": 7042,
      "##landas": 7043,
      "##ekwasyon": 7044,
      "##Katimugang": 7045,
      "##arian": 7046,
      "likhang": 7047,
      "##kathang": 7048,
      "dep": 7049,
      "ency": 7050,
      "##Jav": 7051,
      "##Jerem": 7052,
      "##uusap": 7053,
      "isipang": 7054,
      "##futbol": 7055,
      "##pangsa": 7056,
      "##ipaliwanag": 7057,
      "resi": 7058,
      "##atb": 7059,
      "##Magdal": 7060,
      "##sapiens": 7061,
      "##kinakatawan": 7062,
      "ebar": 7063,
      "enna": 7064,
      "##Law": 7065,
      "##absol": 7066,
      "##binat": 7067,
      "##nagbago": 7068,
      "##potensiyal": 7069,
      "##labindalawang": 7070,
      "##59": 7071,
      "ares": 7072,
      "##butil": 7073,
      "##nagpapakitang": 7074,
      "alawig": 7075,
      "22": 7076,
      "60": 7077,
      "inus": 7078,
      "##dem": 7079,
      "##pandar": 7080,
      "##pinatay": 7081,
      "##Kahilaga": 7082,
      "sipikasyon": 7083,
      "##pinagsasa": 7084,
      "##istraktura": 7085,
      "##hib": 7086,
      "##bagyo": 7087,
      "##republika": 7088,
      "##masalimuot": 7089,
      "alig": 7090,
      "##Sansk": 7091,
      "##kayang": 7092,
      "##namumuno": 7093,
      "pup": 7094,
      "ramo": 7095,
      "uluhang": 7096,
      "##Lupang": 7097,
      "oni": 7098,
      "utri": 7099,
      "##Tom": 7100,
      "##ory": 7101,
      "bacter": 7102,
      "diwang": 7103,
      "##Abu": 7104,
      "##chimpanze": 7105,
      "byo": 7106,
      "##kang": 7107,
      "##pagtatangka": 7108,
      "opot": 7109,
      "##Ligure": 7110,
      "##kaugaliang": 7111,
      "##pagpapatuloy": 7112,
      "dya": 7113,
      "##pagtiti": 7114,
      "opya": 7115,
      "##Baba": 7116,
      "##VIII": 7117,
      "hima": 7118,
      "##kinalala": 7119,
      "##kriminal": 7120,
      "got": 7121,
      "##lunti": 7122,
      "pangulo": 7123,
      "##relasyong": 7124,
      "##Tay": 7125,
      "##Efeso": 7126,
      "agalang": 7127,
      "##nagngangalang": 7128,
      "##Hudaismong": 7129,
      "##XV": 7130,
      "##Res": 7131,
      "##Aten": 7132,
      "##ibong": 7133,
      "##Tinang": 7134,
      "##pakinabang": 7135,
      "##kinikilalang": 7136,
      "##tugtugin": 7137,
      "##kabut": 7138,
      "##kastila": 7139,
      "sibilidad": 7140,
      "##pagmamahal": 7141,
      "ola": 7142,
      "bado": 7143,
      "itiw": 7144,
      "##lipi": 7145,
      "##Hesuk": 7146,
      "ilalarawan": 7147,
      "reto": 7148,
      "##mem": 7149,
      "##Sobi": 7150,
      "##ayaw": 7151,
      "##Christian": 7152,
      "##pagtutuli": 7153,
      "vat": 7154,
      "##Indo": 7155,
      "tabato": 7156,
      "##sensi": 7157,
      "##asukal": 7158,
      "##estilo": 7159,
      "##pinangalanang": 7160,
      "edres": 7161,
      "ebenta": 7162,
      "##Kahilagaang": 7163,
      "##1977": 7164,
      "##Love": 7165,
      "##kurso": 7166,
      "##kilusan": 7167,
      "ray": 7168,
      "vera": 7169,
      "##sero": 7170,
      "##oksiheno": 7171,
      "##matatanda": 7172,
      "##Tu": 7173,
      "angad": 7174,
      "pirasyon": 7175,
      "##Magdalena": 7176,
      "14": 7177,
      "hia": 7178,
      "mith": 7179,
      "mpas": 7180,
      "##trang": 7181,
      "##Kalihim": 7182,
      "zy": 7183,
      "yad": 7184,
      "##53": 7185,
      "ipot": 7186,
      "##Nas": 7187,
      "##Express": 7188,
      "##Alexander": 7189,
      "##Kasaysayan": 7190,
      "##pinangalanan": 7191,
      "aea": 7192,
      "##tab": 7193,
      "##2010.": 7194,
      "##hinirang": 7195,
      "bya": 7196,
      "##Namatay": 7197,
      "##pangkalakalan": 7198,
      "adem": 7199,
      "##sab": 7200,
      "##Tagapag": 7201,
      "##reporma": 7202,
      "##karahasan": 7203,
      "gada": 7204,
      "##Lop": 7205,
      "erong": 7206,
      "##inte": 7207,
      "iramdam": 7208,
      "##Panana": 7209,
      "##kagubatan": 7210,
      "##benep": 7211,
      "##gawang": 7212,
      "isina": 7213,
      "##rehi": 7214,
      "##husto": 7215,
      "##Huling": 7216,
      "##lubhang": 7217,
      "##pampala": 7218,
      "##magkakat": 7219,
      "##sikolohikal": 7220,
      "##Lie": 7221,
      "giang": 7222,
      "##Chal": 7223,
      "cience": 7224,
      "##maayos": 7225,
      "##Tatlong": 7226,
      "lus": 7227,
      "##Hay": 7228,
      "bawas": 7229,
      "hensiya": 7230,
      "##monark": 7231,
      "##matukoy": 7232,
      "zil": 7233,
      "hatid": 7234,
      "##kompanyang": 7235,
      "##pinagsamang": 7236,
      "##%.": 7237,
      "##Mab": 7238,
      "##isinalin": 7239,
      "velop": 7240,
      "##Alej": 7241,
      "perensiya": 7242,
      "##natitira": 7243,
      "##pagkakaibang": 7244,
      "##pamim": 7245,
      "higanti": 7246,
      "##Daniel": 7247,
      "##Sobiyet": 7248,
      "##Bizantino": 7249,
      "##reaksiyon": 7250,
      "led": 7251,
      "##Kana": 7252,
      "##pagsisiyasat": 7253,
      "00.": 7254,
      "sano": 7255,
      "##inilipat": 7256,
      "##naglalaro": 7257,
      "##chimpanzee": 7258,
      "##ehersisyong": 7259,
      "ubig": 7260,
      "##kabutihan": 7261,
      "##binibigyan": 7262,
      "reg": 7263,
      "##inp": 7264,
      "##memb": 7265,
      "##pili": 7266,
      "##Syria": 7267,
      "##idina": 7268,
      "##pampanitikan": 7269,
      "irst": 7270,
      "##Ath": 7271,
      "tiona": 7272,
      "ondena": 7273,
      "##natanggap": 7274,
      "ware": 7275,
      "yelo": 7276,
      "##Gra": 7277,
      "##Lor": 7278,
      "andro": 7279,
      "zab": 7280,
      "mann": 7281,
      "##karn": 7282,
      "##Arroyo": 7283,
      "##}.": 7284,
      "##Gen": 7285,
      "##rey": 7286,
      "##daga": 7287,
      "##klasi": 7288,
      "##Sining": 7289,
      "rante": 7290,
      "##kanta": 7291,
      "##pagsalakay": 7292,
      "##tayo": 7293,
      "##Simon": 7294,
      "##salungat": 7295,
      "##pinagsama": 7296,
      "##sundalong": 7297,
      "len": 7298,
      "analo": 7299,
      "##horm": 7300,
      "##monote": 7301,
      "##kinabukasan": 7302,
      "##permanenteng": 7303,
      "##organisasyong": 7304,
      "urgo": 7305,
      "##upuan": 7306,
      "##pakpak": 7307,
      "##organong": 7308,
      "##magkakaibang": 7309,
      "##Tulad": 7310,
      "##babasa": 7311,
      "##panatili": 7312,
      "##Anim": 7313,
      "##kolehiyo": 7314,
      "ahalal": 7315,
      "untang": 7316,
      "##Helen": 7317,
      "##fe": 7318,
      "apekt": 7319,
      "rates": 7320,
      "##Leyte": 7321,
      "##umaasa": 7322,
      "obo": 7323,
      "##Net": 7324,
      "untunan": 7325,
      "##Berlin": 7326,
      "olyum": 7327,
      "##tuli": 7328,
      "##pantig": 7329,
      "##kasarinlan": 7330,
      "##arkeolohikal": 7331,
      "ely": 7332,
      "ekom": 7333,
      "##paka": 7334,
      "awakan": 7335,
      "##matem": 7336,
      "##magkas": 7337,
      "##Pampanga": 7338,
      "##kaparaanan": 7339,
      "##heteroseksuwal": 7340,
      "##sukd": 7341,
      "##nasusulat": 7342,
      "##kabaligtaran": 7343,
      "##Masa": 7344,
      "##diyosa": 7345,
      "##perpek": 7346,
      "##ideyang": 7347,
      "##pinakamaagang": 7348,
      "the": 7349,
      "sara": 7350,
      "##Mod": 7351,
      "##Nep": 7352,
      "##Ethi": 7353,
      "ulugod": 7354,
      "##katib": 7355,
      "##Biyetnam": 7356,
      "ger": 7357,
      "##Bak": 7358,
      "stikong": 7359,
      "##yugtong": 7360,
      "waan": 7361,
      "##aab": 7362,
      "21": 7363,
      "##buntot": 7364,
      "##Ja": 7365,
      "##Ninoy": 7366,
      "##binti": 7367,
      "##pananagutan": 7368,
      "cu": 7369,
      "##Nahah": 7370,
      "##Panahong": 7371,
      "deng": 7372,
      "lipunang": 7373,
      "##Hesukristo": 7374,
      "##PA": 7375,
      "nong": 7376,
      "##1994": 7377,
      "opotam": 7378,
      "##senti": 7379,
      "##numero": 7380,
      "##isagawa": 7381,
      "endensiya": 7382,
      "##kagamitang": 7383,
      "##Arh": 7384,
      "tesis": 7385,
      "##tribong": 7386,
      "##Kasunduan": 7387,
      "##nom": 7388,
      "##susi": 7389,
      "##Kapuluan": 7390,
      "##kabanata": 7391,
      "##Ein": 7392,
      "##Feli": 7393,
      "##Narito": 7394,
      "##laging": 7395,
      "##Malapit": 7396,
      "##makapagp": 7397,
      "##hipotesis": 7398,
      "##parok": 7399,
      "##Hanggang": 7400,
      "##balakang": 7401,
      "##autoridad": 7402,
      "##Gobernador": 7403,
      "##paglilinaw": 7404,
      "##pon": 7405,
      "##sandali": 7406,
      "ginip": 7407,
      "##asal": 7408,
      "##iniulat": 7409,
      "##kamalayan": 7410,
      "pany": 7411,
      "##atbp": 7412,
      "##Pinaka": 7413,
      "##nagkamit": 7414,
      "##teknikal": 7415,
      "atu": 7416,
      "##1975": 7417,
      "##Belarus": 7418,
      "##nagsilbing": 7419,
      "sya": 7420,
      "##hits": 7421,
      "apatan": 7422,
      "##ilong": 7423,
      "##lahing": 7424,
      "alye": 7425,
      "handa": 7426,
      "ahulugan": 7427,
      "##pahintulot": 7428,
      "##48": 7429,
      "enza": 7430,
      "thur": 7431,
      "##Mam": 7432,
      "ansin": 7433,
      "##2015": 7434,
      "##radya": 7435,
      "##madali": 7436,
      "biyolohiya": 7437,
      "yla": 7438,
      "##van": 7439,
      "liman": 7440,
      "##Tsin": 7441,
      "##denom": 7442,
      "##Cotabato": 7443,
      "##pambabae": 7444,
      "din": 7445,
      "##lit": 7446,
      "##Icel": 7447,
      "##phen": 7448,
      "hanang": 7449,
      "##lunas": 7450,
      "##mapan": 7451,
      "##kagustuhan": 7452,
      "igno": 7453,
      "##sal": 7454,
      "##tind": 7455,
      "##Genesis": 7456,
      "hap": 7457,
      "ilay": 7458,
      "opia": 7459,
      "##ihi": 7460,
      "##taunang": 7461,
      "##kasuotan": 7462,
      "##naitatag": 7463,
      "##ihahambing": 7464,
      "##pinakamahusay": 7465,
      "lap": 7466,
      "##paglilipat": 7467,
      "##Dios": 7468,
      "##angaw": 7469,
      "##nukle": 7470,
      "##pampam": 7471,
      "##kanonikal": 7472,
      "ull": 7473,
      "ipit": 7474,
      "umer": 7475,
      "##aalis": 7476,
      "##amino": 7477,
      "##season": 7478,
      "##kamakailan": 7479,
      "##pinakamata": 7480,
      "40": 7481,
      "rad": 7482,
      "ebal": 7483,
      "quia": 7484,
      "wood": 7485,
      "##parusa": 7486,
      "##sumisi": 7487,
      "##papasok": 7488,
      "##gu": 7489,
      "riyal": 7490,
      "##Unido": 7491,
      "##katas": 7492,
      "##carbon": 7493,
      "##pagrer": 7494,
      "##puntong": 7495,
      "##sandaling": 7496,
      "##tap": 7497,
      "##1982": 7498,
      "##cell": 7499,
      "##along": 7500,
      "##Taguig": 7501,
      "##pormula": 7502,
      "##plas": 7503,
      "##Angel": 7504,
      "##bisig": 7505,
      "##gantimp": 7506,
      "##heograp": 7507,
      "cop": 7508,
      "asawa": 7509,
      "roheno": 7510,
      "##Brazil": 7511,
      "##lumisan": 7512,
      "##lalamunan": 7513,
      "##pagbabawal": 7514,
      "sky": 7515,
      "ugol": 7516,
      "##Nobel": 7517,
      "##Theod": 7518,
      "##politikal": 7519,
      "##Gold": 7520,
      "##dinam": 7521,
      "##African": 7522,
      "ross": 7523,
      "##pinakamalapit": 7524,
      "antimp": 7525,
      "ving": 7526,
      "##Torre": 7527,
      "##pinagk": 7528,
      "##gagawin": 7529,
      "##pagkatuto": 7530,
      "##pagtitipon": 7531,
      "##Hap": 7532,
      "bihan": 7533,
      "##karera": 7534,
      "ipi": 7535,
      "##Grand": 7536,
      "##Macap": 7537,
      "##pagkakatulad": 7538,
      "##Wo": 7539,
      "irma": 7540,
      "thal": 7541,
      "monya": 7542,
      "##Sierra": 7543,
      "mbot": 7544,
      "##Andres": 7545,
      "##tuktok": 7546,
      "##katanggap": 7547,
      "cea": 7548,
      "##ilaw": 7549,
      "##Ginamit": 7550,
      "##Society": 7551,
      "##Einstein": 7552,
      "##pagsukat": 7553,
      "udio": 7554,
      "##naglakbay": 7555,
      "##pakiramdam": 7556,
      "##mapagkukunan": 7557,
      "##Elizab": 7558,
      "##harapan": 7559,
      "##Ve": 7560,
      "##Sab": 7561,
      "silyo": 7562,
      "##pers": 7563,
      "##bakas": 7564,
      "##naisa": 7565,
      "##Alehandriya": 7566,
      "##alternatibong": 7567,
      "##mari": 7568,
      "nasyon": 7569,
      "##malalang": 7570,
      "tatal": 7571,
      "##samba": 7572,
      "lisasyon": 7573,
      "##Babilonya": 7574,
      "##pagkaraang": 7575,
      "asyang": 7576,
      "##kalat": 7577,
      "##patinig": 7578,
      "##meto": 7579,
      "yagang": 7580,
      "##samahang": 7581,
      "##konteksto": 7582,
      "##seremonya": 7583,
      "ator": 7584,
      "ideo": 7585,
      "##Lawa": 7586,
      "##disiplinang": 7587,
      "unud": 7588,
      "##pint": 7589,
      "luwensiyang": 7590,
      "rd": 7591,
      "##law": 7592,
      "##medyo": 7593,
      "##madilim": 7594,
      "##petsang": 7595,
      "ailangang": 7596,
      "##papuntang": 7597,
      "##nakakaraan": 7598,
      "ario": 7599,
      "##Talaan": 7600,
      "##gagamit": 7601,
      "##listahan": 7602,
      "##Deuteronom": 7603,
      "silo": 7604,
      "##14.": 7605,
      "##you": 7606,
      "##mina": 7607,
      "##Timot": 7608,
      "##ninyo": 7609,
      "##rehim": 7610,
      "##Pinang": 7611,
      "##pinakah": 7612,
      "##parisukat": 7613,
      "##dy": 7614,
      "ahas": 7615,
      "##mayor": 7616,
      "##nayon": 7617,
      "alagaan": 7618,
      "##Elizabeth": 7619,
      "##Theodosius": 7620,
      "##panghimpapawid": 7621,
      "dado": 7622,
      "##bub": 7623,
      "##kabatiran": 7624,
      "##epektibong": 7625,
      "##Plan": 7626,
      "##kamalian": 7627,
      "agot": 7628,
      "esis": 7629,
      "##Den": 7630,
      "##inumin": 7631,
      "##Paskuwa": 7632,
      "##inhinyeriyang": 7633,
      "##ts": 7634,
      "babang": 7635,
      "##Quran": 7636,
      "##namuhay": 7637,
      "##nagtatrabaho": 7638,
      "ets": 7639,
      "##huris": 7640,
      "##Kroasya": 7641,
      "##espesyeng": 7642,
      "ston": 7643,
      "##Var": 7644,
      "##Binig": 7645,
      "##Olandes": 7646,
      "##Himagsikang": 7647,
      "tory": 7648,
      "##bolyum": 7649,
      "##Iglesia": 7650,
      "##Victorina": 7651,
      "##tar": 7652,
      "##Jean": 7653,
      "##pagta": 7654,
      "##krisis": 7655,
      "##dinastiya": 7656,
      "##nakaranas": 7657,
      "##nagpapatuloy": 7658,
      "ink": 7659,
      "okus": 7660,
      "##sul": 7661,
      "wagan": 7662,
      "##1920": 7663,
      "##Tibet": 7664,
      "##instrumentong": 7665,
      "each": 7666,
      "entro": 7667,
      "##char": 7668,
      "##Macapagal": 7669,
      "##kromosomang": 7670,
      "92": 7671,
      "##Pic": 7672,
      "##mut": 7673,
      "##inom": 7674,
      "##nauna": 7675,
      "##santa": 7676,
      "tionary": 7677,
      "##kolehiyong": 7678,
      "##estimulasyon": 7679,
      "encia": 7680,
      "##Nagb": 7681,
      "ilibri": 7682,
      "##kalinangang": 7683,
      "##transportasyon": 7684,
      "##pit": 7685,
      "##buhat": 7686,
      "##kinakain": 7687,
      "##Yu": 7688,
      "##hinati": 7689,
      "##binuksan": 7690,
      "##pasahero": 7691,
      "vis": 7692,
      "##Pad": 7693,
      "##bid": 7694,
      "##2014": 7695,
      "##State": 7696,
      "##Komonwelt": 7697,
      "gat": 7698,
      "##1976": 7699,
      "##dila": 7700,
      "##Pakistan": 7701,
      "gor": 7702,
      "iss": 7703,
      "enang": 7704,
      "##Aristo": 7705,
      "##mundong": 7706,
      "##ospital": 7707,
      "##nakapali": 7708,
      "eti": 7709,
      "00,000": 7710,
      "onesyo": 7711,
      "##lutuing": 7712,
      "##gusaling": 7713,
      "oles": 7714,
      "taka": 7715,
      "##are": 7716,
      "##sep": 7717,
      "udyat": 7718,
      "##mona": 7719,
      "adaloy": 7720,
      "##kalang": 7721,
      "##kahawig": 7722,
      "##spesipikong": 7723,
      "olf": 7724,
      "##Luk": 7725,
      "uktot": 7726,
      "##estr": 7727,
      "##Briton": 7728,
      "##mahinang": 7729,
      "itain": 7730,
      "iyakan": 7731,
      "##sermon": 7732,
      "##Tam": 7733,
      "##Ten": 7734,
      "16": 7735,
      "##basa": 7736,
      "##Smith": 7737,
      "##Rehiyon": 7738,
      "##ipinapakita": 7739,
      "##iso": 7740,
      "##Black": 7741,
      "##maunawaan": 7742,
      "##nagtataglay": 7743,
      "##makasaysayang": 7744,
      "atol": 7745,
      "##urban": 7746,
      "katulong": 7747,
      "##Dalawang": 7748,
      "##dokumento": 7749,
      "idental": 7750,
      "##laganap": 7751,
      "##tumulong": 7752,
      "##paglilingkod": 7753,
      "##cap": 7754,
      "##Look": 7755,
      "upunta": 7756,
      "##hydro": 7757,
      "##nagbab": 7758,
      "##Tsinong": 7759,
      "##dumadaan": 7760,
      "ilyo": 7761,
      "hekut": 7762,
      "##1972": 7763,
      "inaryong": 7764,
      "pian": 7765,
      "##Nai": 7766,
      "##Spe": 7767,
      "##riles": 7768,
      "hington": 7769,
      "##alpabeto": 7770,
      "##naglabas": 7771,
      "##pagsisikap": 7772,
      "##pagpapaliwanag": 7773,
      "##75": 7774,
      "##fa": 7775,
      "roro": 7776,
      "##tangh": 7777,
      "##Iberia": 7778,
      "##Ipinap": 7779,
      "##biglang": 7780,
      "##liwasan": 7781,
      "##internasyunal": 7782,
      "##Bus": 7783,
      "##nakatat": 7784,
      "##Salungat": 7785,
      "##sekwensiya": 7786,
      "##pambatas": 7787,
      "##Washington": 7788,
      "##namamahala": 7789,
      "uron": 7790,
      "##Negros": 7791,
      "##relatibong": 7792,
      "atig": 7793,
      "##data": 7794,
      "awakas": 7795,
      "##Academ": 7796,
      "##Eskoses": 7797,
      "##nawalan": 7798,
      "##kapalaran": 7799,
      "ps": 7800,
      "##Hin": 7801,
      "##duk": 7802,
      "##tupa": 7803,
      "##tangway": 7804,
      "##Institute": 7805,
      "##konklusyon": 7806,
      "##mapanganib": 7807,
      "##54": 7808,
      "pera": 7809,
      "##1983": 7810,
      "##mand": 7811,
      "##pangp": 7812,
      "##demonyo": 7813,
      "##integral": 7814,
      "vina": 7815,
      "##lamb": 7816,
      "##sini": 7817,
      "##sumak": 7818,
      "##alaala": 7819,
      "##karamihang": 7820,
      "##log": 7821,
      "##nagh": 7822,
      "##roon": 7823,
      "##maaga": 7824,
      "##pandaigdigan": 7825,
      "yr": 7826,
      "##Aser": 7827,
      "##dise": 7828,
      "##klin": 7829,
      "##sihay": 7830,
      "ibigang": 7831,
      "##itinuro": 7832,
      "##pagkasira": 7833,
      "##du": 7834,
      "##Lee": 7835,
      "##Gran": 7836,
      "##kard": 7837,
      "##Lopez": 7838,
      "##instit": 7839,
      "##pagluluto": 7840,
      "##German": 7841,
      "##Irlandes": 7842,
      "api": 7843,
      "uklok": 7844,
      "##1999": 7845,
      "##ipap": 7846,
      "##single": 7847,
      "##demokrasya": 7848,
      "##Emp": 7849,
      "masid": 7850,
      "##negos": 7851,
      "##makabuo": 7852,
      "##larawang": 7853,
      "##Mesopotam": 7854,
      "##Occidental": 7855,
      "##pagkah": 7856,
      "##pagpapah": 7857,
      "##Il": 7858,
      "##ok": 7859,
      "hite": 7860,
      "rino": 7861,
      "##Nazar": 7862,
      "##korup": 7863,
      "##magkaibang": 7864,
      "##tungkuling": 7865,
      "##Kasalukuyang": 7866,
      "ports": 7867,
      "bangan": 7868,
      "saktong": 7869,
      "##inalis": 7870,
      "##pagmamay": 7871,
      "70": 7872,
      "##Ukran": 7873,
      "##count": 7874,
      "##Iceland": 7875,
      "##Timoteo": 7876,
      "kwil": 7877,
      "##Marcion": 7878,
      "##Prinsipe": 7879,
      "##momentum": 7880,
      "##nagtagal": 7881,
      "##Kaz": 7882,
      "##mis": 7883,
      "rista": 7884,
      "##2008.": 7885,
      "##Kinat": 7886,
      "apektuhan": 7887,
      "##pagkalat": 7888,
      "##estadistika": 7889,
      "bus": 7890,
      "anya": 7891,
      "##arm": 7892,
      "##eskw": 7893,
      "bolong": 7894,
      "##limitado": 7895,
      "##pinakamaliit": 7896,
      "umpati": 7897,
      "##Krist": 7898,
      "##diskrim": 7899,
      "##pagtatanghal": 7900,
      "13": 7901,
      "uns": 7902,
      "rome": 7903,
      "##Lip": 7904,
      "ensiyong": 7905,
      "dows": 7906,
      "sanan": 7907,
      "##Isinaad": 7908,
      "##tipikal": 7909,
      "##,.": 7910,
      "asco": 7911,
      "##its": 7912,
      "uugnay": 7913,
      "##Palip": 7914,
      "##sunog": 7915,
      "##Malaki": 7916,
      "##pangkab": 7917,
      "##itinakda": 7918,
      "##itinuturo": 7919,
      "##Lam": 7920,
      "##ger": 7921,
      "acter": 7922,
      "onomo": 7923,
      "##121.": 7924,
      "##kabundukan": 7925,
      "##sumusuporta": 7926,
      "irm": 7927,
      "##Reino": 7928,
      "artamento": 7929,
      "##nananaig": 7930,
      "##SM": 7931,
      "hine": 7932,
      "##Swed": 7933,
      "##Indian": 7934,
      "##sentrong": 7935,
      "##ikalimang": 7936,
      "sey": 7937,
      "##Adan": 7938,
      "inatnan": 7939,
      "vent": 7940,
      "empor": 7941,
      "ilitan": 7942,
      "##parlam": 7943,
      "##imbesti": 7944,
      "##Arhentina": 7945,
      "##Asia": 7946,
      "##Super": 7947,
      "##Sibyla": 7948,
      "igen": 7949,
      "##ere": 7950,
      "entista": 7951,
      "##Gantimp": 7952,
      "##Nahahati": 7953,
      "##Aserbayan": 7954,
      "##Ci": 7955,
      "##atomiko": 7956,
      "xy": 7957,
      "##Lad": 7958,
      "##diy": 7959,
      "onood": 7960,
      "##Herodes": 7961,
      "ubha": 7962,
      "##160": 7963,
      "##Cho": 7964,
      "##nagsaad": 7965,
      "##Pambansa": 7966,
      "amis": 7967,
      "##bungang": 7968,
      "##pinagka": 7969,
      "##paglabag": 7970,
      "##pagtugon": 7971,
      "##kumpletong": 7972,
      "##1940": 7973,
      "##Tech": 7974,
      "##Nigeria": 7975,
      "##ipinagdiriwang": 7976,
      "uld": 7977,
      "##tinukoy": 7978,
      "##arkeologo": 7979,
      "##kalagayang": 7980,
      "yt": 7981,
      "sau": 7982,
      "ering": 7983,
      "##Mary": 7984,
      "##diyal": 7985,
      "##Windows": 7986,
      "##salamin": 7987,
      "##antibiyo": 7988,
      "##sinusuportahan": 7989,
      "kado": 7990,
      "##hag": 7991,
      "##alis": 7992,
      "insala": 7993,
      "##Napole": 7994,
      "##bughaw": 7995,
      "##pababa": 7996,
      "##positibo": 7997,
      "kano": 7998,
      "##Hawa": 7999,
      "##anya": 8000,
      "yanismo": 8001,
      "##genome": 8002,
      "##espiritu": 8003,
      "var": 8004,
      "##154": 8005,
      "##katub": 8006,
      "##malayo": 8007,
      "##malinis": 8008,
      "##kantidad": 8009,
      "##malayong": 8010,
      "##ruta": 8011,
      "halaga": 8012,
      "##Awstr": 8013,
      "##titulo": 8014,
      "##tuldok": 8015,
      "##epektong": 8016,
      "##molekular": 8017,
      "hibo": 8018,
      "##non": 8019,
      "hebra": 8020,
      "##1988": 8021,
      "##bola": 8022,
      "##madla": 8023,
      "##pinup": 8024,
      "##korpor": 8025,
      "##hitsura": 8026,
      "##neutron": 8027,
      "##tumakbo": 8028,
      "##ent": 8029,
      "legal": 8030,
      "##Pula": 8031,
      "##patn": 8032,
      "##Australya": 8033,
      "##katibayan": 8034,
      "##limitadong": 8035,
      "##pagtatanggol": 8036,
      "##atr": 8037,
      "##Rico": 8038,
      "##Solo": 8039,
      "##Judas": 8040,
      "##rural": 8041,
      "##kamang": 8042,
      "##kasintahan": 8043,
      "cent": 8044,
      "vada": 8045,
      "##Sec": 8046,
      "##Sto": 8047,
      "urista": 8048,
      "sam": 8049,
      "##XII": 8050,
      "##mani": 8051,
      "##rega": 8052,
      "awalang": 8053,
      "umpisal": 8054,
      "##hustong": 8055,
      "##kahalintulad": 8056,
      "23": 8057,
      "sar": 8058,
      "##kumb": 8059,
      "##masus": 8060,
      "agpuang": 8061,
      "##Pilato": 8062,
      "##angkan": 8063,
      "##pinagmum": 8064,
      "##pwersang": 8065,
      "##pundasyon": 8066,
      "##tumutugon": 8067,
      "den": 8068,
      "salan": 8069,
      "##bulkan": 8070,
      "##alm": 8071,
      "##120.": 8072,
      "##Rena": 8073,
      "##pataas": 8074,
      "##trabah": 8075,
      "##Nakapag": 8076,
      "uf": 8077,
      "col": 8078,
      "##komplikadong": 8079,
      "gao": 8080,
      "##orgas": 8081,
      "##Napoleon": 8082,
      "##nukleyar": 8083,
      "##pambansa": 8084,
      "met": 8085,
      "qui": 8086,
      "##mig": 8087,
      "isika": 8088,
      "##1985": 8089,
      "##magsagawa": 8090,
      "##paligsahan": 8091,
      "##pagsasalita": 8092,
      "igilan": 8093,
      "##Frank": 8094,
      "##Jeremias": 8095,
      "etta": 8096,
      "##bro": 8097,
      "##magpa": 8098,
      "guniang": 8099,
      "##ibayong": 8100,
      "##Distrito": 8101,
      "##Kadalasan": 8102,
      "##katanungan": 8103,
      "##namumulaklak": 8104,
      "itim": 8105,
      "##kut": 8106,
      "vision": 8107,
      "##sustansiya": 8108,
      "pano": 8109,
      "hikal": 8110,
      "rilyo": 8111,
      "##1965": 8112,
      "##Roxas": 8113,
      "##opisina": 8114,
      "##darating": 8115,
      "##IX": 8116,
      "ibal": 8117,
      "yuan": 8118,
      "istika": 8119,
      "onsumo": 8120,
      "##Andor": 8121,
      "eko": 8122,
      "##vari": 8123,
      "ukaryo": 8124,
      "##Asyano": 8125,
      "##trangkaso": 8126,
      "##korupsiyon": 8127,
      "uv": 8128,
      "ogen": 8129,
      "##detalye": 8130,
      "##katiyakan": 8131,
      "jan": 8132,
      "##simbolong": 8133,
      "##Company": 8134,
      "edral": 8135,
      "##prehis": 8136,
      "##nakukuha": 8137,
      "##tumatagal": 8138,
      "##materyales": 8139,
      "##suliraning": 8140,
      ",8": 8141,
      "##pagkakap": 8142,
      "##Mu": 8143,
      "itid": 8144,
      "itor": 8145,
      "##Ire": 8146,
      "##cas": 8147,
      "udyok": 8148,
      "yerto": 8149,
      "arines": 8150,
      "metro": 8151,
      "##Euse": 8152,
      "##Ikatlong": 8153,
      "##nagpadala": 8154,
      "##pangpagtatalik": 8155,
      "##pinakamaraming": 8156,
      "##Golpo": 8157,
      "##electron": 8158,
      "doro": 8159,
      "##hep": 8160,
      "##naiiba": 8161,
      "##maganap": 8162,
      "##kapatagan": 8163,
      "##klasipikasyon": 8164,
      "CO": 8165,
      "##Buong": 8166,
      "epsiyon": 8167,
      "##Romanos": 8168,
      "bes": 8169,
      "lion": 8170,
      "well": 8171,
      "##Colom": 8172,
      "##gabay": 8173,
      "##input": 8174,
      "##pinas": 8175,
      "##kaparehong": 8176,
      "##nagtagumpay": 8177,
      "##pagkabalisa": 8178,
      "##pulmonya": 8179,
      "##henetikong": 8180,
      "##nakikitang": 8181,
      "aland": 8182,
      "##minuto": 8183,
      "##element": 8184,
      "##disorder": 8185,
      "karis": 8186,
      "##ayos": 8187,
      "ugaling": 8188,
      "##Maaring": 8189,
      "##nagwagi": 8190,
      "##Valentinian": 8191,
      "##tur": 8192,
      "orneo": 8193,
      "##order": 8194,
      "##humingi": 8195,
      "##Matandang": 8196,
      "##pagbubukas": 8197,
      "##inspirasyon": 8198,
      "##magkabilang": 8199,
      "##pagpapatupad": 8200,
      "inh": 8201,
      "##Ji": 8202,
      "papa": 8203,
      "usog": 8204,
      "ordan": 8205,
      "##Channel": 8206,
      "##nakatayo": 8207,
      "##masyadong": 8208,
      "##pansarili": 8209,
      "lica": 8210,
      "##tuber": 8211,
      "##prayle": 8212,
      "##tinaguriang": 8213,
      "##44": 8214,
      "##dumaan": 8215,
      "##nating": 8216,
      "anderthal": 8217,
      "##She": 8218,
      "##kasanayang": 8219,
      "##tumutulong": 8220,
      "##magkakaroon": 8221,
      "##Kur": 8222,
      "##pem": 8223,
      "##daluyan": 8224,
      "##Ethiopia": 8225,
      "##Laskaris": 8226,
      "##ebolusyonaryo": 8227,
      "tin": 8228,
      "##CD": 8229,
      "##Hos": 8230,
      "##Sri": 8231,
      "##Bill": 8232,
      "##Tana": 8233,
      "now": 8234,
      "##65": 8235,
      "##Fri": 8236,
      "##blo": 8237,
      "##lam": 8238,
      "usisyon": 8239,
      "##Doukas": 8240,
      "##Ukranya": 8241,
      "##posibilidad": 8242,
      "zer": 8243,
      "##Pand": 8244,
      "##Proto": 8245,
      "##number": 8246,
      "##Camarines": 8247,
      "##pinangang": 8248,
      "##himpapawid": 8249,
      "##nagsisilbi": 8250,
      "ront": 8251,
      "##Musi": 8252,
      "istikong": 8253,
      "##pinakamataong": 8254,
      "saw": 8255,
      "##Qui": 8256,
      "##Isaac": 8257,
      "##anuman": 8258,
      "##paglilitis": 8259,
      "##pansariling": 8260,
      "chus": 8261,
      "##Tun": 8262,
      "##bos": 8263,
      "##yerba": 8264,
      "##Sanskrit": 8265,
      "indig": 8266,
      "##inak": 8267,
      "##bumab": 8268,
      "ulungang": 8269,
      "##sinuman": 8270,
      "##magagawa": 8271,
      "hic": 8272,
      "seg": 8273,
      "##bip": 8274,
      "ayaan": 8275,
      "##Code": 8276,
      "lantad": 8277,
      "##Sweden": 8278,
      "##maganda": 8279,
      "26": 8280,
      "##7.": 8281,
      "organ": 8282,
      "##asin": 8283,
      "usapan": 8284,
      "##matigas": 8285,
      "##galaksiya": 8286,
      "##nagmumungkahing": 8287,
      "ker": 8288,
      "tus": 8289,
      "##Kel": 8290,
      "ungkot": 8291,
      "##Mexico": 8292,
      "dez": 8293,
      "##Jun": 8294,
      "##poly": 8295,
      "##Niceno": 8296,
      "lalakbay": 8297,
      "ks": 8298,
      "##dek": 8299,
      "##enc": 8300,
      "unsod": 8301,
      "##Bisa": 8302,
      "##Ngayon": 8303,
      "##Sabado": 8304,
      "##pinangunahan": 8305,
      "##ul": 8306,
      "##Mur": 8307,
      "##opin": 8308,
      "itus": 8309,
      "##eko": 8310,
      "ataang": 8311,
      "##Corpor": 8312,
      "##Kataas": 8313,
      "##nagpapa": 8314,
      "##mikroskop": 8315,
      "atehiya": 8316,
      "##Komunista": 8317,
      "##Ramon": 8318,
      "##ibabang": 8319,
      "##pagsabog": 8320,
      "fect": 8321,
      "perma": 8322,
      "inanong": 8323,
      "##historyan": 8324,
      "##kasulatang": 8325,
      "zzano": 8326,
      "##Plat": 8327,
      "##trut": 8328,
      "##Agust": 8329,
      "##Persia": 8330,
      "##September": 8331,
      "##heograpiya": 8332,
      "##Mun": 8333,
      "##hig": 8334,
      "##pagmaman": 8335,
      "##diperensiyang": 8336,
      "stra": 8337,
      "##1996": 8338,
      "piritu": 8339,
      "##terap": 8340,
      "##Latino": 8341,
      "##parangal": 8342,
      "##ipinagbabawal": 8343,
      "bu": 8344,
      "ubay": 8345,
      "##Prus": 8346,
      "##ikot": 8347,
      "##nakak": 8348,
      "##Cristo": 8349,
      "##karbon": 8350,
      "##singaw": 8351,
      "kalumang": 8352,
      "##kasalanang": 8353,
      "##mitolohiya": 8354,
      "agu": 8355,
      "ugod": 8356,
      "##hah": 8357,
      "osyon": 8358,
      "##lupang": 8359,
      "##pantele": 8360,
      "##nagtulak": 8361,
      "##kakaibang": 8362,
      "##namumuhay": 8363,
      "itud": 8364,
      "lima": 8365,
      "##sipi": 8366,
      "##soft": 8367,
      "##konserb": 8368,
      "inda": 8369,
      "##plast": 8370,
      "wanagan": 8371,
      "##representasyon": 8372,
      "75": 8373,
      "rel": 8374,
      "##Suz": 8375,
      "##misa": 8376,
      "anasang": 8377,
      "##butong": 8378,
      "##Tinatayang": 8379,
      "##impeksiyong": 8380,
      "##pangkasaysayan": 8381,
      "lupa": 8382,
      "##Beng": 8383,
      "##Taka": 8384,
      "alipin": 8385,
      "##Sub": 8386,
      "##mood": 8387,
      "##pumalit": 8388,
      "##hinahang": 8389,
      "##nagpasimula": 8390,
      "##Ul": 8391,
      "urok": 8392,
      "##mahal": 8393,
      "inasyong": 8394,
      "##Malaking": 8395,
      "je": 8396,
      "brid": 8397,
      "##18.": 8398,
      "##ehekut": 8399,
      "##kanang": 8400,
      "##pinsan": 8401,
      "##konsent": 8402,
      "##malambot": 8403,
      "omar": 8404,
      "##Pasa": 8405,
      "##kaaga": 8406,
      "##handog": 8407,
      "##Natagpuan": 8408,
      "##panaginip": 8409,
      "##Bol": 8410,
      "##Kil": 8411,
      "##Magal": 8412,
      "utulong": 8413,
      "##Nicaea": 8414,
      "##pinagt": 8415,
      "##pagbubuo": 8416,
      "##kaisipang": 8417,
      "ahok": 8418,
      "ilio": 8419,
      "##Zim": 8420,
      "##sec": 8421,
      "##1946": 8422,
      "##Como": 8423,
      "##berteb": 8424,
      "##Nations": 8425,
      "##Sinasabi": 8426,
      "nos": 8427,
      "abor": 8428,
      "##air": 8429,
      "onimo": 8430,
      "##kuli": 8431,
      "##bituka": 8432,
      "##romant": 8433,
      "##Maliban": 8434,
      "##Corporation": 8435,
      "##pagkapangulo": 8436,
      "90": 8437,
      "ght": 8438,
      "##nal": 8439,
      "ahila": 8440,
      "lapit": 8441,
      "##Ramos": 8442,
      "##ipinalabas": 8443,
      "##pagtatatag": 8444,
      "##pagtitiwala": 8445,
      "##Ox": 8446,
      "##hot": 8447,
      "##Alaga": 8448,
      "##makik": 8449,
      "##nagdala": 8450,
      "##Alejandro": 8451,
      "##Kinatawan": 8452,
      "##nagpapahayag": 8453,
      "rey": 8454,
      "##Moz": 8455,
      "##uli": 8456,
      "alaya": 8457,
      "anawin": 8458,
      "##lingguw": 8459,
      "##gumagana": 8460,
      "oc": 8461,
      "##Tak": 8462,
      "##tagat": 8463,
      "##eksaktong": 8464,
      "saka": 8465,
      "##Hor": 8466,
      "##Kag": 8467,
      "##lalag": 8468,
      "garilyo": 8469,
      "##tinggil": 8470,
      "##lalakeng": 8471,
      "##umaasang": 8472,
      "##Rad": 8473,
      "##1948": 8474,
      "##kumain": 8475,
      "##English": 8476,
      "##palasyo": 8477,
      "##posible": 8478,
      "##pagpaparami": 8479,
      "ales": 8480,
      "##Ach": 8481,
      "##ump": 8482,
      "torya": 8483,
      "##Mindoro": 8484,
      "##Sistemang": 8485,
      "hila": 8486,
      "##Pet": 8487,
      "##Cambrian": 8488,
      "##inilunsad": 8489,
      "##elektromag": 8490,
      "alon": 8491,
      "##Mao": 8492,
      "##Pok": 8493,
      "##palip": 8494,
      "##birhen": 8495,
      "##dalang": 8496,
      "##nagpaka": 8497,
      "##internet": 8498,
      "loid": 8499,
      "sita": 8500,
      "tero": 8501,
      "##Samp": 8502,
      "##piye": 8503,
      "##Dakila": 8504,
      "##Pagsasa": 8505,
      "##idinagdag": 8506,
      "##Samakatuwid": 8507,
      "dami": 8508,
      "utom": 8509,
      "lekta": 8510,
      "##dumi": 8511,
      "##long": 8512,
      "##Island": 8513,
      "##Nether": 8514,
      "##Madagas": 8515,
      "##nakatala": 8516,
      "##isinilang": 8517,
      "##tagapangasiwa": 8518,
      "30": 8519,
      "98": 8520,
      "dol": 8521,
      "undi": 8522,
      "##abstrak": 8523,
      "##basikong": 8524,
      "##kabahaging": 8525,
      "##sandatahang": 8526,
      "##oryentasyong": 8527,
      "##Ira": 8528,
      "umanggi": 8529,
      "##Henesis": 8530,
      "##basehan": 8531,
      "##milagro": 8532,
      "##Hinduismo": 8533,
      "##maramihan": 8534,
      "##Bik": 8535,
      "##nili": 8536,
      "##2009.": 8537,
      "indihan": 8538,
      "lohista": 8539,
      "##makukuha": 8540,
      "##negatibo": 8541,
      "##`": 8542,
      "light": 8543,
      "yansa": 8544,
      "##amoy": 8545,
      "##nucleus": 8546,
      "##Internet": 8547,
      "##Qur": 8548,
      "##inc": 8549,
      "naryo": 8550,
      "##Alagad": 8551,
      "##relatibidad": 8552,
      "##magkakaugnay": 8553,
      "##Day": 8554,
      "##1941": 8555,
      "tikong": 8556,
      "##droga": 8557,
      "##ikatlo": 8558,
      "##papala": 8559,
      "##sintesis": 8560,
      "##Enri": 8561,
      "anggol": 8562,
      "##midya": 8563,
      "##orden": 8564,
      "##uusig": 8565,
      "##tingin": 8566,
      "##nakalagay": 8567,
      "##Organization": 8568,
      "xis": 8569,
      "##nilay": 8570,
      "untahan": 8571,
      "##linyar": 8572,
      "##naglingkod": 8573,
      "jin": 8574,
      "##Dj": 8575,
      "##Kla": 8576,
      "bakal": 8577,
      "venue": 8578,
      "##dula": 8579,
      "toridad": 8580,
      "##France": 8581,
      "##senador": 8582,
      "##tindahan": 8583,
      "##kinalalagyan": 8584,
      "arte": 8585,
      "##Taon": 8586,
      "##host": 8587,
      "##tuwid": 8588,
      "##aplikasyon": 8589,
      "##'.": 8590,
      "lius": 8591,
      "##Hot": 8592,
      "##Inc": 8593,
      "likano": 8594,
      "ensidad": 8595,
      "##binaba": 8596,
      "##pagkakamit": 8597,
      "##responsibilidad": 8598,
      "##52": 8599,
      "##sk": 8600,
      "emen": 8601,
      "##1949": 8602,
      "##kunin": 8603,
      "antayan": 8604,
      "##Solomon": 8605,
      "##ve": 8606,
      "##1930": 8607,
      "ninilay": 8608,
      "##ibinalik": 8609,
      "##pagsakop": 8610,
      "pus": 8611,
      "##em": 8612,
      "##bana": 8613,
      "usugang": 8614,
      "##Albert": 8615,
      "##Health": 8616,
      "ompyuter": 8617,
      "##pagtulong": 8618,
      "##pilosopong": 8619,
      "azz": 8620,
      "##fac": 8621,
      "enyong": 8622,
      "##makro": 8623,
      "ektahan": 8624,
      "##naaangkop": 8625,
      "##emb": 8626,
      "##kosmo": 8627,
      "##Magmula": 8628,
      "##sinusundan": 8629,
      "##Cir": 8630,
      "##Sik": 8631,
      "##right": 8632,
      "ugp": 8633,
      "##XVI": 8634,
      "##alit": 8635,
      "##Troya": 8636,
      "##drama": 8637,
      "##kumpol": 8638,
      "##Krusada": 8639,
      "##Kardinal": 8640,
      "##doktrinang": 8641,
      "##But": 8642,
      "lanes": 8643,
      "##Ermita": 8644,
      "##entidad": 8645,
      "##pulgada": 8646,
      "##sakupin": 8647,
      "##planetang": 8648,
      "##Rebolusyong": 8649,
      "nano": 8650,
      "##All": 8651,
      "##Yos": 8652,
      "##ahedres": 8653,
      "##European": 8654,
      "##inaasahan": 8655,
      "##Kalimitang": 8656,
      "##56": 8657,
      "##One": 8658,
      "ukhang": 8659,
      "##reyna": 8660,
      "##Iloilo": 8661,
      "##import": 8662,
      "##disease": 8663,
      "##laboratoryo": 8664,
      "##Mesa": 8665,
      "##Broad": 8666,
      "##People": 8667,
      "##pagmim": 8668,
      "##itinalaga": 8669,
      "ible": 8670,
      "##bungo": 8671,
      "##pagsam": 8672,
      "##Quirino": 8673,
      "##Kalaunan": 8674,
      "##Kaw": 8675,
      "gdaan": 8676,
      "##aler": 8677,
      "##lumi": 8678,
      "##under": 8679,
      "##dibisyon": 8680,
      "##mayamang": 8681,
      "emp": 8682,
      "##6.": 8683,
      "arch": 8684,
      "eman": 8685,
      "##mabagal": 8686,
      "##kalamnan": 8687,
      "##absolutong": 8688,
      "##^": 8689,
      "arth": 8690,
      "##inaangkin": 8691,
      "##lumaganap": 8692,
      "##nakakapag": 8693,
      "##pagtatakda": 8694,
      "##Netherlands": 8695,
      "##pagkakamali": 8696,
      "ikli": 8697,
      "vern": 8698,
      "##rept": 8699,
      "usbong": 8700,
      "##Cambo": 8701,
      "##Colum": 8702,
      "##America": 8703,
      "##makalikha": 8704,
      "##pagkalipas": 8705,
      "54": 8706,
      "wo": 8707,
      "sant": 8708,
      "antig": 8709,
      "##Itim": 8710,
      "##ikaw": 8711,
      "##puki": 8712,
      "lement": 8713,
      "##ahente": 8714,
      "ineering": 8715,
      "##ST": 8716,
      "##Borm": 8717,
      "##iiba": 8718,
      "mangan": 8719,
      "positor": 8720,
      "roroonan": 8721,
      "##balikat": 8722,
      "##kasingkahulugan": 8723,
      "okan": 8724,
      "##Ako": 8725,
      "##Dec": 8726,
      "##Kay": 8727,
      "##Lao": 8728,
      "ritis": 8729,
      "##year": 8730,
      "##hinah": 8731,
      "##nagawang": 8732,
      "oniko": 8733,
      "##itinag": 8734,
      "ahilanan": 8735,
      "##tumuturing": 8736,
      "##antibiyotiko": 8737,
      "ubad": 8738,
      "tipon": 8739,
      "antiya": 8740,
      "##inapo": 8741,
      "##paghihirap": 8742,
      "ense": 8743,
      "isia": 8744,
      "olos": 8745,
      "##mit": 8746,
      "##nagpat": 8747,
      "##Ottoman": 8748,
      "olum": 8749,
      "vian": 8750,
      "##Van": 8751,
      "##pis": 8752,
      "##Imin": 8753,
      "##Orig": 8754,
      "##Virg": 8755,
      "##Agham": 8756,
      "enstein": 8757,
      "##Bagama": 8758,
      "##pagkag": 8759,
      "otse": 8760,
      "##Lup": 8761,
      "##nit": 8762,
      "areho": 8763,
      "##Bali": 8764,
      "##Marino": 8765,
      "##tuberc": 8766,
      "##kilomet": 8767,
      "##nasakop": 8768,
      "##makilala": 8769,
      "##taglamig": 8770,
      "##Castelletto": 8771,
      "##Gantimpalang": 8772,
      "##ani": 8773,
      "##1969": 8774,
      "##kalye": 8775,
[...]
